{
  "version": "1.0",
  "truncation": null,
  "padding": null,
  "added_tokens": [
    {
      "id": 0,
      "content": "[UNK]",
      "single_word": false,
      "lstrip": false,
      "rstrip": false,
      "normalized": false,
      "special": true
    },
    {
      "id": 1,
      "content": "[PAD]",
      "single_word": false,
      "lstrip": false,
      "rstrip": false,
      "normalized": false,
      "special": true
    }
  ],
  "normalizer": null,
  "pre_tokenizer": {
    "type": "Whitespace"
  },
  "post_processor": null,
  "decoder": null,
  "model": {
    "type": "BPE",
    "dropout": null,
    "unk_token": "[UNK]",
    "continuing_subword_prefix": null,
    "end_of_word_suffix": null,
    "fuse_unk": false,
    "byte_fallback": false,
    "ignore_merges": false,
    "vocab": {
      "[UNK]": 0,
      "[PAD]": 1,
      "!": 2,
      "\"": 3,
      "#": 4,
      "%": 5,
      "&": 6,
      "'": 7,
      "(": 8,
      ")": 9,
      "*": 10,
      ",": 11,
      "-": 12,
      ".": 13,
      "/": 14,
      "0": 15,
      "1": 16,
      "2": 17,
      "3": 18,
      "4": 19,
      "5": 20,
      "6": 21,
      "7": 22,
      "8": 23,
      "9": 24,
      ":": 25,
      ";": 26,
      "?": 27,
      "@": 28,
      "A": 29,
      "B": 30,
      "C": 31,
      "D": 32,
      "E": 33,
      "F": 34,
      "G": 35,
      "H": 36,
      "I": 37,
      "J": 38,
      "K": 39,
      "L": 40,
      "M": 41,
      "N": 42,
      "O": 43,
      "P": 44,
      "Q": 45,
      "R": 46,
      "S": 47,
      "T": 48,
      "U": 49,
      "V": 50,
      "W": 51,
      "X": 52,
      "Y": 53,
      "Z": 54,
      "[": 55,
      "]": 56,
      "_": 57,
      "a": 58,
      "b": 59,
      "c": 60,
      "d": 61,
      "e": 62,
      "f": 63,
      "g": 64,
      "h": 65,
      "i": 66,
      "j": 67,
      "k": 68,
      "l": 69,
      "m": 70,
      "n": 71,
      "o": 72,
      "p": 73,
      "q": 74,
      "r": 75,
      "s": 76,
      "t": 77,
      "u": 78,
      "v": 79,
      "w": 80,
      "x": 81,
      "y": 82,
      "z": 83,
      "é": 84,
      "–": 85,
      "‘": 86,
      "’": 87,
      "“": 88,
      "”": 89,
      "ku": 90,
      "ng": 91,
      "la": 92,
      "th": 93,
      "le": 94,
      "ba": 95,
      "wa": 96,
      "zi": 97,
      "en": 98,
      "si": 99,
      "ma": 100,
      "kh": 101,
      "ka": 102,
      "li": 103,
      "lo": 104,
      "thi": 105,
      "we": 106,
      "na": 107,
      "se": 108,
      "nd": 109,
      "ph": 110,
      "uku": 111,
      "nga": 112,
      "sh": 113,
      "ni": 114,
      "be": 115,
      "lu": 116,
      "ngo": 117,
      "ya": 118,
      "ne": 119,
      "sa": 120,
      "oku": 121,
      "em": 122,
      "ye": 123,
      "yi": 124,
      "za": 125,
      "bu": 126,
      "eni": 127,
      "aba": 128,
      "ke": 129,
      "um": 130,
      "nt": 131,
      "zo": 132,
      "ko": 133,
      "ze": 134,
      "bi": 135,
      "bo": 136,
      "ukuthi": 137,
      "yo": 138,
      "the": 139,
      "kho": 140,
      "ha": 141,
      "kwa": 142,
      "mi": 143,
      "ngi": 144,
      "lwa": 145,
      "no": 146,
      "nge": 147,
      "khu": 148,
      "so": 149,
      "ama": 150,
      "pha": 151,
      "hla": 152,
      "nj": 153,
      "kha": 154,
      "dla": 155,
      "kw": 156,
      "fu": 157,
      "ela": 158,
      "tha": 159,
      "kwe": 160,
      "tho": 161,
      "ele": 162,
      "ezi": 163,
      "izi": 164,
      "ngu": 165,
      "isi": 166,
      "esi": 167,
      "weni": 168,
      "nje": 169,
      "shi": 170,
      "nye": 171,
      "ki": 172,
      "thu": 173,
      "wo": 174,
      "Ma": 175,
      "ci": 176,
      "er": 177,
      "fa": 178,
      "qo": 179,
      "sho": 180,
      "nya": 181,
      "bh": 182,
      "mbi": 183,
      "nda": 184,
      "qa": 185,
      "mu": 186,
      "sha": 187,
      "da": 188,
      "ndo": 189,
      "Ng": 190,
      "khe": 191,
      "hle": 192,
      "pho": 193,
      "eli": 194,
      "ngen": 195,
      "di": 196,
      "hu": 197,
      "ngoku": 198,
      "at": 199,
      "ntu": 200,
      "on": 201,
      "kwi": 202,
      "ngoba": 203,
      "khulu": 204,
      "lwe": 205,
      "nto": 206,
      "ho": 207,
      "de": 208,
      "ben": 209,
      "co": 210,
      "uma": 211,
      "qe": 212,
      "mba": 213,
      "ca": 214,
      "emi": 215,
      "Si": 216,
      "uM": 217,
      "va": 218,
      "dwa": 219,
      "ri": 220,
      "me": 221,
      "mo": 222,
      "khona": 223,
      "es": 224,
      "ti": 225,
      "phi": 226,
      "kule": 227,
      "lela": 228,
      "in": 229,
      "fi": 230,
      "seben": 231,
      "hlo": 232,
      "ulu": 233,
      "uthe": 234,
      "embu": 235,
      "mp": 236,
      "uz": 237,
      "wu": 238,
      "qembu": 239,
      "bhe": 240,
      "phe": 241,
      "kwen": 242,
      "ini": 243,
      "Ku": 244,
      "to": 245,
      "zwe": 246,
      "noku": 247,
      "hi": 248,
      "kusho": 249,
      "khathi": 250,
      "20": 251,
      "ta": 252,
      "kodwa": 253,
      "ga": 254,
      "gi": 255,
      "ndi": 256,
      "dlalo": 257,
      "zini": 258,
      "yoku": 259,
      "Uthe": 260,
      "vu": 261,
      "ngesi": 262,
      "bha": 263,
      "nde": 264,
      "swa": 265,
      "gci": 266,
      "nke": 267,
      "njengoba": 268,
      "imi": 269,
      "su": 270,
      "kathi": 271,
      "hlu": 272,
      "or": 273,
      "qhu": 274,
      "te": 275,
      "eku": 276,
      "land": 277,
      "lweni": 278,
      "UM": 279,
      "she": 280,
      "wesi": 281,
      "kuleli": 282,
      "sebenzi": 283,
      "Kwa": 284,
      "futhi": 285,
      "leni": 286,
      "abantu": 287,
      "al": 288,
      "zwa": 289,
      "ene": 290,
      "Pi": 291,
      "mbe": 292,
      "Zulu": 293,
      "nyaka": 294,
      "ngapha": 295,
      "qala": 296,
      "loku": 297,
      "bona": 298,
      "ge": 299,
      "nezi": 300,
      "he": 301,
      "ena": 302,
      "do": 303,
      "ro": 304,
      "Ba": 305,
      ",”": 306,
      "dlu": 307,
      "vi": 308,
      "gu": 309,
      "cu": 310,
      "yisa": 311,
      "nele": 312,
      "Lo": 313,
      "du": 314,
      "tsh": 315,
      "ve": 316,
      "bili": 317,
      "zoku": 318,
      "lele": 319,
      "qu": 320,
      "nzi": 321,
      "khi": 322,
      "nuz": 323,
      "kela": 324,
      "Nat": 325,
      "beni": 326,
      "woku": 327,
      "kwazi": 328,
      "ra": 329,
      "nama": 330,
      "kulu": 331,
      "et": 332,
      "ema": 333,
      "uN": 334,
      "funa": 335,
      "ndla": 336,
      "phakathi": 337,
      "ship": 338,
      "yisi": 339,
      "nsi": 340,
      "ubu": 341,
      "koku": 342,
      "rat": 343,
      "xa": 344,
      "ngama": 345,
      "qhube": 346,
      "Su": 347,
      "ion": 348,
      "oli": 349,
      "thola": 350,
      "Ka": 351,
      "nja": 352,
      "men": 353,
      "ns": 354,
      "kakhulu": 355,
      "amapho": 356,
      "uMnuz": 357,
      "pa": 358,
      "mali": 359,
      "rates": 360,
      "hlanga": 361,
      ".\"": 362,
      "qi": 363,
      "kile": 364,
      "fanele": 365,
      "Pirates": 366,
      "So": 367,
      "cimbi": 368,
      "Af": 369,
      "ja": 370,
      "kuba": 371,
      "lokhu": 372,
      "sen": 373,
      "lapho": 374,
      "ce": 375,
      "enga": 376,
      "Ngi": 377,
      "ese": 378,
      "ningi": 379,
      "thetho": 380,
      "The": 381,
      "ukuze": 382,
      "bula": 383,
      "Chi": 384,
      "fs": 385,
      "kene": 386,
      "re": 387,
      "kazi": 388,
      "hlelo": 389,
      "ngesikhathi": 390,
      "202": 391,
      "qini": 392,
      "dlali": 393,
      "Afri": 394,
      "fana": 395,
      "Mo": 396,
      "ngem": 397,
      "zin": 398,
      "KwaZulu": 399,
      "Natal": 400,
      "izo": 401,
      "suku": 402,
      "mbisa": 403,
      "Ca": 404,
      "Sta": 405,
      "zeka": 406,
      "kwenza": 407,
      "ks": 408,
      "ty": 409,
      "wase": 410,
      "nom": 411,
      "qeqe": 412,
      "thathu": 413,
      "nti": 414,
      ",\"": 415,
      "Le": 416,
      "nta": 417,
      "00": 418,
      "Pha": 419,
      "seku": 420,
      "izin": 421,
      "cala": 422,
      "gcina": 423,
      "Pr": 424,
      "ukuba": 425,
      "ntolo": 426,
      "kantolo": 427,
      "Ci": 428,
      "lisa": 429,
      "ndawo": 430,
      "emier": 431,
      "Premier": 432,
      "abe": 433,
      "uva": 434,
      "olu": 435,
      "wns": 436,
      "shwa": 437,
      "zane": 438,
      "mbili": 439,
      "ndowns": 440,
      "uzu": 441,
      "Sundowns": 442,
      "mele": 443,
      "soku": 444,
      "ndeni": 445,
      "umu": 446,
      "ngenxa": 447,
      "dlule": 448,
      "Chie": 449,
      "ur": 450,
      "lando": 451,
      "naba": 452,
      "dlalweni": 453,
      "holi": 454,
      "njalo": 455,
      "Chiefs": 456,
      "owa": 457,
      "pe": 458,
      "swe": 459,
      "wen": 460,
      "UN": 461,
      "aku": 462,
      "st": 463,
      "lesi": 464,
      "moto": 465,
      "yena": 466,
      "umo": 467,
      "Co": 468,
      "nu": 469,
      "wi": 470,
      "waba": 471,
      "sela": 472,
      "ngaba": 473,
      "dlala": 474,
      "AN": 475,
      "eN": 476,
      "sele": 477,
      "ndleni": 478,
      "phum": 479,
      "hamba": 480,
      "vele": 481,
      "ngqo": 482,
      "ndle": 483,
      "ngoM": 484,
      "emba": 485,
      "khaya": 486,
      "Stadi": 487,
      "Premiership": 488,
      "of": 489,
      "phen": 490,
      "hlaba": 491,
      "ngokuthi": 492,
      "Stadium": 493,
      "cwa": 494,
      "rd": 495,
      "kuzo": 496,
      "ksz": 497,
      "ch": 498,
      "eza": 499,
      "ji": 500,
      "ngena": 501,
      "eya": 502,
      "noma": 503,
      "funda": 504,
      "eM": 505,
      "phinde": 506,
      "mbo": 507,
      "mdlalo": 508,
      "ube": 509,
      "ngweni": 510,
      "uzo": 511,
      "yu": 512,
      "kulo": 513,
      "phela": 514,
      "phele": 515,
      "nyango": 516,
      "landela": 517,
      "No": 518,
      "ebe": 519,
      "wana": 520,
      "munye": 521,
      "qhubeka": 522,
      "City": 523,
      "Ama": 524,
      "ase": 525,
      "go": 526,
      "ent": 527,
      "yesi": 528,
      "Afrika": 529,
      "ngezi": 530,
      "solwa": 531,
      "dlela": 532,
      "ban": 533,
      "enda": 534,
      "phuzu": 535,
      "zela": 536,
      "ig": 537,
      "meni": 538,
      "ngum": 539,
      "ngizi": 540,
      "kwesi": 541,
      "bho": 542,
      "hlukene": 543,
      "Phala": 544,
      "Ramapho": 545,
      "engu": 546,
      "ligi": 547,
      "yase": 548,
      "qinise": 549,
      "qeqeshi": 550,
      "Ramaphosa": 551,
      "use": 552,
      "kuka": 553,
      "kube": 554,
      "kala": 555,
      "yakhe": 556,
      "kwezi": 557,
      "Cha": 558,
      "Or": 559,
      "bazo": 560,
      "ngakho": 561,
      "LI": 562,
      "SA": 563,
      "xo": 564,
      "lelwa": 565,
      "phu": 566,
      "khuluma": 567,
      "bheka": 568,
      "phez": 569,
      "Aba": 570,
      "nkulu": 571,
      "leli": 572,
      "ziwa": 573,
      "lokho": 574,
      "kwaba": 575,
      "mpa": 576,
      "mende": 577,
      "enye": 578,
      "kanje": 579,
      "Nga": 580,
      "gebe": 581,
      "FC": 582,
      "Ima": 583,
      "Na": 584,
      "eyi": 585,
      "nq": 586,
      "lala": 587,
      "wama": 588,
      "Image": 589,
      "Ju": 590,
      "mcimbi": 591,
      "usho": 592,
      "kwama": 593,
      "nzima": 594,
      "Bet": 595,
      "Lwesi": 596,
      "lezi": 597,
      "leka": 598,
      "thole": 599,
      "thuba": 600,
      "nka": 601,
      "vo": 602,
      "emdlalweni": 603,
      "kwini": 604,
      "fika": 605,
      "mela": 606,
      "meli": 607,
      "wathi": 608,
      "khala": 609,
      "fazane": 610,
      "coco": 611,
      "veze": 612,
      "lle": 613,
      "qha": 614,
      "tu": 615,
      "wukuthi": 616,
      "ngeni": 617,
      "nemi": 618,
      "fundi": 619,
      "Ga": 620,
      "IF": 621,
      "Ja": 622,
      "lli": 623,
      "uB": 624,
      "uT": 625,
      "thwe": 626,
      "way": 627,
      "ndaba": 628,
      "shini": 629,
      "Thekwini": 630,
      "Isi": 631,
      "Mi": 632,
      "Sa": 633,
      "angu": 634,
      "fo": 635,
      "nen": 636,
      "nqa": 637,
      "ngom": 638,
      "ngoLwesi": 639,
      "sonto": 640,
      "fundo": 641,
      "Ni": 642,
      "Uni": 643,
      "obe": 644,
      "uMa": 645,
      "thwa": 646,
      "waye": 647,
      "lungu": 648,
      "nesi": 649,
      "yoM": 650,
      "sebenza": 651,
      "game": 652,
      "Zi": 653,
      "sizo": 654,
      "lika": 655,
      "thiwa": 656,
      "buye": 657,
      "ngizimu": 658,
      "Betway": 659,
      "Um": 660,
      "ed": 661,
      "ug": 662,
      "kanye": 663,
      "ngayo": 664,
      "belo": 665,
      "lumeni": 666,
      "khetho": 667,
      "hulumeni": 668,
      "culo": 669,
      "daba": 670,
      "gqi": 671,
      "nqo": 672,
      "seni": 673,
      "kukhona": 674,
      "sipa": 675,
      "kanjalo": 676,
      "lovu": 677,
      "ngani": 678,
      "ngane": 679,
      "ngoma": 680,
      "kele": 681,
      "hlobo": 682,
      "landeli": 683,
      "amaphoyisa": 684,
      "umuntu": 685,
      "sipala": 686,
      "UK": 687,
      "Uma": 688,
      "cha": 689,
      "el": 690,
      "ebu": 691,
      "isa": 692,
      "sezi": 693,
      "mpion": 694,
      "Lokhu": 695,
      "Champion": 696,
      "gameko": 697,
      "),": 698,
      "asi": 699,
      "lolu": 700,
      "qale": 701,
      "tion": 702,
      "mpi": 703,
      "ngaphandle": 704,
      "Phalamende": 705,
      "ar": 706,
      "ezo": 707,
      "hli": 708,
      "ize": 709,
      "pi": 710,
      "uya": 711,
      "wini": 712,
      "kusa": 713,
      "wakhe": 714,
      "kahle": 715,
      "ndlela": 716,
      "eme": 717,
      "huma": 718,
      "cane": 719,
      "hloni": 720,
      "gebengu": 721,
      "KP": 722,
      "To": 723,
      "zweni": 724,
      "sesi": 725,
      "yama": 726,
      "hlaka": 727,
      "endaweni": 728,
      "nqumo": 729,
      "Se": 730,
      "eThekwini": 731,
      "nx": 732,
      "ngaka": 733,
      "ngeke": 734,
      "hlanu": 735,
      "kisa": 736,
      "wona": 737,
      "melo": 738,
      "Orlando": 739,
      "aka": 740,
      "cwe": 741,
      "nko": 742,
      "kusu": 743,
      "themba": 744,
      "bala": 745,
      "lungi": 746,
      "ngendlela": 747,
      "201": 748,
      "Di": 749,
      "IS": 750,
      "imali": 751,
      "om": 752,
      "ngwa": 753,
      "lakhe": 754,
      "emuva": 755,
      "buka": 756,
      "shiya": 757,
      "nyama": 758,
      "ethi": 759,
      "iqembu": 760,
      "ona": 761,
      "usa": 762,
      "kufanele": 763,
      "khum": 764,
      "besi": 765,
      "ciko": 766,
      "gcine": 767,
      "Li": 768,
      "kuyo": 769,
      "lingi": 770,
      "ndele": 771,
      "bese": 772,
      "lula": 773,
      "ume": 774,
      "umele": 775,
      "khombisa": 776,
      "isikhathi": 777,
      "est": 778,
      "IFP": 779,
      "Ar": 780,
      "La": 781,
      "am": 782,
      "ayi": 783,
      "ose": 784,
      "vela": 785,
      "ntwana": 786,
      "nobu": 787,
      "phansi": 788,
      "kinga": 789,
      "fike": 790,
      "veza": 791,
      "kuphela": 792,
      "kulandela": 793,
      "ward": 794,
      "lonke": 795,
      "zama": 796,
      "hambe": 797,
      "amaqembu": 798,
      "bhu": 799,
      "uNksz": 800,
      "hlangano": 801,
      "LA": 802,
      "azo": 803,
      "engi": 804,
      "balo": 805,
      "base": 806,
      "thanda": 807,
      "sebenzisa": 808,
      "chi": 809,
      "indawo": 810,
      "kuma": 811,
      "laba": 812,
      "ntsha": 813,
      "thombe": 814,
      "qoka": 815,
      "muntu": 816,
      "debe": 817,
      "Ningizimu": 818,
      "Go": 819,
      "IN": 820,
      "pela": 821,
      "per": 822,
      "up": 823,
      "xi": 824,
      "sizini": 825,
      "nase": 826,
      "yini": 827,
      "bisa": 828,
      "hlalo": 829,
      "thula": 830,
      "shaya": 831,
      "mbisana": 832,
      "Fa": 833,
      "Nd": 834,
      "Pro": 835,
      "anga": 836,
      "ck": 837,
      "nyu": 838,
      "yen": 839,
      "zen": 840,
      "lase": 841,
      "shu": 842,
      "shwe": 843,
      "abazo": 844,
      "ezin": 845,
      "izinto": 846,
      "Bafana": 847,
      "eter": 848,
      "Lea": 849,
      "mpani": 850,
      "nqamu": 851,
      "yoMhlaba": 852,
      "gqibelo": 853,
      "boku": 854,
      "gwa": 855,
      "pu": 856,
      "ts": 857,
      "usi": 858,
      "labo": 859,
      "log": 860,
      "zayo": 861,
      "hlala": 862,
      "faka": 863,
      "bhi": 864,
      "kwenzeka": 865,
      "ted": 866,
      "phumela": 867,
      "eba": 868,
      "hl": 869,
      "kk": 870,
      "obu": 871,
      "kundleni": 872,
      "siza": 873,
      "manje": 874,
      "bezi": 875,
      "okuba": 876,
      "bom": 877,
      "phambili": 878,
      "khanka": 879,
      "thatha": 880,
      "isizini": 881,
      "nyak": 882,
      "qeda": 883,
      "Siya": 884,
      "bhekene": 885,
      "gue": 886,
      "ngqoshe": 887,
      "ngoMgqibelo": 888,
      "United": 889,
      "Championship": 890,
      "League": 891,
      "BA": 892,
      "Ndebe": 893,
      "Sha": 894,
      "Wa": 895,
      "ozo": 896,
      "ry": 897,
      "uD": 898,
      "banga": 899,
      "kami": 900,
      "kanti": 901,
      "saba": 902,
      "shaye": 903,
      "engameli": 904,
      "phezulu": 905,
      "QE": 906,
      "ZN": 907,
      "goli": 908,
      "us": 909,
      "theni": 910,
      "lile": 911,
      "komi": 912,
      "zele": 913,
      "khosi": 914,
      "midlalo": 915,
      "isicoco": 916,
      "Ngco": 917,
      "yokuthi": 918,
      "ngesizini": 919,
      "imidlalo": 920,
      "Car": 921,
      "onal": 922,
      "Cup": 923,
      "HI": 924,
      "Kha": 925,
      "Pla": 926,
      "Peter": 927,
      "UMa": 928,
      "esa": 929,
      "ly": 930,
      "mbu": 931,
      "oma": 932,
      "unda": 933,
      "kuya": 934,
      "kumele": 935,
      "thweni": 936,
      "lema": 937,
      "baya": 938,
      "end": 939,
      "thini": 940,
      "sebe": 941,
      "ndlu": 942,
      "izimoto": 943,
      "isinqumo": 944,
      "phoyisa": 945,
      "nqoba": 946,
      "Po": 947,
      "Wor": 948,
      "ad": 949,
      "into": 950,
      "iPirates": 951,
      "ld": 952,
      "wum": 953,
      "lom": 954,
      "lona": 955,
      "naye": 956,
      "zami": 957,
      "kelo": 958,
      "zobu": 959,
      "Mamelo": 960,
      "Ngo": 961,
      "bheke": 962,
      "culi": 963,
      "bhekana": 964,
      "cwele": 965,
      "Mamelodi": 966,
      "Uku": 967,
      "chu": 968,
      "for": 969,
      "po": 970,
      "emva": 971,
      "kelwa": 972,
      "umsebenzi": 973,
      "zom": 974,
      "kom": 975,
      "kithi": 976,
      "wonke": 977,
      "ngokuba": 978,
      "kwenze": 979,
      "gilwa": 980,
      "nezin": 981,
      "kwazise": 982,
      "ezayo": 983,
      "Isithombe": 984,
      "ebusuku": 985,
      "Ndlovu": 986,
      "MKP": 987,
      "cele": 988,
      "edlule": 989,
      "gcwele": 990,
      "ncane": 991,
      "kunga": 992,
      "lekile": 993,
      "sizi": 994,
      "umbi": 995,
      "lwazi": 996,
      "hlale": 997,
      "hlango": 998,
      "iziqu": 999,
      "ions": 1000,
      "Africa": 1001,
      "ngempela": 1002,
      "fundazwe": 1003,
      "llion": 1004,
      "Hla": 1005,
      "eze": 1006,
      "ing": 1007,
      "uRamaphosa": 1008,
      "xhuma": 1009,
      "bazi": 1010,
      "lindele": 1011,
      "nabo": 1012,
      "konke": 1013,
      "bonga": 1014,
      "yonke": 1015,
      "kwabo": 1016,
      "phathi": 1017,
      "wom": 1018,
      "ngaphambi": 1019,
      "tshela": 1020,
      "ngemuva": 1021,
      "wina": 1022,
      "Bo": 1023,
      "EN": 1024,
      "Izi": 1025,
      "TS": 1026,
      "ebi": 1027,
      "gqu": 1028,
      "inga": 1029,
      "them": 1030,
      "lelwe": 1031,
      "sika": 1032,
      "thimba": 1033,
      "sem": 1034,
      "beku": 1035,
      "umdlalo": 1036,
      "muva": 1037,
      "dala": 1038,
      "sungu": 1039,
      "ngaphansi": 1040,
      "khipha": 1041,
      "Kaize": 1042,
      "jabu": 1043,
      "selelo": 1044,
      "wamanqamu": 1045,
      "hluku": 1046,
      "komiti": 1047,
      "Play": 1048,
      "Kaizer": 1049,
      "19": 1050,
      "CC": 1051,
      "DA": 1052,
      "GA": 1053,
      "Kho": 1054,
      "awu": 1055,
      "oyi": 1056,
      "uba": 1057,
      "xha": 1058,
      "enj": 1059,
      "nayo": 1060,
      "ngathi": 1061,
      "yanga": 1062,
      "ntshi": 1063,
      "kwayo": 1064,
      "mini": 1065,
      "khundleni": 1066,
      "nokuthi": 1067,
      "2026": 1068,
      "Juni": 1069,
      "Hlabisa": 1070,
      "Award": 1071,
      "Dur": 1072,
      "EF": 1073,
      "HA": 1074,
      "Ne": 1075,
      "abo": 1076,
      "caba": 1077,
      "kisi": 1078,
      "mnyama": 1079,
      "nwa": 1080,
      "os": 1081,
      "tse": 1082,
      "uhlelo": 1083,
      "wuku": 1084,
      "sile": 1085,
      "sini": 1086,
      "ngabe": 1087,
      "kelele": 1088,
      "ngene": 1089,
      "qhubeke": 1090,
      "phezu": 1091,
      "mpilo": 1092,
      "Durban": 1093,
      "Fo": 1094,
      "Zuma": 1095,
      "cela": 1096,
      "uth": 1097,
      "ukwe": 1098,
      "vin": 1099,
      "ywa": 1100,
      "bamba": 1101,
      "ndela": 1102,
      "phuma": 1103,
      "yaba": 1104,
      "yizi": 1105,
      "abakuleli": 1106,
      "umi": 1107,
      "yom": 1108,
      "yona": 1109,
      "noM": 1110,
      "qede": 1111,
      "bhali": 1112,
      "lokuthi": 1113,
      "tshu": 1114,
      "tshwa": 1115,
      "njani": 1116,
      "bulala": 1117,
      "Motse": 1118,
      "000": 1119,
      "igh": 1120,
      "khankaso": 1121,
      "EFF": 1122,
      "Motsepe": 1123,
      "Ch": 1124,
      "KU": 1125,
      "Oku": 1126,
      "Ste": 1127,
      "an": 1128,
      "eyo": 1129,
      "icala": 1130,
      "je": 1131,
      "jwaye": 1132,
      "neni": 1133,
      "unga": 1134,
      "kuze": 1135,
      "kuwona": 1136,
      "kanjani": 1137,
      "ukuzi": 1138,
      "yinto": 1139,
      "abadlali": 1140,
      "mishini": 1141,
      "ngekho": 1142,
      "khutha": 1143,
      "soma": 1144,
      "amanzi": 1145,
      "esikhathi": 1146,
      "fake": 1147,
      "Ngema": 1148,
      "khulumela": 1149,
      "mbama": 1150,
      "zwelonke": 1151,
      "ndisa": 1152,
      "suka": 1153,
      "wesifazane": 1154,
      "cimbini": 1155,
      "waseM": 1156,
      "ntambama": 1157,
      "ANC": 1158,
      "kusasa": 1159,
      "kusukela": 1160,
      "okubalwa": 1161,
      ").": 1162,
      "30": 1163,
      "Dla": 1164,
      "EP": 1165,
      "Goli": 1166,
      "Ho": 1167,
      "LE": 1168,
      "Ou": 1169,
      "Ri": 1170,
      "as": 1171,
      "ton": 1172,
      "uyi": 1173,
      "xenye": 1174,
      "kubo": 1175,
      "kungen": 1176,
      "sise": 1177,
      "nawo": 1178,
      "ngomunye": 1179,
      "yale": 1180,
      "zansi": 1181,
      "buya": 1182,
      "buke": 1183,
      "amabili": 1184,
      "amathathu": 1185,
      "amaphuzu": 1186,
      "khale": 1187,
      "khatha": 1188,
      "ndile": 1189,
      "vikela": 1190,
      "hlangani": 1191,
      "izinhlelo": 1192,
      "sokuthi": 1193,
      "ngoMeyi": 1194,
      "cwadi": 1195,
      "ester": 1196,
      "Ngcobo": 1197,
      "umbiko": 1198,
      "AR": 1199,
      "Cy": 1200,
      "Con": 1201,
      "Jo": 1202,
      "Lions": 1203,
      "PS": 1204,
      "Th": 1205,
      "ee": 1206,
      "ekhaya": 1207,
      "indlela": 1208,
      "tsha": 1209,
      "uG": 1210,
      "ver": 1211,
      "enzi": 1212,
      "kampani": 1213,
      "ngale": 1214,
      "abaningi": 1215,
      "umndeni": 1216,
      "boni": 1217,
      "kwakhe": 1218,
      "lwano": 1219,
      "solo": 1220,
      "amazwe": 1221,
      "ation": 1222,
      "ric": 1223,
      "hloko": 1224,
      "ndebe": 1225,
      "suke": 1226,
      "ekubeni": 1227,
      "kokuqala": 1228,
      "2024": 1229,
      "fanayo": 1230,
      "bank": 1231,
      "Petersen": 1232,
      "enjini": 1233,
      "10": 1234,
      "Hu": 1235,
      "KZN": 1236,
      "UT": 1237,
      "Za": 1238,
      "ithuba": 1239,
      "mhla": 1240,
      "od": 1241,
      "othi": 1242,
      "onga": 1243,
      "zem": 1244,
      "baba": 1245,
      "singa": 1246,
      "selwa": 1247,
      "bele": 1248,
      "emcimbini": 1249,
      "mina": 1250,
      "ngisho": 1251,
      "khandlu": 1252,
      "esikhundleni": 1253,
      "ers": 1254,
      "nyanga": 1255,
      "kwiNdebe": 1256,
      "finye": 1257,
      "phethe": 1258,
      "giji": 1259,
      "ekutheni": 1260,
      "ngamaphuzu": 1261,
      "Sonto": 1262,
      "UNksz": 1263,
      "phenyo": 1264,
      "phendu": 1265,
      "bhola": 1266,
      "lingisi": 1267,
      "11": 1268,
      "KA": 1269,
      "Ko": 1270,
      "Ra": 1271,
      "aye": 1272,
      "deni": 1273,
      "eka": 1274,
      "iN": 1275,
      "ibi": 1276,
      "kt": 1277,
      "okwa": 1278,
      "qenjini": 1279,
      "tela": 1280,
      "uS": 1281,
      "len": 1282,
      "siya": 1283,
      "khele": 1284,
      "kale": 1285,
      "nike": 1286,
      "benga": 1287,
      "zase": 1288,
      "buso": 1289,
      "zelwa": 1290,
      "ngeSonto": 1291,
      "phakami": 1292,
      "dlale": 1293,
      "thathe": 1294,
      "kwemi": 1295,
      "phini": 1296,
      "wula": 1297,
      "200": 1298,
      "bhamu": 1299,
      "ngaphakathi": 1300,
      "duze": 1301,
      "Ngiya": 1302,
      "Gala": 1303,
      "ISI": 1304,
      "xhumana": 1305,
      "15": 1306,
      "HO": 1307,
      "Ro": 1308,
      "US": 1309,
      "dle": 1310,
      "poli": 1311,
      "tat": 1312,
      "visi": 1313,
      "vesi": 1314,
      "xy": 1315,
      "zizo": 1316,
      "weze": 1317,
      "seligi": 1318,
      "ndisi": 1319,
      "bela": 1320,
      "nes": 1321,
      "buzo": 1322,
      "son": 1323,
      "njenge": 1324,
      "kise": 1325,
      "eri": 1326,
      "dayisa": 1327,
      "dinga": 1328,
      "ngokungem": 1329,
      "lwela": 1330,
      "hola": 1331,
      "congweni": 1332,
      "tiki": 1333,
      "dou": 1334,
      "doso": 1335,
      "culweni": 1336,
      "South": 1337,
      "Caf": 1338,
      "kwamanye": 1339,
      "nyakenye": 1340,
      "Cardoso": 1341,
      "ford": 1342,
      "politiki": 1343,
      "ngokungemthetho": 1344,
      "BO": 1345,
      "Int": 1346,
      "Mnyango": 1347,
      "Nje": 1348,
      "Okhulumela": 1349,
      "gqo": 1350,
      "iya": 1351,
      "iSundowns": 1352,
      "klo": 1353,
      "kum": 1354,
      "ngxenye": 1355,
      "lahle": 1356,
      "zile": 1357,
      "zisi": 1358,
      "ence": 1359,
      "linga": 1360,
      "thinta": 1361,
      "weBetway": 1362,
      "seka": 1363,
      "selwe": 1364,
      "nina": 1365,
      "emu": 1366,
      "emculweni": 1367,
      "abalandeli": 1368,
      "kole": 1369,
      "million": 1370,
      "nginga": 1371,
      "lwane": 1372,
      "kwethu": 1373,
      "shintsha": 1374,
      "iminyaka": 1375,
      "ville": 1376,
      "zokuxhumana": 1377,
      "kulumo": 1378,
      "uNkk": 1379,
      "bulawa": 1380,
      "owaye": 1381,
      "qinisekisa": 1382,
      "edbank": 1383,
      "shiyaga": 1384,
      "khumbula": 1385,
      "gijima": 1386,
      "Galaxy": 1387,
      ".”": 1388,
      "In": 1389,
      "Of": 1390,
      "Tha": 1391,
      "Uveze": 1392,
      "azi": 1393,
      "dy": 1394,
      "dum": 1395,
      "ms": 1396,
      "nyi": 1397,
      "babe": 1398,
      "wabo": 1399,
      "ziwe": 1400,
      "siba": 1401,
      "kama": 1402,
      "weqembu": 1403,
      "lutho": 1404,
      "okunye": 1405,
      "yela": 1406,
      "zonke": 1407,
      "bone": 1408,
      "thele": 1409,
      "ngiya": 1410,
      "amaciko": 1411,
      "ndon": 1412,
      "Ngesikhathi": 1413,
      "hovisi": 1414,
      "eminyaka": 1415,
      "uMnyango": 1416,
      "phisa": 1417,
      "gabeni": 1418,
      "qhude": 1419,
      "doda": 1420,
      "dlunkulu": 1421,
      "khiqi": 1422,
      "izolo": 1423,
      "ngqongqoshe": 1424,
      "entsha": 1425,
      "nkosi": 1426,
      "mbulu": 1427,
      "addou": 1428,
      "ngempelasonto": 1429,
      "Ouaddou": 1430,
      "Me": 1431,
      "Mor": 1432,
      "Pa": 1433,
      "Par": 1434,
      "ali": 1435,
      "ake": 1436,
      "dli": 1437,
      "gesi": 1438,
      "iligi": 1439,
      "ny": 1440,
      "rug": 1441,
      "zu": 1442,
      "zemi": 1443,
      "kubona": 1444,
      "layi": 1445,
      "bafuna": 1446,
      "enkantolo": 1447,
      "sihlalo": 1448,
      "kali": 1449,
      "kaMa": 1450,
      "lomo": 1451,
      "wezi": 1452,
      "ukuyi": 1453,
      "ngawo": 1454,
      "nisi": 1455,
      "emhla": 1456,
      "zakhe": 1457,
      "umlando": 1458,
      "nozi": 1459,
      "khula": 1460,
      "nji": 1461,
      "njwa": 1462,
      "funi": 1463,
      "ezinye": 1464,
      "ezinta": 1465,
      "erna": 1466,
      "fani": 1467,
      "hlela": 1468,
      "cono": 1469,
      "emidlalweni": 1470,
      "wesilisa": 1471,
      "doko": 1472,
      "wokugcina": 1473,
      "phakathini": 1474,
      "tholakala": 1475,
      "Ngizwe": 1476,
      "qeqesha": 1477,
      "wine": 1478,
      "phume": 1479,
      "Nokho": 1480,
      "mpahla": 1481,
      "lindeleke": 1482,
      "qhudelwano": 1483,
      "emhlabeni": 1484,
      "Angi": 1485,
      "Do": 1486,
      "DLA": 1487,
      "VAR": 1488,
      "and": 1489,
      "eye": 1490,
      "eyoku": 1491,
      "im": 1492,
      "ibe": 1493,
      "km": 1494,
      "keni": 1495,
      "nci": 1496,
      "por": 1497,
      "rs": 1498,
      "uzi": 1499,
      "uveze": 1500,
      "kuyi": 1501,
      "langa": 1502,
      "lapha": 1503,
      "bakuleli": 1504,
      "kaba": 1505,
      "kangaka": 1506,
      "nani": 1507,
      "sengathi": 1508,
      "ngalo": 1509,
      "beke": 1510,
      "beki": 1511,
      "lule": 1512,
      "ngonyaka": 1513,
      "sama": 1514,
      "sanda": 1515,
      "okusho": 1516,
      "yeMa": 1517,
      "zali": 1518,
      "koleni": 1519,
      "zeke": 1520,
      "thethweni": 1521,
      "amanye": 1522,
      "kweni": 1523,
      "ezimbili": 1524,
      "thuthu": 1525,
      "qonda": 1526,
      "nyathe": 1527,
      "muhla": 1528,
      "des": 1529,
      "tional": 1530,
      "kulesi": 1531,
      "fisa": 1532,
      "toli": 1533,
      "tshele": 1534,
      "wokuqala": 1535,
      "hlangana": 1536,
      "rds": 1537,
      "eyayi": 1538,
      "gomo": 1539,
      "Zimnyama": 1540,
      "hlonishwa": 1541,
      "undation": 1542,
      "phathiswa": 1543,
      "Foundation": 1544,
      "sisekelo": 1545,
      "Offs": 1546,
      "nozinti": 1547,
      "12": 1548,
      "14": 1549,
      "Ea": 1550,
      "Mzansi": 1551,
      "SE": 1552,
      "SHI": 1553,
      "Thu": 1554,
      "WE": 1555,
      "ayisi": 1556,
      "dela": 1557,
      "etha": 1558,
      "ePi": 1559,
      "gwe": 1560,
      "gco": 1561,
      "hhovisi": 1562,
      "ise": 1563,
      "ll": 1564,
      "mbeni": 1565,
      "nsela": 1566,
      "oda": 1567,
      "okokuqala": 1568,
      "qwa": 1569,
      "uK": 1570,
      "uSi": 1571,
      "vume": 1572,
      "wn": 1573,
      "zulu": 1574,
      "lama": 1575,
      "bam": 1576,
      "bali": 1577,
      "khela": 1578,
      "kabi": 1579,
      "loli": 1580,
      "bebe": 1581,
      "yami": 1582,
      "emphakathini": 1583,
      "zabo": 1584,
      "kosi": 1585,
      "bit": 1586,
      "khundla": 1587,
      "sola": 1588,
      "phazami": 1589,
      "thando": 1590,
      "thombo": 1591,
      "esigabeni": 1592,
      "kibha": 1593,
      "ndondo": 1594,
      "ngenyanga": 1595,
      "ril": 1596,
      "phepha": 1597,
      "gada": 1598,
      "qhuba": 1599,
      "nezinye": 1600,
      "gungu": 1601,
      "khishwe": 1602,
      "wokuthi": 1603,
      "kubalwa": 1604,
      "thethosisekelo": 1605,
      "nabanye": 1606,
      "jikelele": 1607,
      "yuvesi": 1608,
      "vota": 1609,
      "tuli": 1610,
      "ngoLwesihlanu": 1611,
      "lingisa": 1612,
      "yalezo": 1613,
      "Cyril": 1614,
      "yeMantshi": 1615,
      "Al": 1616,
      "Eph": 1617,
      "Fi": 1618,
      "IX": 1619,
      "Mini": 1620,
      "WA": 1621,
      "angi": 1622,
      "ction": 1623,
      "epha": 1624,
      "eMa": 1625,
      "fed": 1626,
      "ional": 1627,
      "ju": 1628,
      "lford": 1629,
      "nzo": 1630,
      "reli": 1631,
      "tshe": 1632,
      "ul": 1633,
      "kuthi": 1634,
      "kukho": 1635,
      "kuhle": 1636,
      "kundla": 1637,
      "kuthiwa": 1638,
      "ngcwa": 1639,
      "ngcono": 1640,
      "bakhe": 1641,
      "wayo": 1642,
      "man": 1643,
      "khwana": 1644,
      "weto": 1645,
      "ukusebenza": 1646,
      "ngoJuni": 1647,
      "sakhe": 1648,
      "okuthiwa": 1649,
      "yezi": 1650,
      "yiseni": 1651,
      "zaba": 1652,
      "abangu": 1653,
      "abafundi": 1654,
      "umculo": 1655,
      "lwama": 1656,
      "ngele": 1657,
      "ngeka": 1658,
      "sona": 1659,
      "amalungu": 1660,
      "ezinda": 1661,
      "izinisi": 1662,
      "esicongweni": 1663,
      "njengo": 1664,
      "fakazi": 1665,
      "qongqoshe": 1666,
      "nyangweni": 1667,
      "Ngqongqoshe": 1668,
      "house": 1669,
      "uMntwana": 1670,
      "phiko": 1671,
      "bhedlela": 1672,
      "Kuthiwa": 1673,
      "UMQE": 1674,
      "Super": 1675,
      "Soweto": 1676,
      "Cape": 1677,
      "Come": 1678,
      "Orbit": 1679,
      "voti": 1680,
      "neminyaka": 1681,
      "hlonipha": 1682,
      "besifazane": 1683,
      "ezinkundleni": 1684,
      "bokufika": 1685,
      "bezindaba": 1686,
      "uDkt": 1687,
      "QESHI": 1688,
      "omazisi": 1689,
      "World": 1690,
      "hlangothini": 1691,
      "New": 1692,
      "kungenzeka": 1693,
      "Confed": 1694,
      "PSL": 1695,
      "Interna": 1696,
      "Ephreli": 1697,
      "khwanazi": 1698,
      "UMQEQESHI": 1699,
      "International": 1700,
      ");": 1701,
      "AG": 1702,
      "Cele": 1703,
      "CKP": 1704,
      "IM": 1705,
      "Krug": 1706,
      "Lu": 1707,
      "Ph": 1708,
      "Re": 1709,
      "Spor": 1710,
      "Yi": 1711,
      "Yo": 1712,
      "ikakhulu": 1713,
      "iChiefs": 1714,
      "meme": 1715,
      "odlule": 1716,
      "rks": 1717,
      "ss": 1718,
      "tso": 1719,
      "ukwazi": 1720,
      "vuma": 1721,
      "zuzu": 1722,
      "ngemi": 1723,
      "lani": 1724,
      "thro": 1725,
      "lezwe": 1726,
      "bathi": 1727,
      "bani": 1728,
      "wazi": 1729,
      "kazwelonke": 1730,
      "ukunga": 1731,
      "ukulu": 1732,
      "ukubona": 1733,
      "beli": 1734,
      "yabo": 1735,
      "yise": 1736,
      "abasa": 1737,
      "abayi": 1738,
      "abanye": 1739,
      "abasolwa": 1740,
      "umcimbi": 1741,
      "kowamanqamu": 1742,
      "minyaka": 1743,
      "khule": 1744,
      "songa": 1745,
      "sombulu": 1746,
      "amandla": 1747,
      "phambi": 1748,
      "ezingu": 1749,
      "eside": 1750,
      "shiwe": 1751,
      "thubeni": 1752,
      "qokwa": 1753,
      "qopha": 1754,
      "muzi": 1755,
      "hlele": 1756,
      "emithathu": 1757,
      "ris": 1758,
      "inselelo": 1759,
      "uthelezi": 1760,
      "bhekwe": 1761,
      "yokuqala": 1762,
      "bhande": 1763,
      "hluleka": 1764,
      "ekuseni": 1765,
      "dolo": 1766,
      "vivin": 1767,
      "National": 1768,
      "kulunkulu": 1769,
      "kokuba": 1770,
      "kokuthi": 1771,
      "ment": 1772,
      "nsuku": 1773,
      "ree": 1774,
      "ster": 1775,
      "eNkantolo": 1776,
      "phumele": 1777,
      "pheleni": 1778,
      "yesibili": 1779,
      "igama": 1780,
      "Milford": 1781,
      "ngoLwesithathu": 1782,
      "chaza": 1783,
      "humalo": 1784,
      "lungiswa": 1785,
      "kuyona": 1786,
      "bomvu": 1787,
      "BACKP": 1788,
      "thembi": 1789,
      "tshudeni": 1790,
      "ight": 1791,
      "eyodwa": 1792,
      "EPIX": 1793,
      "dokotela": 1794,
      "AGEPIX": 1795,
      "Kruger": 1796,
      "BACKPAGEPIX": 1797,
      "Bi": 1798,
      "Em": 1799,
      "IPirates": 1800,
      "Leli": 1801,
      "Pri": 1802,
      "Phi": 1803,
      "Tho": 1804,
      "Vi": 1805,
      "ZI": 1806,
      "dlwe": 1807,
      "eyisi": 1808,
      "ePhalamende": 1809,
      "fe": 1810,
      "gx": 1811,
      "gama": 1812,
      "gqa": 1813,
      "iba": 1814,
      "iza": 1815,
      "iPhalamende": 1816,
      "impilo": 1817,
      "indebe": 1818,
      "jo": 1819,
      "qh": 1820,
      "ssi": 1821,
      "ukwenza": 1822,
      "ywe": 1823,
      "kuhulumeni": 1824,
      "bayi": 1825,
      "babo": 1826,
      "enza": 1827,
      "lokwa": 1828,
      "nalo": 1829,
      "namuhla": 1830,
      "yayo": 1831,
      "empe": 1832,
      "yethu": 1833,
      "yedwa": 1834,
      "yize": 1835,
      "bule": 1836,
      "umela": 1837,
      "zobe": 1838,
      "yoni": 1839,
      "khomishini": 1840,
      "hambisana": 1841,
      "lwango": 1842,
      "ngezin": 1843,
      "eziningi": 1844,
      "bhizinisi": 1845,
      "ndoda": 1846,
      "phoyiseni": 1847,
      "holwa": 1848,
      "hloso": 1849,
      "bhakela": 1850,
      "hluka": 1851,
      "roos": 1852,
      "dluli": 1853,
      "ubuholi": 1854,
      "Kapa": 1855,
      "celo": 1856,
      "qinisa": 1857,
      "ANGA": 1858,
      "kwabantu": 1859,
      "hlakalo": 1860,
      "kusuka": 1861,
      "nobuso": 1862,
      "nyakeni": 1863,
      "Sharks": 1864,
      "chunu": 1865,
      "celeni": 1866,
      "hlangothi": 1867,
      "mhlanje": 1868,
      "ezintathu": 1869,
      "ezindaweni": 1870,
      "sombuluko": 1871,
      "dlwengu": 1872,
      "22": 1873,
      "23": 1874,
      "27": 1875,
      "Ab": 1876,
      "Asi": 1877,
      "Bla": 1878,
      "Gu": 1879,
      "Ki": 1880,
      "NG": 1881,
      "Ntuli": 1882,
      "ULI": 1883,
      "Zo": 1884,
      "con": 1885,
      "ehlukene": 1886,
      "ekhuluma": 1887,
      "ear": 1888,
      "eqenjini": 1889,
      "ir": 1890,
      "ilu": 1891,
      "iNingizimu": 1892,
      "keme": 1893,
      "omu": 1894,
      "ongum": 1895,
      "pp": 1896,
      "ski": 1897,
      "usu": 1898,
      "uKa": 1899,
      "ukhetho": 1900,
      "veni": 1901,
      "yeni": 1902,
      "kula": 1903,
      "kuwo": 1904,
      "bayo": 1905,
      "war": 1906,
      "zika": 1907,
      "manga": 1908,
      "kheni": 1909,
      "linye": 1910,
      "linde": 1911,
      "nazo": 1912,
      "nandisa": 1913,
      "setsh": 1914,
      "ukuthola": 1915,
      "ngameli": 1916,
      "beka": 1917,
      "ngokwe": 1918,
      "okuyi": 1919,
      "emp": 1920,
      "ement": 1921,
      "abanga": 1922,
      "ababili": 1923,
      "kebhe": 1924,
      "umkhankaso": 1925,
      "zoba": 1926,
      "koM": 1927,
      "komdlalo": 1928,
      "zelwe": 1929,
      "bizwa": 1930,
      "bonge": 1931,
      "bonke": 1932,
      "boshwa": 1933,
      "yota": 1934,
      "kwaku": 1935,
      "kwalokho": 1936,
      "nogada": 1937,
      "amacala": 1938,
      "phatha": 1939,
      "khakha": 1940,
      "thaka": 1941,
      "isigameko": 1942,
      "njengom": 1943,
      "nyathi": 1944,
      "mukela": 1945,
      "Nge": 1946,
      "Ngokusho": 1947,
      "hleli": 1948,
      "dia": 1949,
      "onke": 1950,
      "deo": 1951,
      "umalo": 1952,
      "Sizo": 1953,
      "ries": 1954,
      "meya": 1955,
      "mengameli": 1956,
      "inq": 1957,
      "hlongo": 1958,
      "mpetha": 1959,
      "mpempe": 1960,
      "phethro": 1961,
      "Kule": 1962,
      "tor": 1963,
      "nokuyi": 1964,
      "vula": 1965,
      "zwakala": 1966,
      "cula": 1967,
      "zokuthi": 1968,
      "emaphoyiseni": 1969,
      "menye": 1970,
      "senkantolo": 1971,
      "2025": 1972,
      "qiniso": 1973,
      "wenza": 1974,
      "stries": 1975,
      "fundazweni": 1976,
      "ebezi": 1977,
      "yesithathu": 1978,
      "nkulumo": 1979,
      "ziwayo": 1980,
      "Nakuba": 1981,
      "nkampani": 1982,
      "llen": 1983,
      "qhawe": 1984,
      "fundisa": 1985,
      "Toyota": 1986,
      "umelelo": 1987,
      "Arena": 1988,
      "hambela": 1989,
      "pula": 1990,
      "Polokwa": 1991,
      "poti": 1992,
      "ezehlukene": 1993,
      "gqugqu": 1994,
      "Awards": 1995,
      "cabanga": 1996,
      "bukeka": 1997,
      "tati": 1998,
      "klomelo": 1999,
      "Black": 2000,
      "phethroli": 2001,
      "Polokwane": 2002,
      "100": 2003,
      "25": 2004,
      "Da": 2005,
      "De": 2006,
      "Esi": 2007,
      "Emuva": 2008,
      "ELE": 2009,
      "Khumalo": 2010,
      "Mchunu": 2011,
      "Ndlunkulu": 2012,
      "St": 2013,
      "TO": 2014,
      "ale": 2015,
      "athe": 2016,
      "eK": 2017,
      "iSi": 2018,
      "lla": 2019,
      "lly": 2020,
      "mqoka": 2021,
      "nza": 2022,
      "nce": 2023,
      "uR": 2024,
      "uX": 2025,
      "ute": 2026,
      "usuku": 2027,
      "vemba": 2028,
      "xoli": 2029,
      "ngxo": 2030,
      "lam": 2031,
      "bambe": 2032,
      "walo": 2033,
      "wari": 2034,
      "ener": 2035,
      "enkundleni": 2036,
      "sifuna": 2037,
      "masipala": 2038,
      "kaze": 2039,
      "lini": 2040,
      "liswa": 2041,
      "thile": 2042,
      "wezoku": 2043,
      "namhlanje": 2044,
      "sengi": 2045,
      "ndweni": 2046,
      "ndlovu": 2047,
      "pheli": 2048,
      "ukum": 2049,
      "ukula": 2050,
      "ngawu": 2051,
      "ngobu": 2052,
      "ngosuku": 2053,
      "zakwabo": 2054,
      "abazi": 2055,
      "abazali": 2056,
      "kepha": 2057,
      "koena": 2058,
      "bile": 2059,
      "bika": 2060,
      "kwati": 2061,
      "noN": 2062,
      "nompempe": 2063,
      "som": 2064,
      "dlalela": 2065,
      "kwemali": 2066,
      "izingane": 2067,
      "shisa": 2068,
      "cishe": 2069,
      "ery": 2070,
      "eration": 2071,
      "qokwe": 2072,
      "qoqo": 2073,
      "qaleni": 2074,
      "shana": 2075,
      "dakami": 2076,
      "holele": 2077,
      "mbalwa": 2078,
      "emibili": 2079,
      "mehlo": 2080,
      "phila": 2081,
      "fiso": 2082,
      "hlola": 2083,
      "uzwa": 2084,
      "pheshe": 2085,
      "hlukile": 2086,
      "UMntwana": 2087,
      "sebenzise": 2088,
      "mbela": 2089,
      "Bay": 2090,
      "namanye": 2091,
      "kubantu": 2092,
      "2023": 2093,
      "Novemba": 2094,
      "Juli": 2095,
      "thweswa": 2096,
      "Safa": 2097,
      "buyela": 2098,
      "belomali": 2099,
      "Champions": 2100,
      "pilo": 2101,
      "abazobe": 2102,
      "bhiki": 2103,
      "Chery": 2104,
      "enziswa": 2105,
      "lenze": 2106,
      "Njengoba": 2107,
      "ePitoli": 2108,
      "gungundlovu": 2109,
      "Ministries": 2110,
      "Comedy": 2111,
      "13": 2112,
      "16": 2113,
      "AC": 2114,
      "Au": 2115,
      "Be": 2116,
      "Bu": 2117,
      "Beku": 2118,
      "Ex": 2119,
      "FM": 2120,
      "HE": 2121,
      "Mfundo": 2122,
      "Musi": 2123,
      "Nedbank": 2124,
      "Omunye": 2125,
      "Pho": 2126,
      "Tas": 2127,
      "UB": 2128,
      "Yize": 2129,
      "Zwe": 2130,
      "cs": 2131,
      "ces": 2132,
      "dwe": 2133,
      "dumo": 2134,
      "ezweni": 2135,
      "gq": 2136,
      "gxi": 2137,
      "ience": 2138,
      "jezi": 2139,
      "msebenzi": 2140,
      "nhla": 2141,
      "oc": 2142,
      "okhe": 2143,
      "ongqongqoshe": 2144,
      "rg": 2145,
      "sta": 2146,
      "ulwazi": 2147,
      "uPetersen": 2148,
      "uphenyo": 2149,
      "zukulu": 2150,
      "kuM": 2151,
      "kuMa": 2152,
      "kulindeleke": 2153,
      "leke": 2154,
      "enkulu": 2155,
      "sity": 2156,
      "maqembu": 2157,
      "kanzima": 2158,
      "lima": 2159,
      "lombili": 2160,
      "welele": 2161,
      "wethimba": 2162,
      "naso": 2163,
      "ukusho": 2164,
      "bethu": 2165,
      "saka": 2166,
      "sayo": 2167,
      "empi": 2168,
      "yingxenye": 2169,
      "zange": 2170,
      "abafuna": 2171,
      "abangena": 2172,
      "ntweni": 2173,
      "zezi": 2174,
      "khonji": 2175,
      "kwami": 2176,
      "misa": 2177,
      "hlaya": 2178,
      "khakheni": 2179,
      "ezinga": 2180,
      "esibhedlela": 2181,
      "kiswa": 2182,
      "kiswe": 2183,
      "thupha": 2184,
      "shayisi": 2185,
      "hlelweni": 2186,
      "ngenza": 2187,
      "dingeka": 2188,
      "khulume": 2189,
      "qeke": 2190,
      "mbazo": 2191,
      "uMo": 2192,
      "van": 2193,
      "Kulo": 2194,
      "giso": 2195,
      "bhala": 2196,
      "gcineni": 2197,
      "tel": 2198,
      "lokuqala": 2199,
      "gula": 2200,
      "tshwe": 2201,
      "hlangan": 2202,
      "jabula": 2203,
      "kwenzayo": 2204,
      "umufi": 2205,
      "nabantu": 2206,
      "wenya": 2207,
      "ngoMsombuluko": 2208,
      "embangweni": 2209,
      "phenya": 2210,
      "kuzona": 2211,
      "qinisekisi": 2212,
      "Abantu": 2213,
      "Julayi": 2214,
      "qhaza": 2215,
      "Gaute": 2216,
      "ngoLwesibili": 2217,
      "Univer": 2218,
      "sezingeni": 2219,
      "nxusa": 2220,
      "xico": 2221,
      "sabalala": 2222,
      "UMalema": 2223,
      "Stellen": 2224,
      "jwayele": 2225,
      "jwayelekile": 2226,
      "Kodwa": 2227,
      "shiyagalombili": 2228,
      "khiqiza": 2229,
      "akekho": 2230,
      "kangakanani": 2231,
      "nyathelo": 2232,
      "Confederation": 2233,
      "setshenziswa": 2234,
      "dakamizwa": 2235,
      "Julius": 2236,
      "Tasman": 2237,
      "Gauteng": 2238,
      "University": 2239,
      "Stellenbo": 2240,
      "17": 2241,
      "18": 2242,
      "24": 2243,
      "26": 2244,
      "28": 2245,
      "Ha": 2246,
      "Hlo": 2247,
      "Inde": 2248,
      "Skebhe": 2249,
      "TH": 2250,
      "UR": 2251,
      "don": 2252,
      "eGoli": 2253,
      "eSoweto": 2254,
      "hha": 2255,
      "hlwe": 2256,
      "iM": 2257,
      "iyi": 2258,
      "igu": 2259,
      "ingizimu": 2260,
      "iMKP": 2261,
      "ibhande": 2262,
      "ol": 2263,
      "omunye": 2264,
      "obala": 2265,
      "pend": 2266,
      "qulu": 2267,
      "sch": 2268,
      "tlala": 2269,
      "ula": 2270,
      "uthi": 2271,
      "xwa": 2272,
      "xumalo": 2273,
      "yemi": 2274,
      "zz": 2275,
      "zwi": 2276,
      "kuye": 2277,
      "kuyena": 2278,
      "kuphele": 2279,
      "lelo": 2280,
      "wane": 2281,
      "wami": 2282,
      "siwe": 2283,
      "sifazane": 2284,
      "sigameko": 2285,
      "kaZulu": 2286,
      "liwe": 2287,
      "lohulumeni": 2288,
      "thint": 2289,
      "nandi": 2290,
      "nabezindaba": 2291,
      "ngabomvu": 2292,
      "bezo": 2293,
      "sazi": 2294,
      "sazo": 2295,
      "okungu": 2296,
      "okufanele": 2297,
      "umphakathi": 2298,
      "umsolwa": 2299,
      "umthombo": 2300,
      "ntsho": 2301,
      "zekile": 2302,
      "bophe": 2303,
      "thenga": 2304,
      "kholwa": 2305,
      "khokhela": 2306,
      "kwathi": 2307,
      "misele": 2308,
      "ngisa": 2309,
      "khukhu": 2310,
      "sonke": 2311,
      "elali": 2312,
      "kwele": 2313,
      "tholi": 2314,
      "ezihlukene": 2315,
      "isimo": 2316,
      "njengama": 2317,
      "shiye": 2318,
      "wood": 2319,
      "Malema": 2320,
      "Mambazo": 2321,
      "qophe": 2322,
      "qasha": 2323,
      "mufi": 2324,
      "ngenkathi": 2325,
      "ngokulinga": 2326,
      "vala": 2327,
      "esu": 2328,
      "phiwe": 2329,
      "sebenze": 2330,
      "Kuzo": 2331,
      "Kuningi": 2332,
      "vule": 2333,
      "teshi": 2334,
      "landweni": 2335,
      "shelwe": 2336,
      "bonakale": 2337,
      "dlula": 2338,
      "video": 2339,
      "khiphe": 2340,
      "khishwa": 2341,
      "kubalandeli": 2342,
      "esele": 2343,
      "ndawonye": 2344,
      "abesifazane": 2345,
      "lesizwe": 2346,
      "ngabantu": 2347,
      "eNingizimu": 2348,
      "phelele": 2349,
      "ebele": 2350,
      "ebesi": 2351,
      "bhekane": 2352,
      "buyele": 2353,
      "UKZN": 2354,
      "chaze": 2355,
      "nxuse": 2356,
      "Diski": 2357,
      "ngwane": 2358,
      "basekhaya": 2359,
      "chitha": 2360,
      "perience": 2361,
      "kithina": 2362,
      "sungulwa": 2363,
      "hlukunye": 2364,
      "Khomishini": 2365,
      "somahlaya": 2366,
      "KAZI": 2367,
      "HOLI": 2368,
      "dumbu": 2369,
      "Park": 2370,
      "ikakhulukazi": 2371,
      "Kia": 2372,
      "ngxoxo": 2373,
      "Experience": 2374,
      "okhethweni": 2375,
      "empilweni": 2376,
      "shayisibhakela": 2377,
      "hlanganweni": 2378,
      "qinisekisile": 2379,
      "Stellenbosch": 2380,
      "Independ": 2381,
      "Independent": 2382,
      "AT": 2383,
      "Ams": 2384,
      "Bra": 2385,
      "Emi": 2386,
      "Iso": 2387,
      "Je": 2388,
      "Mhlongo": 2389,
      "Nkosi": 2390,
      "SU": 2391,
      "Sho": 2392,
      "Spoti": 2393,
      "awa": 2394,
      "ahlukene": 2395,
      "cre": 2396,
      "eqo": 2397,
      "ewu": 2398,
      "eLo": 2399,
      "eKapa": 2400,
      "fy": 2401,
      "femu": 2402,
      "gqeke": 2403,
      "hele": 2404,
      "ithe": 2405,
      "iva": 2406,
      "ibhola": 2407,
      "mthetho": 2408,
      "mlomo": 2409,
      "ok": 2410,
      "ongu": 2411,
      "oseku": 2412,
      "okwenzeka": 2413,
      "ru": 2414,
      "sweni": 2415,
      "tla": 2416,
      "udaba": 2417,
      "ukhale": 2418,
      "uNgizwe": 2419,
      "ngry": 2420,
      "baze": 2421,
      "bandla": 2422,
      "waKwaZulu": 2423,
      "ende": 2424,
      "eneminyaka": 2425,
      "sifundazwe": 2426,
      "mama": 2427,
      "maqede": 2428,
      "kancane": 2429,
      "lokhetho": 2430,
      "nathi": 2431,
      "nango": 2432,
      "sekho": 2433,
      "sekwa": 2434,
      "ukubu": 2435,
      "ukupha": 2436,
      "ukungena": 2437,
      "ngayi": 2438,
      "ngaseku": 2439,
      "ngalolu": 2440,
      "nikwa": 2441,
      "bets": 2442,
      "ngompetha": 2443,
      "yayi": 2444,
      "yaKwaZulu": 2445,
      "sala": 2446,
      "okunga": 2447,
      "emndeni": 2448,
      "emlandweni": 2449,
      "yePremiership": 2450,
      "yiso": 2451,
      "zalwa": 2452,
      "abase": 2453,
      "abagi": 2454,
      "umthetho": 2455,
      "umqeqeshi": 2456,
      "umgilwa": 2457,
      "konzo": 2458,
      "biza": 2459,
      "khomba": 2460,
      "kwalo": 2461,
      "nonyaka": 2462,
      "khungweni": 2463,
      "sohlangothini": 2464,
      "amaningi": 2465,
      "hlathu": 2466,
      "kwemidlalo": 2467,
      "tholwe": 2468,
      "isihlobo": 2469,
      "isicelo": 2470,
      "esiku": 2471,
      "esifundazweni": 2472,
      "shiwo": 2473,
      "thunzi": 2474,
      "Mana": 2475,
      "cial": 2476,
      "qondisi": 2477,
      "qashwa": 2478,
      "muka": 2479,
      "kwiChiefs": 2480,
      "kwiCaf": 2481,
      "cob": 2482,
      "meza": 2483,
      "esti": 2484,
      "inkulumo": 2485,
      "nokuba": 2486,
      "nokuyinto": 2487,
      "hinga": 2488,
      "vuza": 2489,
      "vulele": 2490,
      "gcini": 2491,
      "UMHOLI": 2492,
      "sheshe": 2493,
      "bonakala": 2494,
      "yisikhombisa": 2495,
      "qina": 2496,
      "Somlomo": 2497,
      "akukho": 2498,
      "Com": 2499,
      "Colle": 2500,
      "wabadlali": 2501,
      "wabakhaya": 2502,
      "kuzoba": 2503,
      "yaseM": 2504,
      "qiniseko": 2505,
      "kwezinye": 2506,
      "phula": 2507,
      "Jacob": 2508,
      "nganiselwa": 2509,
      "sebenzisana": 2510,
      "Gold": 2511,
      "Worship": 2512,
      "chunge": 2513,
      "ngokubambisana": 2514,
      "nezinhlelo": 2515,
      "semthethweni": 2516,
      "yabantu": 2517,
      "Dladla": 2518,
      "Holly": 2519,
      "hlanganisa": 2520,
      "Theku": 2521,
      "Hungry": 2522,
      "finyelela": 2523,
      "phendula": 2524,
      "phakamiso": 2525,
      "gqoke": 2526,
      "DLALI": 2527,
      "Phini": 2528,
      "dolobha": 2529,
      "vivinyo": 2530,
      "bhikisho": 2531,
      "woodbets": 2532,
      "ebelebele": 2533,
      "Amstel": 2534,
      "SUV": 2535,
      "Spotify": 2536,
      "helembe": 2537,
      "emndenini": 2538,
      "hlathuze": 2539,
      "Hollywoodbets": 2540,
      "21": 2541,
      "50": 2542,
      "AB": 2543,
      "AS": 2544,
      "Aku": 2545,
      "Ath": 2546,
      "Buthelezi": 2547,
      "DJ": 2548,
      "Du": 2549,
      "Hilu": 2550,
      "Imi": 2551,
      "Izin": 2552,
      "Inkosi": 2553,
      "LO": 2554,
      "Mthe": 2555,
      "Nkantolo": 2556,
      "Nkk": 2557,
      "Ta": 2558,
      "Uqhube": 2559,
      "Wester": 2560,
      "ZE": 2561,
      "bwe": 2562,
      "ct": 2563,
      "cer": 2564,
      "cho": 2565,
      "eo": 2566,
      "eco": 2567,
      "ePolokwane": 2568,
      "gement": 2569,
      "gwenya": 2570,
      "iMa": 2571,
      "igebe": 2572,
      "indoda": 2573,
      "jele": 2574,
      "kW": 2575,
      "mkhulu": 2576,
      "owesifazane": 2577,
      "qweni": 2578,
      "rle": 2579,
      "ska": 2580,
      "uke": 2581,
      "unyaka": 2582,
      "uthole": 2583,
      "usizo": 2584,
      "uhulumeni": 2585,
      "vumela": 2586,
      "kune": 2587,
      "kuvu": 2588,
      "kulokhu": 2589,
      "ngwe": 2590,
      "bane": 2591,
      "wam": 2592,
      "zinga": 2593,
      "mane": 2594,
      "kaM": 2595,
      "kanga": 2596,
      "lizo": 2597,
      "lisile": 2598,
      "wezwe": 2599,
      "weMamelodi": 2600,
      "nale": 2601,
      "nakuba": 2602,
      "sef": 2603,
      "ndu": 2604,
      "ndwa": 2605,
      "ukuyo": 2606,
      "ngalesi": 2607,
      "nini": 2608,
      "ber": 2609,
      "bengi": 2610,
      "lulekile": 2611,
      "ngozi": 2612,
      "sase": 2613,
      "sakwa": 2614,
      "embi": 2615,
      "yezin": 2616,
      "yingakho": 2617,
      "zamo": 2618,
      "buzwa": 2619,
      "burg": 2620,
      "abadala": 2621,
      "kethe": 2622,
      "komo": 2623,
      "bikwa": 2624,
      "billion": 2625,
      "hambo": 2626,
      "ngiku": 2627,
      "ngini": 2628,
      "noSi": 2629,
      "khungo": 2630,
      "khulisa": 2631,
      "phawu": 2632,
      "phandle": 2633,
      "khanda": 2634,
      "dlavuza": 2635,
      "kwesoku": 2636,
      "ezinobuso": 2637,
      "izindawo": 2638,
      "isithunzi": 2639,
      "esinga": 2640,
      "esizo": 2641,
      "esikhulu": 2642,
      "esiphezulu": 2643,
      "nyelwe": 2644,
      "fakwa": 2645,
      "qoqa": 2646,
      "mbiko": 2647,
      "dabu": 2648,
      "daweni": 2649,
      "hlehli": 2650,
      "phoq": 2651,
      "elizo": 2652,
      "dingo": 2653,
      "ate": 2654,
      "kwiPremiership": 2655,
      "bene": 2656,
      "eminingi": 2657,
      "Sifuna": 2658,
      "Siwelele": 2659,
      "vaka": 2660,
      "mpo": 2661,
      "mpumelelo": 2662,
      "phethwe": 2663,
      "kwenziwa": 2664,
      "ndima": 2665,
      "ndelwa": 2666,
      "gcize": 2667,
      "hlulwa": 2668,
      "hlungu": 2669,
      "landele": 2670,
      "lokuzi": 2671,
      "Bar": 2672,
      "zokuba": 2673,
      "ubugebengu": 2674,
      "sendaweni": 2675,
      "2021": 2676,
      "Mokaba": 2677,
      "Mokoena": 2678,
      "cwani": 2679,
      "Noma": 2680,
      "yesigameko": 2681,
      "kwesizini": 2682,
      "qinisekise": 2683,
      "bazoqhubeka": 2684,
      "Ngaphandle": 2685,
      "IFSA": 2686,
      "llies": 2687,
      "thweswe": 2688,
      "nenkinga": 2689,
      "ngoLwesine": 2690,
      "hlin": 2691,
      "Prote": 2692,
      "yenze": 2693,
      "ussef": 2694,
      "Ngcongo": 2695,
      "kwenzeke": 2696,
      "sunguli": 2697,
      "jabulela": 2698,
      "CCIFSA": 2699,
      "Stellies": 2700,
      "Richa": 2701,
      "zemfundo": 2702,
      "finyelele": 2703,
      "kwethulwa": 2704,
      "dodana": 2705,
      "bekisela": 2706,
      "deslam": 2707,
      "odabuka": 2708,
      "phazamisa": 2709,
      "Alg": 2710,
      "ephakeme": 2711,
      "Sports": 2712,
      "Youssef": 2713,
      "Abdeslam": 2714,
      "pulazini": 2715,
      "aledi": 2716,
      "occo": 2717,
      "khonjiswa": 2718,
      "ngokulingana": 2719,
      "hlukunyezwa": 2720,
      "Isolezwe": 2721,
      "College": 2722,
      "Hilux": 2723,
      "Mthethwa": 2724,
      "Western": 2725,
      "skandi": 2726,
      "AM": 2727,
      "Broos": 2728,
      "CULI": 2729,
      "Eng": 2730,
      "EBO": 2731,
      "Fe": 2732,
      "For": 2733,
      "Kwe": 2734,
      "Lesi": 2735,
      "MT": 2736,
      "Ndaba": 2737,
      "Nxumalo": 2738,
      "OK": 2739,
      "Oli": 2740,
      "Ser": 2741,
      "Seku": 2742,
      "Te": 2743,
      "Ukusho": 2744,
      "USA": 2745,
      "UNgema": 2746,
      "YA": 2747,
      "Zion": 2748,
      "ath": 2749,
      "ayo": 2750,
      "aben": 2751,
      "by": 2752,
      "ea": 2753,
      "eng": 2754,
      "eMo": 2755,
      "hlwa": 2756,
      "ith": 2757,
      "ine": 2758,
      "iso": 2759,
      "imoto": 2760,
      "impahla": 2761,
      "joyi": 2762,
      "lwini": 2763,
      "mqhudelwano": 2764,
      "nny": 2765,
      "owe": 2766,
      "opa": 2767,
      "okwenza": 2768,
      "oyedwa": 2769,
      "pthemba": 2770,
      "ssa": 2771,
      "sric": 2772,
      "tsi": 2773,
      "ukwa": 2774,
      "uSa": 2775,
      "uCardoso": 2776,
      "yem": 2777,
      "kusi": 2778,
      "kunama": 2779,
      "ngq": 2780,
      "ler": 2781,
      "lethu": 2782,
      "wagcina": 2783,
      "zibe": 2784,
      "zibu": 2785,
      "zimele": 2786,
      "enya": 2787,
      "encane": 2788,
      "sithi": 2789,
      "simo": 2790,
      "mashi": 2791,
      "khwe": 2792,
      "lone": 2793,
      "nakho": 2794,
      "ses": 2795,
      "seBetway": 2796,
      "ndwe": 2797,
      "pheni": 2798,
      "ukudlala": 2799,
      "ukuqeda": 2800,
      "ukuvota": 2801,
      "nikwe": 2802,
      "besa": 2803,
      "beyi": 2804,
      "bekhona": 2805,
      "ngoNovemba": 2806,
      "yalo": 2807,
      "yeBetway": 2808,
      "yeMotsepe": 2809,
      "yiqembu": 2810,
      "yizin": 2811,
      "zazi": 2812,
      "buyi": 2813,
      "butho": 2814,
      "buholi": 2815,
      "ababe": 2816,
      "abasebenzi": 2817,
      "abaholi": 2818,
      "abasohlangothini": 2819,
      "kelwe": 2820,
      "umholi": 2821,
      "nte": 2822,
      "zethu": 2823,
      "biwa": 2824,
      "bombela": 2825,
      "lwase": 2826,
      "lwakhe": 2827,
      "amaho": 2828,
      "amagoli": 2829,
      "hlava": 2830,
      "hlanhla": 2831,
      "njwe": 2832,
      "khamba": 2833,
      "khamuzi": 2834,
      "thani": 2835,
      "thandi": 2836,
      "thathwa": 2837,
      "kwesa": 2838,
      "eziba": 2839,
      "ezizo": 2840,
      "izinyanga": 2841,
      "izikibha": 2842,
      "nguyena": 2843,
      "isiqiniseko": 2844,
      "njelwe": 2845,
      "shiswa": 2846,
      "shiunda": 2847,
      "thule": 2848,
      "thukiswa": 2849,
      "Mashi": 2850,
      "shaja": 2851,
      "dayi": 2852,
      "dalule": 2853,
      "khethe": 2854,
      "khetha": 2855,
      "khelwane": 2856,
      "phon": 2857,
      "hune": 2858,
      "ngokuzi": 2859,
      "ngokunga": 2860,
      "ngokugcwele": 2861,
      "kwiSundowns": 2862,
      "mbangi": 2863,
      "caci": 2864,
      "cast": 2865,
      "Siko": 2866,
      "ting": 2867,
      "phikisa": 2868,
      "kulezi": 2869,
      "inkantolo": 2870,
      "incwadi": 2871,
      "sebenzini": 2872,
      "sebenzela": 2873,
      "tambo": 2874,
      "galelo": 2875,
      "gidi": 2876,
      "ekuqaleni": 2877,
      "UMo": 2878,
      "UMCULI": 2879,
      "shesha": 2880,
      "KwaMa": 2881,
      "gugu": 2882,
      "cupheni": 2883,
      "velo": 2884,
      "namaSiko": 2885,
      "etshiunda": 2886,
      "uNkulunkulu": 2887,
      "Kagiso": 2888,
      "pangeni": 2889,
      "jazz": 2890,
      "cebo": 2891,
      "reto": 2892,
      "Casric": 2893,
      "ntileka": 2894,
      "Leopa": 2895,
      "izinsolo": 2896,
      "Ciko": 2897,
      "abebe": 2898,
      "UNG": 2899,
      "eNa": 2900,
      "velele": 2901,
      "eMbombela": 2902,
      "landelayo": 2903,
      "ebeli": 2904,
      "Amaphoyisa": 2905,
      "ngezinto": 2906,
      "xolo": 2907,
      "phutha": 2908,
      "Abanye": 2909,
      "Ngakho": 2910,
      "kwamanje": 2911,
      "Jaeco": 2912,
      "uBra": 2913,
      "ngomculo": 2914,
      "uMalema": 2915,
      "nesikhathi": 2916,
      "yoMthethosisekelo": 2917,
      "lolunye": 2918,
      "hlizi": 2919,
      "yamazane": 2920,
      "Sekhukhu": 2921,
      "Septhemba": 2922,
      "kumaPlay": 2923,
      "pers": 2924,
      "gwaza": 2925,
      "logy": 2926,
      "wombeni": 2927,
      "jabulisa": 2928,
      "Playhouse": 2929,
      "khuthaza": 2930,
      "Goliath": 2931,
      "eria": 2932,
      "shiyagalolunye": 2933,
      "kamaskandi": 2934,
      "Thuthukiswa": 2935,
      "lamaphuzu": 2936,
      "News": 2937,
      "phumelela": 2938,
      "Zondo": 2939,
      "inqwaba": 2940,
      "menyezelwa": 2941,
      "tatimende": 2942,
      "eneral": 2943,
      "Music": 2944,
      "gqama": 2945,
      "kuMasipala": 2946,
      "donsa": 2947,
      "hhayi": 2948,
      "ngasekupheleni": 2949,
      "Management": 2950,
      "phoqele": 2951,
      "cwaningo": 2952,
      "MTN": 2953,
      "Leopards": 2954,
      "Jaecoo": 2955,
      "Sekhukhune": 2956,
      "31": 2957,
      "55": 2958,
      "Ad": 2959,
      "Ben": 2960,
      "Best": 2961,
      "DP": 2962,
      "Ekhuluma": 2963,
      "Eqhuba": 2964,
      "FP": 2965,
      "FAC": 2966,
      "HU": 2967,
      "HUM": 2968,
      "High": 2969,
      "It": 2970,
      "Ita": 2971,
      "ISundowns": 2972,
      "Mengameli": 2973,
      "Mkhwanazi": 2974,
      "ND": 2975,
      "NP": 2976,
      "Nyamazane": 2977,
      "Rose": 2978,
      "SO": 2979,
      "TI": 2980,
      "Thi": 2981,
      "UD": 2982,
      "URamaphosa": 2983,
      "UCC": 2984,
      "UZuma": 2985,
      "YE": 2986,
      "athi": 2987,
      "athole": 2988,
      "amehlo": 2989,
      "dlelwa": 2990,
      "engena": 2991,
      "eyokuthi": 2992,
      "ejele": 2993,
      "fela": 2994,
      "feza": 2995,
      "gh": 2996,
      "gat": 2997,
      "hn": 2998,
      "ic": 2999
    },
    "merges": [
      [
        "k",
        "u"
      ],
      [
        "n",
        "g"
      ],
      [
        "l",
        "a"
      ],
      [
        "t",
        "h"
      ],
      [
        "l",
        "e"
      ],
      [
        "b",
        "a"
      ],
      [
        "w",
        "a"
      ],
      [
        "z",
        "i"
      ],
      [
        "e",
        "n"
      ],
      [
        "s",
        "i"
      ],
      [
        "m",
        "a"
      ],
      [
        "k",
        "h"
      ],
      [
        "k",
        "a"
      ],
      [
        "l",
        "i"
      ],
      [
        "l",
        "o"
      ],
      [
        "th",
        "i"
      ],
      [
        "w",
        "e"
      ],
      [
        "n",
        "a"
      ],
      [
        "s",
        "e"
      ],
      [
        "n",
        "d"
      ],
      [
        "p",
        "h"
      ],
      [
        "u",
        "ku"
      ],
      [
        "ng",
        "a"
      ],
      [
        "s",
        "h"
      ],
      [
        "n",
        "i"
      ],
      [
        "b",
        "e"
      ],
      [
        "l",
        "u"
      ],
      [
        "ng",
        "o"
      ],
      [
        "y",
        "a"
      ],
      [
        "n",
        "e"
      ],
      [
        "s",
        "a"
      ],
      [
        "o",
        "ku"
      ],
      [
        "e",
        "m"
      ],
      [
        "y",
        "e"
      ],
      [
        "y",
        "i"
      ],
      [
        "z",
        "a"
      ],
      [
        "b",
        "u"
      ],
      [
        "en",
        "i"
      ],
      [
        "a",
        "ba"
      ],
      [
        "k",
        "e"
      ],
      [
        "u",
        "m"
      ],
      [
        "n",
        "t"
      ],
      [
        "z",
        "o"
      ],
      [
        "k",
        "o"
      ],
      [
        "z",
        "e"
      ],
      [
        "b",
        "i"
      ],
      [
        "b",
        "o"
      ],
      [
        "uku",
        "thi"
      ],
      [
        "y",
        "o"
      ],
      [
        "th",
        "e"
      ],
      [
        "kh",
        "o"
      ],
      [
        "h",
        "a"
      ],
      [
        "k",
        "wa"
      ],
      [
        "m",
        "i"
      ],
      [
        "ng",
        "i"
      ],
      [
        "l",
        "wa"
      ],
      [
        "n",
        "o"
      ],
      [
        "ng",
        "e"
      ],
      [
        "kh",
        "u"
      ],
      [
        "s",
        "o"
      ],
      [
        "a",
        "ma"
      ],
      [
        "ph",
        "a"
      ],
      [
        "h",
        "la"
      ],
      [
        "n",
        "j"
      ],
      [
        "kh",
        "a"
      ],
      [
        "d",
        "la"
      ],
      [
        "k",
        "w"
      ],
      [
        "f",
        "u"
      ],
      [
        "e",
        "la"
      ],
      [
        "th",
        "a"
      ],
      [
        "k",
        "we"
      ],
      [
        "th",
        "o"
      ],
      [
        "e",
        "le"
      ],
      [
        "e",
        "zi"
      ],
      [
        "i",
        "zi"
      ],
      [
        "ng",
        "u"
      ],
      [
        "i",
        "si"
      ],
      [
        "e",
        "si"
      ],
      [
        "w",
        "eni"
      ],
      [
        "nj",
        "e"
      ],
      [
        "sh",
        "i"
      ],
      [
        "n",
        "ye"
      ],
      [
        "k",
        "i"
      ],
      [
        "th",
        "u"
      ],
      [
        "w",
        "o"
      ],
      [
        "M",
        "a"
      ],
      [
        "c",
        "i"
      ],
      [
        "e",
        "r"
      ],
      [
        "f",
        "a"
      ],
      [
        "q",
        "o"
      ],
      [
        "sh",
        "o"
      ],
      [
        "n",
        "ya"
      ],
      [
        "b",
        "h"
      ],
      [
        "m",
        "bi"
      ],
      [
        "nd",
        "a"
      ],
      [
        "q",
        "a"
      ],
      [
        "m",
        "u"
      ],
      [
        "sh",
        "a"
      ],
      [
        "d",
        "a"
      ],
      [
        "nd",
        "o"
      ],
      [
        "N",
        "g"
      ],
      [
        "kh",
        "e"
      ],
      [
        "h",
        "le"
      ],
      [
        "ph",
        "o"
      ],
      [
        "e",
        "li"
      ],
      [
        "ng",
        "en"
      ],
      [
        "d",
        "i"
      ],
      [
        "h",
        "u"
      ],
      [
        "ngo",
        "ku"
      ],
      [
        "a",
        "t"
      ],
      [
        "nt",
        "u"
      ],
      [
        "o",
        "n"
      ],
      [
        "kw",
        "i"
      ],
      [
        "ngo",
        "ba"
      ],
      [
        "khu",
        "lu"
      ],
      [
        "l",
        "we"
      ],
      [
        "nt",
        "o"
      ],
      [
        "h",
        "o"
      ],
      [
        "d",
        "e"
      ],
      [
        "b",
        "en"
      ],
      [
        "c",
        "o"
      ],
      [
        "u",
        "ma"
      ],
      [
        "q",
        "e"
      ],
      [
        "m",
        "ba"
      ],
      [
        "c",
        "a"
      ],
      [
        "em",
        "i"
      ],
      [
        "S",
        "i"
      ],
      [
        "u",
        "M"
      ],
      [
        "v",
        "a"
      ],
      [
        "d",
        "wa"
      ],
      [
        "r",
        "i"
      ],
      [
        "m",
        "e"
      ],
      [
        "m",
        "o"
      ],
      [
        "kho",
        "na"
      ],
      [
        "e",
        "s"
      ],
      [
        "t",
        "i"
      ],
      [
        "ph",
        "i"
      ],
      [
        "ku",
        "le"
      ],
      [
        "le",
        "la"
      ],
      [
        "i",
        "n"
      ],
      [
        "f",
        "i"
      ],
      [
        "se",
        "ben"
      ],
      [
        "h",
        "lo"
      ],
      [
        "u",
        "lu"
      ],
      [
        "u",
        "the"
      ],
      [
        "em",
        "bu"
      ],
      [
        "m",
        "p"
      ],
      [
        "u",
        "z"
      ],
      [
        "w",
        "u"
      ],
      [
        "q",
        "embu"
      ],
      [
        "bh",
        "e"
      ],
      [
        "ph",
        "e"
      ],
      [
        "kw",
        "en"
      ],
      [
        "i",
        "ni"
      ],
      [
        "K",
        "u"
      ],
      [
        "t",
        "o"
      ],
      [
        "z",
        "we"
      ],
      [
        "n",
        "oku"
      ],
      [
        "h",
        "i"
      ],
      [
        "ku",
        "sho"
      ],
      [
        "kha",
        "thi"
      ],
      [
        "2",
        "0"
      ],
      [
        "t",
        "a"
      ],
      [
        "ko",
        "dwa"
      ],
      [
        "g",
        "a"
      ],
      [
        "g",
        "i"
      ],
      [
        "nd",
        "i"
      ],
      [
        "dla",
        "lo"
      ],
      [
        "zi",
        "ni"
      ],
      [
        "y",
        "oku"
      ],
      [
        "U",
        "the"
      ],
      [
        "v",
        "u"
      ],
      [
        "nge",
        "si"
      ],
      [
        "b",
        "ha"
      ],
      [
        "nd",
        "e"
      ],
      [
        "s",
        "wa"
      ],
      [
        "g",
        "ci"
      ],
      [
        "n",
        "ke"
      ],
      [
        "nje",
        "ngoba"
      ],
      [
        "i",
        "mi"
      ],
      [
        "s",
        "u"
      ],
      [
        "ka",
        "thi"
      ],
      [
        "h",
        "lu"
      ],
      [
        "o",
        "r"
      ],
      [
        "q",
        "hu"
      ],
      [
        "t",
        "e"
      ],
      [
        "e",
        "ku"
      ],
      [
        "la",
        "nd"
      ],
      [
        "l",
        "weni"
      ],
      [
        "U",
        "M"
      ],
      [
        "sh",
        "e"
      ],
      [
        "we",
        "si"
      ],
      [
        "kule",
        "li"
      ],
      [
        "seben",
        "zi"
      ],
      [
        "K",
        "wa"
      ],
      [
        "fu",
        "thi"
      ],
      [
        "le",
        "ni"
      ],
      [
        "aba",
        "ntu"
      ],
      [
        "a",
        "l"
      ],
      [
        "z",
        "wa"
      ],
      [
        "en",
        "e"
      ],
      [
        "P",
        "i"
      ],
      [
        "m",
        "be"
      ],
      [
        "Z",
        "ulu"
      ],
      [
        "nya",
        "ka"
      ],
      [
        "nga",
        "pha"
      ],
      [
        "qa",
        "la"
      ],
      [
        "lo",
        "ku"
      ],
      [
        "bo",
        "na"
      ],
      [
        "g",
        "e"
      ],
      [
        "ne",
        "zi"
      ],
      [
        "h",
        "e"
      ],
      [
        "en",
        "a"
      ],
      [
        "d",
        "o"
      ],
      [
        "r",
        "o"
      ],
      [
        "B",
        "a"
      ],
      [
        ",",
        "”"
      ],
      [
        "d",
        "lu"
      ],
      [
        "v",
        "i"
      ],
      [
        "g",
        "u"
      ],
      [
        "c",
        "u"
      ],
      [
        "yi",
        "sa"
      ],
      [
        "ne",
        "le"
      ],
      [
        "L",
        "o"
      ],
      [
        "d",
        "u"
      ],
      [
        "t",
        "sh"
      ],
      [
        "v",
        "e"
      ],
      [
        "bi",
        "li"
      ],
      [
        "z",
        "oku"
      ],
      [
        "le",
        "le"
      ],
      [
        "q",
        "u"
      ],
      [
        "n",
        "zi"
      ],
      [
        "kh",
        "i"
      ],
      [
        "n",
        "uz"
      ],
      [
        "ke",
        "la"
      ],
      [
        "N",
        "at"
      ],
      [
        "b",
        "eni"
      ],
      [
        "w",
        "oku"
      ],
      [
        "kwa",
        "zi"
      ],
      [
        "r",
        "a"
      ],
      [
        "na",
        "ma"
      ],
      [
        "ku",
        "lu"
      ],
      [
        "e",
        "t"
      ],
      [
        "e",
        "ma"
      ],
      [
        "u",
        "N"
      ],
      [
        "fu",
        "na"
      ],
      [
        "nd",
        "la"
      ],
      [
        "pha",
        "kathi"
      ],
      [
        "shi",
        "p"
      ],
      [
        "yi",
        "si"
      ],
      [
        "n",
        "si"
      ],
      [
        "u",
        "bu"
      ],
      [
        "k",
        "oku"
      ],
      [
        "r",
        "at"
      ],
      [
        "x",
        "a"
      ],
      [
        "nga",
        "ma"
      ],
      [
        "qhu",
        "be"
      ],
      [
        "S",
        "u"
      ],
      [
        "i",
        "on"
      ],
      [
        "o",
        "li"
      ],
      [
        "tho",
        "la"
      ],
      [
        "K",
        "a"
      ],
      [
        "nj",
        "a"
      ],
      [
        "m",
        "en"
      ],
      [
        "n",
        "s"
      ],
      [
        "ka",
        "khulu"
      ],
      [
        "ama",
        "pho"
      ],
      [
        "uM",
        "nuz"
      ],
      [
        "p",
        "a"
      ],
      [
        "ma",
        "li"
      ],
      [
        "rat",
        "es"
      ],
      [
        "hla",
        "nga"
      ],
      [
        ".",
        "\""
      ],
      [
        "q",
        "i"
      ],
      [
        "ki",
        "le"
      ],
      [
        "fa",
        "nele"
      ],
      [
        "Pi",
        "rates"
      ],
      [
        "S",
        "o"
      ],
      [
        "ci",
        "mbi"
      ],
      [
        "A",
        "f"
      ],
      [
        "j",
        "a"
      ],
      [
        "ku",
        "ba"
      ],
      [
        "lo",
        "khu"
      ],
      [
        "s",
        "en"
      ],
      [
        "la",
        "pho"
      ],
      [
        "c",
        "e"
      ],
      [
        "e",
        "nga"
      ],
      [
        "Ng",
        "i"
      ],
      [
        "e",
        "se"
      ],
      [
        "ni",
        "ngi"
      ],
      [
        "the",
        "tho"
      ],
      [
        "T",
        "he"
      ],
      [
        "uku",
        "ze"
      ],
      [
        "bu",
        "la"
      ],
      [
        "C",
        "hi"
      ],
      [
        "f",
        "s"
      ],
      [
        "k",
        "ene"
      ],
      [
        "r",
        "e"
      ],
      [
        "ka",
        "zi"
      ],
      [
        "hle",
        "lo"
      ],
      [
        "ngesi",
        "khathi"
      ],
      [
        "20",
        "2"
      ],
      [
        "q",
        "ini"
      ],
      [
        "dla",
        "li"
      ],
      [
        "Af",
        "ri"
      ],
      [
        "fa",
        "na"
      ],
      [
        "M",
        "o"
      ],
      [
        "ng",
        "em"
      ],
      [
        "zi",
        "n"
      ],
      [
        "Kwa",
        "Zulu"
      ],
      [
        "Nat",
        "al"
      ],
      [
        "i",
        "zo"
      ],
      [
        "s",
        "uku"
      ],
      [
        "mbi",
        "sa"
      ],
      [
        "C",
        "a"
      ],
      [
        "S",
        "ta"
      ],
      [
        "ze",
        "ka"
      ],
      [
        "kwen",
        "za"
      ],
      [
        "k",
        "s"
      ],
      [
        "t",
        "y"
      ],
      [
        "wa",
        "se"
      ],
      [
        "no",
        "m"
      ],
      [
        "qe",
        "qe"
      ],
      [
        "tha",
        "thu"
      ],
      [
        "nt",
        "i"
      ],
      [
        ",",
        "\""
      ],
      [
        "L",
        "e"
      ],
      [
        "nt",
        "a"
      ],
      [
        "0",
        "0"
      ],
      [
        "P",
        "ha"
      ],
      [
        "se",
        "ku"
      ],
      [
        "izi",
        "n"
      ],
      [
        "ca",
        "la"
      ],
      [
        "gci",
        "na"
      ],
      [
        "P",
        "r"
      ],
      [
        "uku",
        "ba"
      ],
      [
        "nto",
        "lo"
      ],
      [
        "ka",
        "ntolo"
      ],
      [
        "C",
        "i"
      ],
      [
        "li",
        "sa"
      ],
      [
        "nda",
        "wo"
      ],
      [
        "emi",
        "er"
      ],
      [
        "Pr",
        "emier"
      ],
      [
        "a",
        "be"
      ],
      [
        "u",
        "va"
      ],
      [
        "o",
        "lu"
      ],
      [
        "w",
        "ns"
      ],
      [
        "sh",
        "wa"
      ],
      [
        "za",
        "ne"
      ],
      [
        "mbi",
        "li"
      ],
      [
        "ndo",
        "wns"
      ],
      [
        "uz",
        "u"
      ],
      [
        "Su",
        "ndowns"
      ],
      [
        "m",
        "ele"
      ],
      [
        "s",
        "oku"
      ],
      [
        "nd",
        "eni"
      ],
      [
        "um",
        "u"
      ],
      [
        "ngen",
        "xa"
      ],
      [
        "dlu",
        "le"
      ],
      [
        "Chi",
        "e"
      ],
      [
        "u",
        "r"
      ],
      [
        "la",
        "ndo"
      ],
      [
        "na",
        "ba"
      ],
      [
        "dla",
        "lweni"
      ],
      [
        "ho",
        "li"
      ],
      [
        "nja",
        "lo"
      ],
      [
        "Chie",
        "fs"
      ],
      [
        "o",
        "wa"
      ],
      [
        "p",
        "e"
      ],
      [
        "s",
        "we"
      ],
      [
        "w",
        "en"
      ],
      [
        "U",
        "N"
      ],
      [
        "a",
        "ku"
      ],
      [
        "s",
        "t"
      ],
      [
        "le",
        "si"
      ],
      [
        "mo",
        "to"
      ],
      [
        "y",
        "ena"
      ],
      [
        "um",
        "o"
      ],
      [
        "C",
        "o"
      ],
      [
        "n",
        "u"
      ],
      [
        "w",
        "i"
      ],
      [
        "wa",
        "ba"
      ],
      [
        "se",
        "la"
      ],
      [
        "nga",
        "ba"
      ],
      [
        "dla",
        "la"
      ],
      [
        "A",
        "N"
      ],
      [
        "e",
        "N"
      ],
      [
        "se",
        "le"
      ],
      [
        "nd",
        "leni"
      ],
      [
        "ph",
        "um"
      ],
      [
        "ha",
        "mba"
      ],
      [
        "v",
        "ele"
      ],
      [
        "ng",
        "qo"
      ],
      [
        "nd",
        "le"
      ],
      [
        "ngo",
        "M"
      ],
      [
        "em",
        "ba"
      ],
      [
        "kha",
        "ya"
      ],
      [
        "Sta",
        "di"
      ],
      [
        "Premier",
        "ship"
      ],
      [
        "o",
        "f"
      ],
      [
        "ph",
        "en"
      ],
      [
        "hla",
        "ba"
      ],
      [
        "ngoku",
        "thi"
      ],
      [
        "Stadi",
        "um"
      ],
      [
        "c",
        "wa"
      ],
      [
        "r",
        "d"
      ],
      [
        "ku",
        "zo"
      ],
      [
        "ks",
        "z"
      ],
      [
        "c",
        "h"
      ],
      [
        "e",
        "za"
      ],
      [
        "j",
        "i"
      ],
      [
        "ngen",
        "a"
      ],
      [
        "e",
        "ya"
      ],
      [
        "no",
        "ma"
      ],
      [
        "fu",
        "nda"
      ],
      [
        "e",
        "M"
      ],
      [
        "phi",
        "nde"
      ],
      [
        "m",
        "bo"
      ],
      [
        "m",
        "dlalo"
      ],
      [
        "u",
        "be"
      ],
      [
        "ng",
        "weni"
      ],
      [
        "u",
        "zo"
      ],
      [
        "y",
        "u"
      ],
      [
        "ku",
        "lo"
      ],
      [
        "ph",
        "ela"
      ],
      [
        "ph",
        "ele"
      ],
      [
        "nya",
        "ngo"
      ],
      [
        "land",
        "ela"
      ],
      [
        "N",
        "o"
      ],
      [
        "e",
        "be"
      ],
      [
        "wa",
        "na"
      ],
      [
        "mu",
        "nye"
      ],
      [
        "qhube",
        "ka"
      ],
      [
        "Ci",
        "ty"
      ],
      [
        "A",
        "ma"
      ],
      [
        "a",
        "se"
      ],
      [
        "g",
        "o"
      ],
      [
        "en",
        "t"
      ],
      [
        "ye",
        "si"
      ],
      [
        "Afri",
        "ka"
      ],
      [
        "nge",
        "zi"
      ],
      [
        "so",
        "lwa"
      ],
      [
        "d",
        "lela"
      ],
      [
        "ba",
        "n"
      ],
      [
        "en",
        "da"
      ],
      [
        "ph",
        "uzu"
      ],
      [
        "ze",
        "la"
      ],
      [
        "i",
        "g"
      ],
      [
        "m",
        "eni"
      ],
      [
        "ng",
        "um"
      ],
      [
        "ngi",
        "zi"
      ],
      [
        "kwe",
        "si"
      ],
      [
        "bh",
        "o"
      ],
      [
        "hlu",
        "kene"
      ],
      [
        "Pha",
        "la"
      ],
      [
        "R",
        "amapho"
      ],
      [
        "e",
        "ngu"
      ],
      [
        "li",
        "gi"
      ],
      [
        "ya",
        "se"
      ],
      [
        "qini",
        "se"
      ],
      [
        "qeqe",
        "shi"
      ],
      [
        "Ramapho",
        "sa"
      ],
      [
        "u",
        "se"
      ],
      [
        "ku",
        "ka"
      ],
      [
        "ku",
        "be"
      ],
      [
        "ka",
        "la"
      ],
      [
        "ya",
        "khe"
      ],
      [
        "kwe",
        "zi"
      ],
      [
        "C",
        "ha"
      ],
      [
        "O",
        "r"
      ],
      [
        "ba",
        "zo"
      ],
      [
        "nga",
        "kho"
      ],
      [
        "L",
        "I"
      ],
      [
        "S",
        "A"
      ],
      [
        "x",
        "o"
      ],
      [
        "le",
        "lwa"
      ],
      [
        "ph",
        "u"
      ],
      [
        "khulu",
        "ma"
      ],
      [
        "bhe",
        "ka"
      ],
      [
        "phe",
        "z"
      ],
      [
        "A",
        "ba"
      ],
      [
        "n",
        "kulu"
      ],
      [
        "le",
        "li"
      ],
      [
        "zi",
        "wa"
      ],
      [
        "lo",
        "kho"
      ],
      [
        "kwa",
        "ba"
      ],
      [
        "mp",
        "a"
      ],
      [
        "men",
        "de"
      ],
      [
        "en",
        "ye"
      ],
      [
        "ka",
        "nje"
      ],
      [
        "Ng",
        "a"
      ],
      [
        "ge",
        "be"
      ],
      [
        "F",
        "C"
      ],
      [
        "I",
        "ma"
      ],
      [
        "N",
        "a"
      ],
      [
        "e",
        "yi"
      ],
      [
        "n",
        "q"
      ],
      [
        "la",
        "la"
      ],
      [
        "wa",
        "ma"
      ],
      [
        "Ima",
        "ge"
      ],
      [
        "J",
        "u"
      ],
      [
        "m",
        "cimbi"
      ],
      [
        "u",
        "sho"
      ],
      [
        "kwa",
        "ma"
      ],
      [
        "nzi",
        "ma"
      ],
      [
        "B",
        "et"
      ],
      [
        "L",
        "wesi"
      ],
      [
        "le",
        "zi"
      ],
      [
        "le",
        "ka"
      ],
      [
        "tho",
        "le"
      ],
      [
        "thu",
        "ba"
      ],
      [
        "n",
        "ka"
      ],
      [
        "v",
        "o"
      ],
      [
        "em",
        "dlalweni"
      ],
      [
        "kwi",
        "ni"
      ],
      [
        "fi",
        "ka"
      ],
      [
        "m",
        "ela"
      ],
      [
        "m",
        "eli"
      ],
      [
        "wa",
        "thi"
      ],
      [
        "kha",
        "la"
      ],
      [
        "fa",
        "zane"
      ],
      [
        "co",
        "co"
      ],
      [
        "ve",
        "ze"
      ],
      [
        "l",
        "le"
      ],
      [
        "q",
        "ha"
      ],
      [
        "t",
        "u"
      ],
      [
        "w",
        "ukuthi"
      ],
      [
        "ng",
        "eni"
      ],
      [
        "ne",
        "mi"
      ],
      [
        "fu",
        "ndi"
      ],
      [
        "G",
        "a"
      ],
      [
        "I",
        "F"
      ],
      [
        "J",
        "a"
      ],
      [
        "l",
        "li"
      ],
      [
        "u",
        "B"
      ],
      [
        "u",
        "T"
      ],
      [
        "th",
        "we"
      ],
      [
        "wa",
        "y"
      ],
      [
        "nd",
        "aba"
      ],
      [
        "shi",
        "ni"
      ],
      [
        "The",
        "kwini"
      ],
      [
        "I",
        "si"
      ],
      [
        "M",
        "i"
      ],
      [
        "S",
        "a"
      ],
      [
        "a",
        "ngu"
      ],
      [
        "f",
        "o"
      ],
      [
        "n",
        "en"
      ],
      [
        "n",
        "qa"
      ],
      [
        "ngo",
        "m"
      ],
      [
        "ngo",
        "Lwesi"
      ],
      [
        "so",
        "nto"
      ],
      [
        "fu",
        "ndo"
      ],
      [
        "N",
        "i"
      ],
      [
        "U",
        "ni"
      ],
      [
        "o",
        "be"
      ],
      [
        "u",
        "Ma"
      ],
      [
        "th",
        "wa"
      ],
      [
        "wa",
        "ye"
      ],
      [
        "lu",
        "ngu"
      ],
      [
        "ne",
        "si"
      ],
      [
        "yo",
        "M"
      ],
      [
        "seben",
        "za"
      ],
      [
        "ga",
        "me"
      ],
      [
        "Z",
        "i"
      ],
      [
        "si",
        "zo"
      ],
      [
        "li",
        "ka"
      ],
      [
        "thi",
        "wa"
      ],
      [
        "bu",
        "ye"
      ],
      [
        "ngizi",
        "mu"
      ],
      [
        "Bet",
        "way"
      ],
      [
        "U",
        "m"
      ],
      [
        "e",
        "d"
      ],
      [
        "u",
        "g"
      ],
      [
        "ka",
        "nye"
      ],
      [
        "nga",
        "yo"
      ],
      [
        "be",
        "lo"
      ],
      [
        "lu",
        "meni"
      ],
      [
        "khe",
        "tho"
      ],
      [
        "hu",
        "lumeni"
      ],
      [
        "cu",
        "lo"
      ],
      [
        "d",
        "aba"
      ],
      [
        "g",
        "qi"
      ],
      [
        "n",
        "qo"
      ],
      [
        "s",
        "eni"
      ],
      [
        "ku",
        "khona"
      ],
      [
        "si",
        "pa"
      ],
      [
        "ka",
        "njalo"
      ],
      [
        "lo",
        "vu"
      ],
      [
        "nga",
        "ni"
      ],
      [
        "nga",
        "ne"
      ],
      [
        "ngo",
        "ma"
      ],
      [
        "ke",
        "le"
      ],
      [
        "hlo",
        "bo"
      ],
      [
        "land",
        "eli"
      ],
      [
        "amapho",
        "yisa"
      ],
      [
        "umu",
        "ntu"
      ],
      [
        "sipa",
        "la"
      ],
      [
        "U",
        "K"
      ],
      [
        "U",
        "ma"
      ],
      [
        "c",
        "ha"
      ],
      [
        "e",
        "l"
      ],
      [
        "e",
        "bu"
      ],
      [
        "i",
        "sa"
      ],
      [
        "se",
        "zi"
      ],
      [
        "mp",
        "ion"
      ],
      [
        "Lo",
        "khu"
      ],
      [
        "Cha",
        "mpion"
      ],
      [
        "game",
        "ko"
      ],
      [
        ")",
        ","
      ],
      [
        "a",
        "si"
      ],
      [
        "lo",
        "lu"
      ],
      [
        "qa",
        "le"
      ],
      [
        "ti",
        "on"
      ],
      [
        "mp",
        "i"
      ],
      [
        "ngapha",
        "ndle"
      ],
      [
        "Phala",
        "mende"
      ],
      [
        "a",
        "r"
      ],
      [
        "e",
        "zo"
      ],
      [
        "h",
        "li"
      ],
      [
        "i",
        "ze"
      ],
      [
        "p",
        "i"
      ],
      [
        "u",
        "ya"
      ],
      [
        "w",
        "ini"
      ],
      [
        "ku",
        "sa"
      ],
      [
        "wa",
        "khe"
      ],
      [
        "ka",
        "hle"
      ],
      [
        "nd",
        "lela"
      ],
      [
        "em",
        "e"
      ],
      [
        "hu",
        "ma"
      ],
      [
        "ca",
        "ne"
      ],
      [
        "hlo",
        "ni"
      ],
      [
        "gebe",
        "ngu"
      ],
      [
        "K",
        "P"
      ],
      [
        "T",
        "o"
      ],
      [
        "z",
        "weni"
      ],
      [
        "se",
        "si"
      ],
      [
        "ya",
        "ma"
      ],
      [
        "hla",
        "ka"
      ],
      [
        "enda",
        "weni"
      ],
      [
        "nq",
        "umo"
      ],
      [
        "S",
        "e"
      ],
      [
        "e",
        "Thekwini"
      ],
      [
        "n",
        "x"
      ],
      [
        "nga",
        "ka"
      ],
      [
        "nge",
        "ke"
      ],
      [
        "hla",
        "nu"
      ],
      [
        "ki",
        "sa"
      ],
      [
        "wo",
        "na"
      ],
      [
        "me",
        "lo"
      ],
      [
        "Or",
        "lando"
      ],
      [
        "a",
        "ka"
      ],
      [
        "c",
        "we"
      ],
      [
        "n",
        "ko"
      ],
      [
        "ku",
        "su"
      ],
      [
        "th",
        "emba"
      ],
      [
        "ba",
        "la"
      ],
      [
        "lu",
        "ngi"
      ],
      [
        "ngen",
        "dlela"
      ],
      [
        "20",
        "1"
      ],
      [
        "D",
        "i"
      ],
      [
        "I",
        "S"
      ],
      [
        "i",
        "mali"
      ],
      [
        "o",
        "m"
      ],
      [
        "ng",
        "wa"
      ],
      [
        "la",
        "khe"
      ],
      [
        "em",
        "uva"
      ],
      [
        "bu",
        "ka"
      ],
      [
        "shi",
        "ya"
      ],
      [
        "nya",
        "ma"
      ],
      [
        "e",
        "thi"
      ],
      [
        "i",
        "qembu"
      ],
      [
        "o",
        "na"
      ],
      [
        "u",
        "sa"
      ],
      [
        "ku",
        "fanele"
      ],
      [
        "kh",
        "um"
      ],
      [
        "be",
        "si"
      ],
      [
        "ci",
        "ko"
      ],
      [
        "gci",
        "ne"
      ],
      [
        "L",
        "i"
      ],
      [
        "ku",
        "yo"
      ],
      [
        "li",
        "ngi"
      ],
      [
        "nd",
        "ele"
      ],
      [
        "be",
        "se"
      ],
      [
        "lu",
        "la"
      ],
      [
        "um",
        "e"
      ],
      [
        "um",
        "ele"
      ],
      [
        "kho",
        "mbisa"
      ],
      [
        "isi",
        "khathi"
      ],
      [
        "es",
        "t"
      ],
      [
        "IF",
        "P"
      ],
      [
        "A",
        "r"
      ],
      [
        "L",
        "a"
      ],
      [
        "a",
        "m"
      ],
      [
        "a",
        "yi"
      ],
      [
        "o",
        "se"
      ],
      [
        "v",
        "ela"
      ],
      [
        "nt",
        "wana"
      ],
      [
        "no",
        "bu"
      ],
      [
        "pha",
        "nsi"
      ],
      [
        "ki",
        "nga"
      ],
      [
        "fi",
        "ke"
      ],
      [
        "ve",
        "za"
      ],
      [
        "ku",
        "phela"
      ],
      [
        "ku",
        "landela"
      ],
      [
        "wa",
        "rd"
      ],
      [
        "lo",
        "nke"
      ],
      [
        "za",
        "ma"
      ],
      [
        "ha",
        "mbe"
      ],
      [
        "ama",
        "qembu"
      ],
      [
        "bh",
        "u"
      ],
      [
        "uN",
        "ksz"
      ],
      [
        "hlanga",
        "no"
      ],
      [
        "L",
        "A"
      ],
      [
        "a",
        "zo"
      ],
      [
        "e",
        "ngi"
      ],
      [
        "ba",
        "lo"
      ],
      [
        "ba",
        "se"
      ],
      [
        "tha",
        "nda"
      ],
      [
        "sebenzi",
        "sa"
      ],
      [
        "c",
        "hi"
      ],
      [
        "i",
        "ndawo"
      ],
      [
        "ku",
        "ma"
      ],
      [
        "la",
        "ba"
      ],
      [
        "nt",
        "sha"
      ],
      [
        "tho",
        "mbe"
      ],
      [
        "qo",
        "ka"
      ],
      [
        "mu",
        "ntu"
      ],
      [
        "de",
        "be"
      ],
      [
        "Ni",
        "ngizimu"
      ],
      [
        "G",
        "o"
      ],
      [
        "I",
        "N"
      ],
      [
        "p",
        "ela"
      ],
      [
        "p",
        "er"
      ],
      [
        "u",
        "p"
      ],
      [
        "x",
        "i"
      ],
      [
        "si",
        "zini"
      ],
      [
        "na",
        "se"
      ],
      [
        "yi",
        "ni"
      ],
      [
        "bi",
        "sa"
      ],
      [
        "hla",
        "lo"
      ],
      [
        "thu",
        "la"
      ],
      [
        "sha",
        "ya"
      ],
      [
        "mbisa",
        "na"
      ],
      [
        "F",
        "a"
      ],
      [
        "N",
        "d"
      ],
      [
        "P",
        "ro"
      ],
      [
        "a",
        "nga"
      ],
      [
        "c",
        "k"
      ],
      [
        "n",
        "yu"
      ],
      [
        "y",
        "en"
      ],
      [
        "z",
        "en"
      ],
      [
        "la",
        "se"
      ],
      [
        "sh",
        "u"
      ],
      [
        "sh",
        "we"
      ],
      [
        "aba",
        "zo"
      ],
      [
        "ezi",
        "n"
      ],
      [
        "izi",
        "nto"
      ],
      [
        "Ba",
        "fana"
      ],
      [
        "et",
        "er"
      ],
      [
        "Le",
        "a"
      ],
      [
        "mpa",
        "ni"
      ],
      [
        "nqa",
        "mu"
      ],
      [
        "yoM",
        "hlaba"
      ],
      [
        "gqi",
        "belo"
      ],
      [
        "b",
        "oku"
      ],
      [
        "g",
        "wa"
      ],
      [
        "p",
        "u"
      ],
      [
        "t",
        "s"
      ],
      [
        "u",
        "si"
      ],
      [
        "la",
        "bo"
      ],
      [
        "lo",
        "g"
      ],
      [
        "za",
        "yo"
      ],
      [
        "hla",
        "la"
      ],
      [
        "fa",
        "ka"
      ],
      [
        "bh",
        "i"
      ],
      [
        "kwen",
        "zeka"
      ],
      [
        "te",
        "d"
      ],
      [
        "phum",
        "ela"
      ],
      [
        "e",
        "ba"
      ],
      [
        "h",
        "l"
      ],
      [
        "k",
        "k"
      ],
      [
        "o",
        "bu"
      ],
      [
        "ku",
        "ndleni"
      ],
      [
        "si",
        "za"
      ],
      [
        "ma",
        "nje"
      ],
      [
        "be",
        "zi"
      ],
      [
        "oku",
        "ba"
      ],
      [
        "bo",
        "m"
      ],
      [
        "pha",
        "mbili"
      ],
      [
        "kha",
        "nka"
      ],
      [
        "tha",
        "tha"
      ],
      [
        "isi",
        "zini"
      ],
      [
        "nya",
        "k"
      ],
      [
        "qe",
        "da"
      ],
      [
        "Si",
        "ya"
      ],
      [
        "bhe",
        "kene"
      ],
      [
        "gu",
        "e"
      ],
      [
        "ngqo",
        "she"
      ],
      [
        "ngoM",
        "gqibelo"
      ],
      [
        "Uni",
        "ted"
      ],
      [
        "Champion",
        "ship"
      ],
      [
        "Lea",
        "gue"
      ],
      [
        "B",
        "A"
      ],
      [
        "N",
        "debe"
      ],
      [
        "S",
        "ha"
      ],
      [
        "W",
        "a"
      ],
      [
        "o",
        "zo"
      ],
      [
        "r",
        "y"
      ],
      [
        "u",
        "D"
      ],
      [
        "ba",
        "nga"
      ],
      [
        "ka",
        "mi"
      ],
      [
        "ka",
        "nti"
      ],
      [
        "sa",
        "ba"
      ],
      [
        "sha",
        "ye"
      ],
      [
        "enga",
        "meli"
      ],
      [
        "phez",
        "ulu"
      ],
      [
        "Q",
        "E"
      ],
      [
        "Z",
        "N"
      ],
      [
        "g",
        "oli"
      ],
      [
        "u",
        "s"
      ],
      [
        "th",
        "eni"
      ],
      [
        "li",
        "le"
      ],
      [
        "ko",
        "mi"
      ],
      [
        "ze",
        "le"
      ],
      [
        "kho",
        "si"
      ],
      [
        "mi",
        "dlalo"
      ],
      [
        "isi",
        "coco"
      ],
      [
        "Ng",
        "co"
      ],
      [
        "yoku",
        "thi"
      ],
      [
        "ngesi",
        "zini"
      ],
      [
        "imi",
        "dlalo"
      ],
      [
        "Ca",
        "r"
      ],
      [
        "ona",
        "l"
      ],
      [
        "C",
        "up"
      ],
      [
        "H",
        "I"
      ],
      [
        "K",
        "ha"
      ],
      [
        "P",
        "la"
      ],
      [
        "P",
        "eter"
      ],
      [
        "U",
        "Ma"
      ],
      [
        "e",
        "sa"
      ],
      [
        "l",
        "y"
      ],
      [
        "m",
        "bu"
      ],
      [
        "o",
        "ma"
      ],
      [
        "u",
        "nda"
      ],
      [
        "ku",
        "ya"
      ],
      [
        "ku",
        "mele"
      ],
      [
        "th",
        "weni"
      ],
      [
        "le",
        "ma"
      ],
      [
        "ba",
        "ya"
      ],
      [
        "en",
        "d"
      ],
      [
        "thi",
        "ni"
      ],
      [
        "se",
        "be"
      ],
      [
        "nd",
        "lu"
      ],
      [
        "izi",
        "moto"
      ],
      [
        "isi",
        "nqumo"
      ],
      [
        "pho",
        "yisa"
      ],
      [
        "nqo",
        "ba"
      ],
      [
        "P",
        "o"
      ],
      [
        "W",
        "or"
      ],
      [
        "a",
        "d"
      ],
      [
        "i",
        "nto"
      ],
      [
        "i",
        "Pirates"
      ],
      [
        "l",
        "d"
      ],
      [
        "w",
        "um"
      ],
      [
        "lo",
        "m"
      ],
      [
        "lo",
        "na"
      ],
      [
        "na",
        "ye"
      ],
      [
        "za",
        "mi"
      ],
      [
        "ke",
        "lo"
      ],
      [
        "zo",
        "bu"
      ],
      [
        "Ma",
        "melo"
      ],
      [
        "Ng",
        "o"
      ],
      [
        "bhe",
        "ke"
      ],
      [
        "cu",
        "li"
      ],
      [
        "bheka",
        "na"
      ],
      [
        "cwe",
        "le"
      ],
      [
        "Mamelo",
        "di"
      ],
      [
        "U",
        "ku"
      ],
      [
        "c",
        "hu"
      ],
      [
        "f",
        "or"
      ],
      [
        "p",
        "o"
      ],
      [
        "em",
        "va"
      ],
      [
        "ke",
        "lwa"
      ],
      [
        "um",
        "sebenzi"
      ],
      [
        "zo",
        "m"
      ],
      [
        "ko",
        "m"
      ],
      [
        "ki",
        "thi"
      ],
      [
        "wo",
        "nke"
      ],
      [
        "ngoku",
        "ba"
      ],
      [
        "kwen",
        "ze"
      ],
      [
        "gi",
        "lwa"
      ],
      [
        "nezi",
        "n"
      ],
      [
        "kwazi",
        "se"
      ],
      [
        "eza",
        "yo"
      ],
      [
        "Isi",
        "thombe"
      ],
      [
        "ebu",
        "suku"
      ],
      [
        "Nd",
        "lovu"
      ],
      [
        "M",
        "KP"
      ],
      [
        "c",
        "ele"
      ],
      [
        "e",
        "dlule"
      ],
      [
        "g",
        "cwele"
      ],
      [
        "n",
        "cane"
      ],
      [
        "ku",
        "nga"
      ],
      [
        "le",
        "kile"
      ],
      [
        "si",
        "zi"
      ],
      [
        "um",
        "bi"
      ],
      [
        "lwa",
        "zi"
      ],
      [
        "hla",
        "le"
      ],
      [
        "hla",
        "ngo"
      ],
      [
        "izi",
        "qu"
      ],
      [
        "ion",
        "s"
      ],
      [
        "Afri",
        "ca"
      ],
      [
        "ngem",
        "pela"
      ],
      [
        "funda",
        "zwe"
      ],
      [
        "lli",
        "on"
      ],
      [
        "H",
        "la"
      ],
      [
        "e",
        "ze"
      ],
      [
        "i",
        "ng"
      ],
      [
        "u",
        "Ramaphosa"
      ],
      [
        "x",
        "huma"
      ],
      [
        "ba",
        "zi"
      ],
      [
        "li",
        "ndele"
      ],
      [
        "na",
        "bo"
      ],
      [
        "ko",
        "nke"
      ],
      [
        "bo",
        "nga"
      ],
      [
        "yo",
        "nke"
      ],
      [
        "kwa",
        "bo"
      ],
      [
        "pha",
        "thi"
      ],
      [
        "wo",
        "m"
      ],
      [
        "ngapha",
        "mbi"
      ],
      [
        "tsh",
        "ela"
      ],
      [
        "ngem",
        "uva"
      ],
      [
        "wi",
        "na"
      ],
      [
        "B",
        "o"
      ],
      [
        "E",
        "N"
      ],
      [
        "I",
        "zi"
      ],
      [
        "T",
        "S"
      ],
      [
        "e",
        "bi"
      ],
      [
        "g",
        "qu"
      ],
      [
        "i",
        "nga"
      ],
      [
        "th",
        "em"
      ],
      [
        "le",
        "lwe"
      ],
      [
        "si",
        "ka"
      ],
      [
        "thi",
        "mba"
      ],
      [
        "se",
        "m"
      ],
      [
        "be",
        "ku"
      ],
      [
        "um",
        "dlalo"
      ],
      [
        "mu",
        "va"
      ],
      [
        "da",
        "la"
      ],
      [
        "su",
        "ngu"
      ],
      [
        "ngapha",
        "nsi"
      ],
      [
        "khi",
        "pha"
      ],
      [
        "Ka",
        "ize"
      ],
      [
        "ja",
        "bu"
      ],
      [
        "sele",
        "lo"
      ],
      [
        "wama",
        "nqamu"
      ],
      [
        "hl",
        "uku"
      ],
      [
        "komi",
        "ti"
      ],
      [
        "Pla",
        "y"
      ],
      [
        "Kaize",
        "r"
      ],
      [
        "1",
        "9"
      ],
      [
        "C",
        "C"
      ],
      [
        "D",
        "A"
      ],
      [
        "G",
        "A"
      ],
      [
        "K",
        "ho"
      ],
      [
        "a",
        "wu"
      ],
      [
        "o",
        "yi"
      ],
      [
        "u",
        "ba"
      ],
      [
        "x",
        "ha"
      ],
      [
        "en",
        "j"
      ],
      [
        "na",
        "yo"
      ],
      [
        "nga",
        "thi"
      ],
      [
        "ya",
        "nga"
      ],
      [
        "nt",
        "shi"
      ],
      [
        "kwa",
        "yo"
      ],
      [
        "mi",
        "ni"
      ],
      [
        "khu",
        "ndleni"
      ],
      [
        "noku",
        "thi"
      ],
      [
        "202",
        "6"
      ],
      [
        "Ju",
        "ni"
      ],
      [
        "Hla",
        "bisa"
      ],
      [
        "A",
        "ward"
      ],
      [
        "D",
        "ur"
      ],
      [
        "E",
        "F"
      ],
      [
        "H",
        "A"
      ],
      [
        "N",
        "e"
      ],
      [
        "a",
        "bo"
      ],
      [
        "c",
        "aba"
      ],
      [
        "k",
        "isi"
      ],
      [
        "m",
        "nyama"
      ],
      [
        "n",
        "wa"
      ],
      [
        "o",
        "s"
      ],
      [
        "t",
        "se"
      ],
      [
        "u",
        "hlelo"
      ],
      [
        "w",
        "uku"
      ],
      [
        "si",
        "le"
      ],
      [
        "si",
        "ni"
      ],
      [
        "nga",
        "be"
      ],
      [
        "ke",
        "lele"
      ],
      [
        "ngen",
        "e"
      ],
      [
        "qhube",
        "ke"
      ],
      [
        "phez",
        "u"
      ],
      [
        "mpi",
        "lo"
      ],
      [
        "Dur",
        "ban"
      ],
      [
        "F",
        "o"
      ],
      [
        "Z",
        "uma"
      ],
      [
        "c",
        "ela"
      ],
      [
        "u",
        "th"
      ],
      [
        "u",
        "kwe"
      ],
      [
        "v",
        "in"
      ],
      [
        "y",
        "wa"
      ],
      [
        "ba",
        "mba"
      ],
      [
        "nd",
        "ela"
      ],
      [
        "ph",
        "uma"
      ],
      [
        "ya",
        "ba"
      ],
      [
        "yi",
        "zi"
      ],
      [
        "aba",
        "kuleli"
      ],
      [
        "um",
        "i"
      ],
      [
        "yo",
        "m"
      ],
      [
        "yo",
        "na"
      ],
      [
        "no",
        "M"
      ],
      [
        "qe",
        "de"
      ],
      [
        "bha",
        "li"
      ],
      [
        "loku",
        "thi"
      ],
      [
        "tsh",
        "u"
      ],
      [
        "tsh",
        "wa"
      ],
      [
        "nja",
        "ni"
      ],
      [
        "bula",
        "la"
      ],
      [
        "Mo",
        "tse"
      ],
      [
        "00",
        "0"
      ],
      [
        "ig",
        "h"
      ],
      [
        "khanka",
        "so"
      ],
      [
        "EF",
        "F"
      ],
      [
        "Motse",
        "pe"
      ],
      [
        "C",
        "h"
      ],
      [
        "K",
        "U"
      ],
      [
        "O",
        "ku"
      ],
      [
        "S",
        "te"
      ],
      [
        "a",
        "n"
      ],
      [
        "e",
        "yo"
      ],
      [
        "i",
        "cala"
      ],
      [
        "j",
        "e"
      ],
      [
        "j",
        "waye"
      ],
      [
        "n",
        "eni"
      ],
      [
        "u",
        "nga"
      ],
      [
        "ku",
        "ze"
      ],
      [
        "ku",
        "wona"
      ],
      [
        "ka",
        "njani"
      ],
      [
        "uku",
        "zi"
      ],
      [
        "yi",
        "nto"
      ],
      [
        "aba",
        "dlali"
      ],
      [
        "mi",
        "shini"
      ],
      [
        "nge",
        "kho"
      ],
      [
        "khu",
        "tha"
      ],
      [
        "so",
        "ma"
      ],
      [
        "ama",
        "nzi"
      ],
      [
        "esi",
        "khathi"
      ],
      [
        "fa",
        "ke"
      ],
      [
        "Ng",
        "ema"
      ],
      [
        "khulu",
        "mela"
      ],
      [
        "mba",
        "ma"
      ],
      [
        "zwe",
        "lonke"
      ],
      [
        "ndi",
        "sa"
      ],
      [
        "su",
        "ka"
      ],
      [
        "wesi",
        "fazane"
      ],
      [
        "cimbi",
        "ni"
      ],
      [
        "wase",
        "M"
      ],
      [
        "nta",
        "mbama"
      ],
      [
        "AN",
        "C"
      ],
      [
        "kusa",
        "sa"
      ],
      [
        "kusu",
        "kela"
      ],
      [
        "okuba",
        "lwa"
      ],
      [
        ")",
        "."
      ],
      [
        "3",
        "0"
      ],
      [
        "D",
        "la"
      ],
      [
        "E",
        "P"
      ],
      [
        "G",
        "oli"
      ],
      [
        "H",
        "o"
      ],
      [
        "L",
        "E"
      ],
      [
        "O",
        "u"
      ],
      [
        "R",
        "i"
      ],
      [
        "a",
        "s"
      ],
      [
        "t",
        "on"
      ],
      [
        "u",
        "yi"
      ],
      [
        "x",
        "enye"
      ],
      [
        "ku",
        "bo"
      ],
      [
        "ku",
        "ngen"
      ],
      [
        "si",
        "se"
      ],
      [
        "na",
        "wo"
      ],
      [
        "ngo",
        "munye"
      ],
      [
        "ya",
        "le"
      ],
      [
        "za",
        "nsi"
      ],
      [
        "bu",
        "ya"
      ],
      [
        "bu",
        "ke"
      ],
      [
        "ama",
        "bili"
      ],
      [
        "ama",
        "thathu"
      ],
      [
        "ama",
        "phuzu"
      ],
      [
        "kha",
        "le"
      ],
      [
        "kha",
        "tha"
      ],
      [
        "ndi",
        "le"
      ],
      [
        "vi",
        "kela"
      ],
      [
        "hlanga",
        "ni"
      ],
      [
        "izin",
        "hlelo"
      ],
      [
        "soku",
        "thi"
      ],
      [
        "ngoM",
        "eyi"
      ],
      [
        "cwa",
        "di"
      ],
      [
        "est",
        "er"
      ],
      [
        "Ngco",
        "bo"
      ],
      [
        "umbi",
        "ko"
      ],
      [
        "A",
        "R"
      ],
      [
        "C",
        "y"
      ],
      [
        "C",
        "on"
      ],
      [
        "J",
        "o"
      ],
      [
        "L",
        "ions"
      ],
      [
        "P",
        "S"
      ],
      [
        "T",
        "h"
      ],
      [
        "e",
        "e"
      ],
      [
        "e",
        "khaya"
      ],
      [
        "i",
        "ndlela"
      ],
      [
        "t",
        "sha"
      ],
      [
        "u",
        "G"
      ],
      [
        "v",
        "er"
      ],
      [
        "en",
        "zi"
      ],
      [
        "ka",
        "mpani"
      ],
      [
        "nga",
        "le"
      ],
      [
        "aba",
        "ningi"
      ],
      [
        "um",
        "ndeni"
      ],
      [
        "bo",
        "ni"
      ],
      [
        "kwa",
        "khe"
      ],
      [
        "lwa",
        "no"
      ],
      [
        "so",
        "lo"
      ],
      [
        "ama",
        "zwe"
      ],
      [
        "at",
        "ion"
      ],
      [
        "ri",
        "c"
      ],
      [
        "hlo",
        "ko"
      ],
      [
        "nde",
        "be"
      ],
      [
        "su",
        "ke"
      ],
      [
        "eku",
        "beni"
      ],
      [
        "koku",
        "qala"
      ],
      [
        "202",
        "4"
      ],
      [
        "fana",
        "yo"
      ],
      [
        "ban",
        "k"
      ],
      [
        "Peter",
        "sen"
      ],
      [
        "enj",
        "ini"
      ],
      [
        "1",
        "0"
      ],
      [
        "H",
        "u"
      ],
      [
        "K",
        "ZN"
      ],
      [
        "U",
        "T"
      ],
      [
        "Z",
        "a"
      ],
      [
        "i",
        "thuba"
      ],
      [
        "m",
        "hla"
      ],
      [
        "o",
        "d"
      ],
      [
        "o",
        "thi"
      ],
      [
        "o",
        "nga"
      ],
      [
        "z",
        "em"
      ],
      [
        "ba",
        "ba"
      ],
      [
        "si",
        "nga"
      ],
      [
        "se",
        "lwa"
      ],
      [
        "be",
        "le"
      ],
      [
        "em",
        "cimbini"
      ],
      [
        "mi",
        "na"
      ],
      [
        "ngi",
        "sho"
      ],
      [
        "kha",
        "ndlu"
      ],
      [
        "esi",
        "khundleni"
      ],
      [
        "er",
        "s"
      ],
      [
        "nya",
        "nga"
      ],
      [
        "kwi",
        "Ndebe"
      ],
      [
        "fi",
        "nye"
      ],
      [
        "phe",
        "the"
      ],
      [
        "gi",
        "ji"
      ],
      [
        "eku",
        "theni"
      ],
      [
        "ngama",
        "phuzu"
      ],
      [
        "So",
        "nto"
      ],
      [
        "UN",
        "ksz"
      ],
      [
        "phen",
        "yo"
      ],
      [
        "phen",
        "du"
      ],
      [
        "bho",
        "la"
      ],
      [
        "lingi",
        "si"
      ],
      [
        "1",
        "1"
      ],
      [
        "K",
        "A"
      ],
      [
        "K",
        "o"
      ],
      [
        "R",
        "a"
      ],
      [
        "a",
        "ye"
      ],
      [
        "d",
        "eni"
      ],
      [
        "e",
        "ka"
      ],
      [
        "i",
        "N"
      ],
      [
        "i",
        "bi"
      ],
      [
        "k",
        "t"
      ],
      [
        "o",
        "kwa"
      ],
      [
        "q",
        "enjini"
      ],
      [
        "t",
        "ela"
      ],
      [
        "u",
        "S"
      ],
      [
        "le",
        "n"
      ],
      [
        "si",
        "ya"
      ],
      [
        "kh",
        "ele"
      ],
      [
        "ka",
        "le"
      ],
      [
        "ni",
        "ke"
      ],
      [
        "be",
        "nga"
      ],
      [
        "za",
        "se"
      ],
      [
        "bu",
        "so"
      ],
      [
        "ze",
        "lwa"
      ],
      [
        "nge",
        "Sonto"
      ],
      [
        "pha",
        "kami"
      ],
      [
        "dla",
        "le"
      ],
      [
        "tha",
        "the"
      ],
      [
        "kwe",
        "mi"
      ],
      [
        "phi",
        "ni"
      ],
      [
        "wu",
        "la"
      ],
      [
        "20",
        "0"
      ],
      [
        "bha",
        "mu"
      ],
      [
        "ngapha",
        "kathi"
      ],
      [
        "du",
        "ze"
      ],
      [
        "Ngi",
        "ya"
      ],
      [
        "Ga",
        "la"
      ],
      [
        "IS",
        "I"
      ],
      [
        "xhuma",
        "na"
      ],
      [
        "1",
        "5"
      ],
      [
        "H",
        "O"
      ],
      [
        "R",
        "o"
      ],
      [
        "U",
        "S"
      ],
      [
        "d",
        "le"
      ],
      [
        "p",
        "oli"
      ],
      [
        "t",
        "at"
      ],
      [
        "v",
        "isi"
      ],
      [
        "v",
        "esi"
      ],
      [
        "x",
        "y"
      ],
      [
        "zi",
        "zo"
      ],
      [
        "we",
        "ze"
      ],
      [
        "se",
        "ligi"
      ],
      [
        "nd",
        "isi"
      ],
      [
        "be",
        "la"
      ],
      [
        "ne",
        "s"
      ],
      [
        "bu",
        "zo"
      ],
      [
        "so",
        "n"
      ],
      [
        "nje",
        "nge"
      ],
      [
        "ki",
        "se"
      ],
      [
        "er",
        "i"
      ],
      [
        "da",
        "yisa"
      ],
      [
        "di",
        "nga"
      ],
      [
        "ngoku",
        "ngem"
      ],
      [
        "lwe",
        "la"
      ],
      [
        "ho",
        "la"
      ],
      [
        "co",
        "ngweni"
      ],
      [
        "ti",
        "ki"
      ],
      [
        "do",
        "u"
      ],
      [
        "do",
        "so"
      ],
      [
        "cu",
        "lweni"
      ],
      [
        "So",
        "uth"
      ],
      [
        "Ca",
        "f"
      ],
      [
        "kwama",
        "nye"
      ],
      [
        "nyak",
        "enye"
      ],
      [
        "Car",
        "doso"
      ],
      [
        "for",
        "d"
      ],
      [
        "poli",
        "tiki"
      ],
      [
        "ngokungem",
        "thetho"
      ],
      [
        "B",
        "O"
      ],
      [
        "I",
        "nt"
      ],
      [
        "M",
        "nyango"
      ],
      [
        "N",
        "je"
      ],
      [
        "O",
        "khulumela"
      ],
      [
        "g",
        "qo"
      ],
      [
        "i",
        "ya"
      ],
      [
        "i",
        "Sundowns"
      ],
      [
        "k",
        "lo"
      ],
      [
        "ku",
        "m"
      ],
      [
        "ng",
        "xenye"
      ],
      [
        "la",
        "hle"
      ],
      [
        "zi",
        "le"
      ],
      [
        "zi",
        "si"
      ],
      [
        "en",
        "ce"
      ],
      [
        "li",
        "nga"
      ],
      [
        "thi",
        "nta"
      ],
      [
        "we",
        "Betway"
      ],
      [
        "se",
        "ka"
      ],
      [
        "se",
        "lwe"
      ],
      [
        "ni",
        "na"
      ],
      [
        "em",
        "u"
      ],
      [
        "em",
        "culweni"
      ],
      [
        "aba",
        "landeli"
      ],
      [
        "ko",
        "le"
      ],
      [
        "mi",
        "llion"
      ],
      [
        "ngi",
        "nga"
      ],
      [
        "lwa",
        "ne"
      ],
      [
        "kwe",
        "thu"
      ],
      [
        "shi",
        "ntsha"
      ],
      [
        "imi",
        "nyaka"
      ],
      [
        "vi",
        "lle"
      ],
      [
        "zoku",
        "xhumana"
      ],
      [
        "kulu",
        "mo"
      ],
      [
        "uN",
        "kk"
      ],
      [
        "bula",
        "wa"
      ],
      [
        "owa",
        "ye"
      ],
      [
        "qinise",
        "kisa"
      ],
      [
        "ed",
        "bank"
      ],
      [
        "shiya",
        "ga"
      ],
      [
        "khum",
        "bula"
      ],
      [
        "giji",
        "ma"
      ],
      [
        "Gala",
        "xy"
      ],
      [
        ".",
        "”"
      ],
      [
        "I",
        "n"
      ],
      [
        "O",
        "f"
      ],
      [
        "T",
        "ha"
      ],
      [
        "U",
        "veze"
      ],
      [
        "a",
        "zi"
      ],
      [
        "d",
        "y"
      ],
      [
        "d",
        "um"
      ],
      [
        "m",
        "s"
      ],
      [
        "n",
        "yi"
      ],
      [
        "ba",
        "be"
      ],
      [
        "wa",
        "bo"
      ],
      [
        "zi",
        "we"
      ],
      [
        "si",
        "ba"
      ],
      [
        "ka",
        "ma"
      ],
      [
        "we",
        "qembu"
      ],
      [
        "lu",
        "tho"
      ],
      [
        "oku",
        "nye"
      ],
      [
        "ye",
        "la"
      ],
      [
        "zo",
        "nke"
      ],
      [
        "bo",
        "ne"
      ],
      [
        "the",
        "le"
      ],
      [
        "ngi",
        "ya"
      ],
      [
        "ama",
        "ciko"
      ],
      [
        "ndo",
        "n"
      ],
      [
        "Ng",
        "esikhathi"
      ],
      [
        "ho",
        "visi"
      ],
      [
        "emi",
        "nyaka"
      ],
      [
        "uM",
        "nyango"
      ],
      [
        "phi",
        "sa"
      ],
      [
        "ga",
        "beni"
      ],
      [
        "qhu",
        "de"
      ],
      [
        "do",
        "da"
      ],
      [
        "dlu",
        "nkulu"
      ],
      [
        "khi",
        "qi"
      ],
      [
        "izo",
        "lo"
      ],
      [
        "ngqo",
        "ngqoshe"
      ],
      [
        "ent",
        "sha"
      ],
      [
        "nko",
        "si"
      ],
      [
        "mbu",
        "lu"
      ],
      [
        "ad",
        "dou"
      ],
      [
        "ngempela",
        "sonto"
      ],
      [
        "Ou",
        "addou"
      ],
      [
        "M",
        "e"
      ],
      [
        "M",
        "or"
      ],
      [
        "P",
        "a"
      ],
      [
        "P",
        "ar"
      ],
      [
        "a",
        "li"
      ],
      [
        "a",
        "ke"
      ],
      [
        "d",
        "li"
      ],
      [
        "g",
        "esi"
      ],
      [
        "i",
        "ligi"
      ],
      [
        "n",
        "y"
      ],
      [
        "r",
        "ug"
      ],
      [
        "z",
        "u"
      ],
      [
        "z",
        "emi"
      ],
      [
        "ku",
        "bona"
      ],
      [
        "la",
        "yi"
      ],
      [
        "ba",
        "funa"
      ],
      [
        "en",
        "kantolo"
      ],
      [
        "si",
        "hlalo"
      ],
      [
        "ka",
        "li"
      ],
      [
        "ka",
        "Ma"
      ],
      [
        "lo",
        "mo"
      ],
      [
        "we",
        "zi"
      ],
      [
        "uku",
        "yi"
      ],
      [
        "nga",
        "wo"
      ],
      [
        "ni",
        "si"
      ],
      [
        "em",
        "hla"
      ],
      [
        "za",
        "khe"
      ],
      [
        "um",
        "lando"
      ],
      [
        "no",
        "zi"
      ],
      [
        "khu",
        "la"
      ],
      [
        "nj",
        "i"
      ],
      [
        "nj",
        "wa"
      ],
      [
        "fu",
        "ni"
      ],
      [
        "ezi",
        "nye"
      ],
      [
        "ezi",
        "nta"
      ],
      [
        "er",
        "na"
      ],
      [
        "fa",
        "ni"
      ],
      [
        "hle",
        "la"
      ],
      [
        "co",
        "no"
      ],
      [
        "emi",
        "dlalweni"
      ],
      [
        "wesi",
        "lisa"
      ],
      [
        "do",
        "ko"
      ],
      [
        "woku",
        "gcina"
      ],
      [
        "phakathi",
        "ni"
      ],
      [
        "thola",
        "kala"
      ],
      [
        "Ngi",
        "zwe"
      ],
      [
        "qeqe",
        "sha"
      ],
      [
        "wi",
        "ne"
      ],
      [
        "phum",
        "e"
      ],
      [
        "No",
        "kho"
      ],
      [
        "mpa",
        "hla"
      ],
      [
        "lindele",
        "ke"
      ],
      [
        "qhude",
        "lwano"
      ],
      [
        "emhla",
        "beni"
      ],
      [
        "A",
        "ngi"
      ],
      [
        "D",
        "o"
      ],
      [
        "D",
        "LA"
      ],
      [
        "V",
        "AR"
      ],
      [
        "a",
        "nd"
      ],
      [
        "e",
        "ye"
      ],
      [
        "e",
        "yoku"
      ],
      [
        "i",
        "m"
      ],
      [
        "i",
        "be"
      ],
      [
        "k",
        "m"
      ],
      [
        "k",
        "eni"
      ],
      [
        "n",
        "ci"
      ],
      [
        "p",
        "or"
      ],
      [
        "r",
        "s"
      ],
      [
        "u",
        "zi"
      ],
      [
        "u",
        "veze"
      ],
      [
        "ku",
        "yi"
      ],
      [
        "la",
        "nga"
      ],
      [
        "la",
        "pha"
      ],
      [
        "ba",
        "kuleli"
      ],
      [
        "ka",
        "ba"
      ],
      [
        "ka",
        "ngaka"
      ],
      [
        "na",
        "ni"
      ],
      [
        "se",
        "ngathi"
      ],
      [
        "nga",
        "lo"
      ],
      [
        "be",
        "ke"
      ],
      [
        "be",
        "ki"
      ],
      [
        "lu",
        "le"
      ],
      [
        "ngo",
        "nyaka"
      ],
      [
        "sa",
        "ma"
      ],
      [
        "sa",
        "nda"
      ],
      [
        "oku",
        "sho"
      ],
      [
        "ye",
        "Ma"
      ],
      [
        "za",
        "li"
      ],
      [
        "ko",
        "leni"
      ],
      [
        "ze",
        "ke"
      ],
      [
        "the",
        "thweni"
      ],
      [
        "ama",
        "nye"
      ],
      [
        "kw",
        "eni"
      ],
      [
        "ezi",
        "mbili"
      ],
      [
        "thu",
        "thu"
      ],
      [
        "qo",
        "nda"
      ],
      [
        "nya",
        "the"
      ],
      [
        "mu",
        "hla"
      ],
      [
        "de",
        "s"
      ],
      [
        "ti",
        "onal"
      ],
      [
        "kule",
        "si"
      ],
      [
        "fi",
        "sa"
      ],
      [
        "to",
        "li"
      ],
      [
        "tsh",
        "ele"
      ],
      [
        "woku",
        "qala"
      ],
      [
        "hlanga",
        "na"
      ],
      [
        "rd",
        "s"
      ],
      [
        "eya",
        "yi"
      ],
      [
        "go",
        "mo"
      ],
      [
        "Zi",
        "mnyama"
      ],
      [
        "hloni",
        "shwa"
      ],
      [
        "unda",
        "tion"
      ],
      [
        "phathi",
        "swa"
      ],
      [
        "Fo",
        "undation"
      ],
      [
        "sise",
        "kelo"
      ],
      [
        "Of",
        "fs"
      ],
      [
        "nozi",
        "nti"
      ],
      [
        "1",
        "2"
      ],
      [
        "1",
        "4"
      ],
      [
        "E",
        "a"
      ],
      [
        "M",
        "zansi"
      ],
      [
        "S",
        "E"
      ],
      [
        "S",
        "HI"
      ],
      [
        "T",
        "hu"
      ],
      [
        "W",
        "E"
      ],
      [
        "a",
        "yisi"
      ],
      [
        "d",
        "ela"
      ],
      [
        "e",
        "tha"
      ],
      [
        "e",
        "Pi"
      ],
      [
        "g",
        "we"
      ],
      [
        "g",
        "co"
      ],
      [
        "h",
        "hovisi"
      ],
      [
        "i",
        "se"
      ],
      [
        "l",
        "l"
      ],
      [
        "m",
        "beni"
      ],
      [
        "n",
        "sela"
      ],
      [
        "o",
        "da"
      ],
      [
        "o",
        "kokuqala"
      ],
      [
        "q",
        "wa"
      ],
      [
        "u",
        "K"
      ],
      [
        "u",
        "Si"
      ],
      [
        "v",
        "ume"
      ],
      [
        "w",
        "n"
      ],
      [
        "z",
        "ulu"
      ],
      [
        "la",
        "ma"
      ],
      [
        "ba",
        "m"
      ],
      [
        "ba",
        "li"
      ],
      [
        "kh",
        "ela"
      ],
      [
        "ka",
        "bi"
      ],
      [
        "lo",
        "li"
      ],
      [
        "be",
        "be"
      ],
      [
        "ya",
        "mi"
      ],
      [
        "em",
        "phakathini"
      ],
      [
        "za",
        "bo"
      ],
      [
        "ko",
        "si"
      ],
      [
        "bi",
        "t"
      ],
      [
        "khu",
        "ndla"
      ],
      [
        "so",
        "la"
      ],
      [
        "pha",
        "zami"
      ],
      [
        "tha",
        "ndo"
      ],
      [
        "tho",
        "mbo"
      ],
      [
        "esi",
        "gabeni"
      ],
      [
        "ki",
        "bha"
      ],
      [
        "ndo",
        "ndo"
      ],
      [
        "ngen",
        "yanga"
      ],
      [
        "ri",
        "l"
      ],
      [
        "phe",
        "pha"
      ],
      [
        "ga",
        "da"
      ],
      [
        "qhu",
        "ba"
      ],
      [
        "nezi",
        "nye"
      ],
      [
        "gu",
        "ngu"
      ],
      [
        "khi",
        "shwe"
      ],
      [
        "woku",
        "thi"
      ],
      [
        "kuba",
        "lwa"
      ],
      [
        "thetho",
        "sisekelo"
      ],
      [
        "naba",
        "nye"
      ],
      [
        "ji",
        "kelele"
      ],
      [
        "yu",
        "vesi"
      ],
      [
        "vo",
        "ta"
      ],
      [
        "tu",
        "li"
      ],
      [
        "ngoLwesi",
        "hlanu"
      ],
      [
        "lingi",
        "sa"
      ],
      [
        "yale",
        "zo"
      ],
      [
        "Cy",
        "ril"
      ],
      [
        "yeMa",
        "ntshi"
      ],
      [
        "A",
        "l"
      ],
      [
        "E",
        "ph"
      ],
      [
        "F",
        "i"
      ],
      [
        "I",
        "X"
      ],
      [
        "M",
        "ini"
      ],
      [
        "W",
        "A"
      ],
      [
        "a",
        "ngi"
      ],
      [
        "c",
        "tion"
      ],
      [
        "e",
        "pha"
      ],
      [
        "e",
        "Ma"
      ],
      [
        "f",
        "ed"
      ],
      [
        "i",
        "onal"
      ],
      [
        "j",
        "u"
      ],
      [
        "l",
        "ford"
      ],
      [
        "n",
        "zo"
      ],
      [
        "r",
        "eli"
      ],
      [
        "t",
        "she"
      ],
      [
        "u",
        "l"
      ],
      [
        "ku",
        "thi"
      ],
      [
        "ku",
        "kho"
      ],
      [
        "ku",
        "hle"
      ],
      [
        "ku",
        "ndla"
      ],
      [
        "ku",
        "thiwa"
      ],
      [
        "ng",
        "cwa"
      ],
      [
        "ng",
        "cono"
      ],
      [
        "ba",
        "khe"
      ],
      [
        "wa",
        "yo"
      ],
      [
        "ma",
        "n"
      ],
      [
        "kh",
        "wana"
      ],
      [
        "we",
        "to"
      ],
      [
        "uku",
        "sebenza"
      ],
      [
        "ngo",
        "Juni"
      ],
      [
        "sa",
        "khe"
      ],
      [
        "oku",
        "thiwa"
      ],
      [
        "ye",
        "zi"
      ],
      [
        "yi",
        "seni"
      ],
      [
        "za",
        "ba"
      ],
      [
        "aba",
        "ngu"
      ],
      [
        "aba",
        "fundi"
      ],
      [
        "um",
        "culo"
      ],
      [
        "lwa",
        "ma"
      ],
      [
        "nge",
        "le"
      ],
      [
        "nge",
        "ka"
      ],
      [
        "so",
        "na"
      ],
      [
        "ama",
        "lungu"
      ],
      [
        "ezi",
        "nda"
      ],
      [
        "izi",
        "nisi"
      ],
      [
        "esi",
        "congweni"
      ],
      [
        "nje",
        "ngo"
      ],
      [
        "fa",
        "kazi"
      ],
      [
        "qo",
        "ngqoshe"
      ],
      [
        "nya",
        "ngweni"
      ],
      [
        "Ng",
        "qongqoshe"
      ],
      [
        "ho",
        "use"
      ],
      [
        "uM",
        "ntwana"
      ],
      [
        "phi",
        "ko"
      ],
      [
        "bhe",
        "dlela"
      ],
      [
        "Ku",
        "thiwa"
      ],
      [
        "UM",
        "QE"
      ],
      [
        "Su",
        "per"
      ],
      [
        "So",
        "weto"
      ],
      [
        "Ca",
        "pe"
      ],
      [
        "Co",
        "me"
      ],
      [
        "Or",
        "bit"
      ],
      [
        "vo",
        "ti"
      ],
      [
        "nemi",
        "nyaka"
      ],
      [
        "hloni",
        "pha"
      ],
      [
        "besi",
        "fazane"
      ],
      [
        "ezin",
        "kundleni"
      ],
      [
        "boku",
        "fika"
      ],
      [
        "bezi",
        "ndaba"
      ],
      [
        "uD",
        "kt"
      ],
      [
        "QE",
        "SHI"
      ],
      [
        "oma",
        "zisi"
      ],
      [
        "Wor",
        "ld"
      ],
      [
        "hlango",
        "thini"
      ],
      [
        "Ne",
        "w"
      ],
      [
        "kungen",
        "zeka"
      ],
      [
        "Con",
        "fed"
      ],
      [
        "PS",
        "L"
      ],
      [
        "Int",
        "erna"
      ],
      [
        "Eph",
        "reli"
      ],
      [
        "khwana",
        "zi"
      ],
      [
        "UMQE",
        "QESHI"
      ],
      [
        "Interna",
        "tional"
      ],
      [
        ")",
        ";"
      ],
      [
        "A",
        "G"
      ],
      [
        "C",
        "ele"
      ],
      [
        "C",
        "KP"
      ],
      [
        "I",
        "M"
      ],
      [
        "K",
        "rug"
      ],
      [
        "L",
        "u"
      ],
      [
        "P",
        "h"
      ],
      [
        "R",
        "e"
      ],
      [
        "S",
        "por"
      ],
      [
        "Y",
        "i"
      ],
      [
        "Y",
        "o"
      ],
      [
        "i",
        "kakhulu"
      ],
      [
        "i",
        "Chiefs"
      ],
      [
        "m",
        "eme"
      ],
      [
        "o",
        "dlule"
      ],
      [
        "r",
        "ks"
      ],
      [
        "s",
        "s"
      ],
      [
        "t",
        "so"
      ],
      [
        "u",
        "kwazi"
      ],
      [
        "v",
        "uma"
      ],
      [
        "z",
        "uzu"
      ],
      [
        "ng",
        "emi"
      ],
      [
        "la",
        "ni"
      ],
      [
        "th",
        "ro"
      ],
      [
        "le",
        "zwe"
      ],
      [
        "ba",
        "thi"
      ],
      [
        "ba",
        "ni"
      ],
      [
        "wa",
        "zi"
      ],
      [
        "ka",
        "zwelonke"
      ],
      [
        "uku",
        "nga"
      ],
      [
        "uku",
        "lu"
      ],
      [
        "uku",
        "bona"
      ],
      [
        "be",
        "li"
      ],
      [
        "ya",
        "bo"
      ],
      [
        "yi",
        "se"
      ],
      [
        "aba",
        "sa"
      ],
      [
        "aba",
        "yi"
      ],
      [
        "aba",
        "nye"
      ],
      [
        "aba",
        "solwa"
      ],
      [
        "um",
        "cimbi"
      ],
      [
        "ko",
        "wamanqamu"
      ],
      [
        "mi",
        "nyaka"
      ],
      [
        "khu",
        "le"
      ],
      [
        "so",
        "nga"
      ],
      [
        "so",
        "mbulu"
      ],
      [
        "ama",
        "ndla"
      ],
      [
        "pha",
        "mbi"
      ],
      [
        "ezi",
        "ngu"
      ],
      [
        "esi",
        "de"
      ],
      [
        "shi",
        "we"
      ],
      [
        "thu",
        "beni"
      ],
      [
        "qo",
        "kwa"
      ],
      [
        "qo",
        "pha"
      ],
      [
        "mu",
        "zi"
      ],
      [
        "hle",
        "le"
      ],
      [
        "emi",
        "thathu"
      ],
      [
        "ri",
        "s"
      ],
      [
        "in",
        "selelo"
      ],
      [
        "uthe",
        "lezi"
      ],
      [
        "bhe",
        "kwe"
      ],
      [
        "yoku",
        "qala"
      ],
      [
        "bha",
        "nde"
      ],
      [
        "hlu",
        "leka"
      ],
      [
        "eku",
        "seni"
      ],
      [
        "do",
        "lo"
      ],
      [
        "vi",
        "vin"
      ],
      [
        "Nat",
        "ional"
      ],
      [
        "kulu",
        "nkulu"
      ],
      [
        "koku",
        "ba"
      ],
      [
        "koku",
        "thi"
      ],
      [
        "men",
        "t"
      ],
      [
        "ns",
        "uku"
      ],
      [
        "re",
        "e"
      ],
      [
        "st",
        "er"
      ],
      [
        "eN",
        "kantolo"
      ],
      [
        "phum",
        "ele"
      ],
      [
        "phele",
        "ni"
      ],
      [
        "yesi",
        "bili"
      ],
      [
        "ig",
        "ama"
      ],
      [
        "Mi",
        "lford"
      ],
      [
        "ngoLwesi",
        "thathu"
      ],
      [
        "cha",
        "za"
      ],
      [
        "huma",
        "lo"
      ],
      [
        "lungi",
        "swa"
      ],
      [
        "kuyo",
        "na"
      ],
      [
        "bom",
        "vu"
      ],
      [
        "BA",
        "CKP"
      ],
      [
        "them",
        "bi"
      ],
      [
        "tshu",
        "deni"
      ],
      [
        "igh",
        "t"
      ],
      [
        "eyo",
        "dwa"
      ],
      [
        "EP",
        "IX"
      ],
      [
        "doko",
        "tela"
      ],
      [
        "AG",
        "EPIX"
      ],
      [
        "Krug",
        "er"
      ],
      [
        "BACKP",
        "AGEPIX"
      ],
      [
        "B",
        "i"
      ],
      [
        "E",
        "m"
      ],
      [
        "I",
        "Pirates"
      ],
      [
        "L",
        "eli"
      ],
      [
        "P",
        "ri"
      ],
      [
        "P",
        "hi"
      ],
      [
        "T",
        "ho"
      ],
      [
        "V",
        "i"
      ],
      [
        "Z",
        "I"
      ],
      [
        "d",
        "lwe"
      ],
      [
        "e",
        "yisi"
      ],
      [
        "e",
        "Phalamende"
      ],
      [
        "f",
        "e"
      ],
      [
        "g",
        "x"
      ],
      [
        "g",
        "ama"
      ],
      [
        "g",
        "qa"
      ],
      [
        "i",
        "ba"
      ],
      [
        "i",
        "za"
      ],
      [
        "i",
        "Phalamende"
      ],
      [
        "i",
        "mpilo"
      ],
      [
        "i",
        "ndebe"
      ],
      [
        "j",
        "o"
      ],
      [
        "q",
        "h"
      ],
      [
        "s",
        "si"
      ],
      [
        "u",
        "kwenza"
      ],
      [
        "y",
        "we"
      ],
      [
        "ku",
        "hulumeni"
      ],
      [
        "ba",
        "yi"
      ],
      [
        "ba",
        "bo"
      ],
      [
        "en",
        "za"
      ],
      [
        "lo",
        "kwa"
      ],
      [
        "na",
        "lo"
      ],
      [
        "na",
        "muhla"
      ],
      [
        "ya",
        "yo"
      ],
      [
        "em",
        "pe"
      ],
      [
        "ye",
        "thu"
      ],
      [
        "ye",
        "dwa"
      ],
      [
        "yi",
        "ze"
      ],
      [
        "bu",
        "le"
      ],
      [
        "um",
        "ela"
      ],
      [
        "zo",
        "be"
      ],
      [
        "yo",
        "ni"
      ],
      [
        "kho",
        "mishini"
      ],
      [
        "ha",
        "mbisana"
      ],
      [
        "lwa",
        "ngo"
      ],
      [
        "nge",
        "zin"
      ],
      [
        "ezi",
        "ningi"
      ],
      [
        "bh",
        "izinisi"
      ],
      [
        "ndo",
        "da"
      ],
      [
        "pho",
        "yiseni"
      ],
      [
        "ho",
        "lwa"
      ],
      [
        "hlo",
        "so"
      ],
      [
        "bha",
        "kela"
      ],
      [
        "hlu",
        "ka"
      ],
      [
        "ro",
        "os"
      ],
      [
        "dlu",
        "li"
      ],
      [
        "ubu",
        "holi"
      ],
      [
        "Ka",
        "pa"
      ],
      [
        "ce",
        "lo"
      ],
      [
        "qini",
        "sa"
      ],
      [
        "AN",
        "GA"
      ],
      [
        "kwaba",
        "ntu"
      ],
      [
        "hlaka",
        "lo"
      ],
      [
        "kusu",
        "ka"
      ],
      [
        "nobu",
        "so"
      ],
      [
        "nyak",
        "eni"
      ],
      [
        "Sha",
        "rks"
      ],
      [
        "chu",
        "nu"
      ],
      [
        "cele",
        "ni"
      ],
      [
        "hlango",
        "thi"
      ],
      [
        "mhla",
        "nje"
      ],
      [
        "ezinta",
        "thu"
      ],
      [
        "ezinda",
        "weni"
      ],
      [
        "sombulu",
        "ko"
      ],
      [
        "dlwe",
        "ngu"
      ],
      [
        "2",
        "2"
      ],
      [
        "2",
        "3"
      ],
      [
        "2",
        "7"
      ],
      [
        "A",
        "b"
      ],
      [
        "A",
        "si"
      ],
      [
        "B",
        "la"
      ],
      [
        "G",
        "u"
      ],
      [
        "K",
        "i"
      ],
      [
        "N",
        "G"
      ],
      [
        "N",
        "tuli"
      ],
      [
        "U",
        "LI"
      ],
      [
        "Z",
        "o"
      ],
      [
        "c",
        "on"
      ],
      [
        "e",
        "hlukene"
      ],
      [
        "e",
        "khuluma"
      ],
      [
        "e",
        "ar"
      ],
      [
        "e",
        "qenjini"
      ],
      [
        "i",
        "r"
      ],
      [
        "i",
        "lu"
      ],
      [
        "i",
        "Ningizimu"
      ],
      [
        "k",
        "eme"
      ],
      [
        "o",
        "mu"
      ],
      [
        "o",
        "ngum"
      ],
      [
        "p",
        "p"
      ],
      [
        "s",
        "ki"
      ],
      [
        "u",
        "su"
      ],
      [
        "u",
        "Ka"
      ],
      [
        "u",
        "khetho"
      ],
      [
        "v",
        "eni"
      ],
      [
        "y",
        "eni"
      ],
      [
        "ku",
        "la"
      ],
      [
        "ku",
        "wo"
      ],
      [
        "ba",
        "yo"
      ],
      [
        "wa",
        "r"
      ],
      [
        "zi",
        "ka"
      ],
      [
        "ma",
        "nga"
      ],
      [
        "kh",
        "eni"
      ],
      [
        "li",
        "nye"
      ],
      [
        "li",
        "nde"
      ],
      [
        "na",
        "zo"
      ],
      [
        "na",
        "ndisa"
      ],
      [
        "se",
        "tsh"
      ],
      [
        "uku",
        "thola"
      ],
      [
        "nga",
        "meli"
      ],
      [
        "be",
        "ka"
      ],
      [
        "ngo",
        "kwe"
      ],
      [
        "oku",
        "yi"
      ],
      [
        "em",
        "p"
      ],
      [
        "em",
        "ent"
      ],
      [
        "aba",
        "nga"
      ],
      [
        "aba",
        "bili"
      ],
      [
        "ke",
        "bhe"
      ],
      [
        "um",
        "khankaso"
      ],
      [
        "zo",
        "ba"
      ],
      [
        "ko",
        "M"
      ],
      [
        "ko",
        "mdlalo"
      ],
      [
        "ze",
        "lwe"
      ],
      [
        "bi",
        "zwa"
      ],
      [
        "bo",
        "nge"
      ],
      [
        "bo",
        "nke"
      ],
      [
        "bo",
        "shwa"
      ],
      [
        "yo",
        "ta"
      ],
      [
        "kwa",
        "ku"
      ],
      [
        "kwa",
        "lokho"
      ],
      [
        "no",
        "gada"
      ],
      [
        "ama",
        "cala"
      ],
      [
        "pha",
        "tha"
      ],
      [
        "kha",
        "kha"
      ],
      [
        "tha",
        "ka"
      ],
      [
        "isi",
        "gameko"
      ],
      [
        "nje",
        "ngom"
      ],
      [
        "nya",
        "thi"
      ],
      [
        "mu",
        "kela"
      ],
      [
        "Ng",
        "e"
      ],
      [
        "Ng",
        "okusho"
      ],
      [
        "hle",
        "li"
      ],
      [
        "di",
        "a"
      ],
      [
        "on",
        "ke"
      ],
      [
        "de",
        "o"
      ],
      [
        "uma",
        "lo"
      ],
      [
        "Si",
        "zo"
      ],
      [
        "ri",
        "es"
      ],
      [
        "me",
        "ya"
      ],
      [
        "me",
        "ngameli"
      ],
      [
        "in",
        "q"
      ],
      [
        "hlo",
        "ngo"
      ],
      [
        "mp",
        "etha"
      ],
      [
        "mp",
        "empe"
      ],
      [
        "phe",
        "thro"
      ],
      [
        "Ku",
        "le"
      ],
      [
        "to",
        "r"
      ],
      [
        "noku",
        "yi"
      ],
      [
        "vu",
        "la"
      ],
      [
        "zwa",
        "kala"
      ],
      [
        "cu",
        "la"
      ],
      [
        "zoku",
        "thi"
      ],
      [
        "ema",
        "phoyiseni"
      ],
      [
        "men",
        "ye"
      ],
      [
        "sen",
        "kantolo"
      ],
      [
        "202",
        "5"
      ],
      [
        "qini",
        "so"
      ],
      [
        "wen",
        "za"
      ],
      [
        "st",
        "ries"
      ],
      [
        "funda",
        "zweni"
      ],
      [
        "ebe",
        "zi"
      ],
      [
        "yesi",
        "thathu"
      ],
      [
        "nkulu",
        "mo"
      ],
      [
        "ziwa",
        "yo"
      ],
      [
        "Na",
        "kuba"
      ],
      [
        "nka",
        "mpani"
      ],
      [
        "lle",
        "n"
      ],
      [
        "qha",
        "we"
      ],
      [
        "fundi",
        "sa"
      ],
      [
        "To",
        "yota"
      ],
      [
        "umele",
        "lo"
      ],
      [
        "Ar",
        "ena"
      ],
      [
        "hambe",
        "la"
      ],
      [
        "pu",
        "la"
      ],
      [
        "Po",
        "lokwa"
      ],
      [
        "po",
        "ti"
      ],
      [
        "eze",
        "hlukene"
      ],
      [
        "gqu",
        "gqu"
      ],
      [
        "Award",
        "s"
      ],
      [
        "caba",
        "nga"
      ],
      [
        "buke",
        "ka"
      ],
      [
        "tat",
        "i"
      ],
      [
        "klo",
        "melo"
      ],
      [
        "Bla",
        "ck"
      ],
      [
        "phethro",
        "li"
      ],
      [
        "Polokwa",
        "ne"
      ],
      [
        "1",
        "00"
      ],
      [
        "2",
        "5"
      ],
      [
        "D",
        "a"
      ],
      [
        "D",
        "e"
      ],
      [
        "E",
        "si"
      ],
      [
        "E",
        "muva"
      ],
      [
        "E",
        "LE"
      ],
      [
        "K",
        "humalo"
      ],
      [
        "M",
        "chunu"
      ],
      [
        "N",
        "dlunkulu"
      ],
      [
        "S",
        "t"
      ],
      [
        "T",
        "O"
      ],
      [
        "a",
        "le"
      ],
      [
        "a",
        "the"
      ],
      [
        "e",
        "K"
      ],
      [
        "i",
        "Si"
      ],
      [
        "l",
        "la"
      ],
      [
        "l",
        "ly"
      ],
      [
        "m",
        "qoka"
      ],
      [
        "n",
        "za"
      ],
      [
        "n",
        "ce"
      ],
      [
        "u",
        "R"
      ],
      [
        "u",
        "X"
      ],
      [
        "u",
        "te"
      ],
      [
        "u",
        "suku"
      ],
      [
        "v",
        "emba"
      ],
      [
        "x",
        "oli"
      ],
      [
        "ng",
        "xo"
      ],
      [
        "la",
        "m"
      ],
      [
        "ba",
        "mbe"
      ],
      [
        "wa",
        "lo"
      ],
      [
        "wa",
        "ri"
      ],
      [
        "en",
        "er"
      ],
      [
        "en",
        "kundleni"
      ],
      [
        "si",
        "funa"
      ],
      [
        "ma",
        "sipala"
      ],
      [
        "ka",
        "ze"
      ],
      [
        "li",
        "ni"
      ],
      [
        "li",
        "swa"
      ],
      [
        "thi",
        "le"
      ],
      [
        "we",
        "zoku"
      ],
      [
        "na",
        "mhlanje"
      ],
      [
        "se",
        "ngi"
      ],
      [
        "nd",
        "weni"
      ],
      [
        "nd",
        "lovu"
      ],
      [
        "ph",
        "eli"
      ],
      [
        "uku",
        "m"
      ],
      [
        "uku",
        "la"
      ],
      [
        "nga",
        "wu"
      ],
      [
        "ngo",
        "bu"
      ],
      [
        "ngo",
        "suku"
      ],
      [
        "za",
        "kwabo"
      ],
      [
        "aba",
        "zi"
      ],
      [
        "aba",
        "zali"
      ],
      [
        "ke",
        "pha"
      ],
      [
        "ko",
        "ena"
      ],
      [
        "bi",
        "le"
      ],
      [
        "bi",
        "ka"
      ],
      [
        "kwa",
        "ti"
      ],
      [
        "no",
        "N"
      ],
      [
        "no",
        "mpempe"
      ],
      [
        "so",
        "m"
      ],
      [
        "dla",
        "lela"
      ],
      [
        "kwe",
        "mali"
      ],
      [
        "izi",
        "ngane"
      ],
      [
        "shi",
        "sa"
      ],
      [
        "ci",
        "she"
      ],
      [
        "er",
        "y"
      ],
      [
        "er",
        "ation"
      ],
      [
        "qo",
        "kwe"
      ],
      [
        "qo",
        "qo"
      ],
      [
        "qa",
        "leni"
      ],
      [
        "sha",
        "na"
      ],
      [
        "da",
        "kami"
      ],
      [
        "ho",
        "lele"
      ],
      [
        "mba",
        "lwa"
      ],
      [
        "emi",
        "bili"
      ],
      [
        "me",
        "hlo"
      ],
      [
        "phi",
        "la"
      ],
      [
        "fi",
        "so"
      ],
      [
        "hlo",
        "la"
      ],
      [
        "uz",
        "wa"
      ],
      [
        "phe",
        "she"
      ],
      [
        "hlu",
        "kile"
      ],
      [
        "UM",
        "ntwana"
      ],
      [
        "sebenzi",
        "se"
      ],
      [
        "mbe",
        "la"
      ],
      [
        "Ba",
        "y"
      ],
      [
        "nama",
        "nye"
      ],
      [
        "kuba",
        "ntu"
      ],
      [
        "202",
        "3"
      ],
      [
        "No",
        "vemba"
      ],
      [
        "Ju",
        "li"
      ],
      [
        "thwe",
        "swa"
      ],
      [
        "Sa",
        "fa"
      ],
      [
        "buye",
        "la"
      ],
      [
        "belo",
        "mali"
      ],
      [
        "Champion",
        "s"
      ],
      [
        "pi",
        "lo"
      ],
      [
        "abazo",
        "be"
      ],
      [
        "bhi",
        "ki"
      ],
      [
        "Ch",
        "ery"
      ],
      [
        "enzi",
        "swa"
      ],
      [
        "len",
        "ze"
      ],
      [
        "Nje",
        "ngoba"
      ],
      [
        "ePi",
        "toli"
      ],
      [
        "gungu",
        "ndlovu"
      ],
      [
        "Mini",
        "stries"
      ],
      [
        "Come",
        "dy"
      ],
      [
        "1",
        "3"
      ],
      [
        "1",
        "6"
      ],
      [
        "A",
        "C"
      ],
      [
        "A",
        "u"
      ],
      [
        "B",
        "e"
      ],
      [
        "B",
        "u"
      ],
      [
        "B",
        "eku"
      ],
      [
        "E",
        "x"
      ],
      [
        "F",
        "M"
      ],
      [
        "H",
        "E"
      ],
      [
        "M",
        "fundo"
      ],
      [
        "M",
        "usi"
      ],
      [
        "N",
        "edbank"
      ],
      [
        "O",
        "munye"
      ],
      [
        "P",
        "ho"
      ],
      [
        "T",
        "as"
      ],
      [
        "U",
        "B"
      ],
      [
        "Y",
        "ize"
      ],
      [
        "Z",
        "we"
      ],
      [
        "c",
        "s"
      ],
      [
        "c",
        "es"
      ],
      [
        "d",
        "we"
      ],
      [
        "d",
        "umo"
      ],
      [
        "e",
        "zweni"
      ],
      [
        "g",
        "q"
      ],
      [
        "g",
        "xi"
      ],
      [
        "i",
        "ence"
      ],
      [
        "j",
        "ezi"
      ],
      [
        "m",
        "sebenzi"
      ],
      [
        "n",
        "hla"
      ],
      [
        "o",
        "c"
      ],
      [
        "o",
        "khe"
      ],
      [
        "o",
        "ngqongqoshe"
      ],
      [
        "r",
        "g"
      ],
      [
        "s",
        "ta"
      ],
      [
        "u",
        "lwazi"
      ],
      [
        "u",
        "Petersen"
      ],
      [
        "u",
        "phenyo"
      ],
      [
        "z",
        "ukulu"
      ],
      [
        "ku",
        "M"
      ],
      [
        "ku",
        "Ma"
      ],
      [
        "ku",
        "lindeleke"
      ],
      [
        "le",
        "ke"
      ],
      [
        "en",
        "kulu"
      ],
      [
        "si",
        "ty"
      ],
      [
        "ma",
        "qembu"
      ],
      [
        "ka",
        "nzima"
      ],
      [
        "li",
        "ma"
      ],
      [
        "lo",
        "mbili"
      ],
      [
        "we",
        "lele"
      ],
      [
        "we",
        "thimba"
      ],
      [
        "na",
        "so"
      ],
      [
        "uku",
        "sho"
      ],
      [
        "be",
        "thu"
      ],
      [
        "sa",
        "ka"
      ],
      [
        "sa",
        "yo"
      ],
      [
        "em",
        "pi"
      ],
      [
        "yi",
        "ngxenye"
      ],
      [
        "za",
        "nge"
      ],
      [
        "aba",
        "funa"
      ],
      [
        "aba",
        "ngena"
      ],
      [
        "nt",
        "weni"
      ],
      [
        "ze",
        "zi"
      ],
      [
        "kho",
        "nji"
      ],
      [
        "kwa",
        "mi"
      ],
      [
        "mi",
        "sa"
      ],
      [
        "hla",
        "ya"
      ],
      [
        "kha",
        "kheni"
      ],
      [
        "ezi",
        "nga"
      ],
      [
        "esi",
        "bhedlela"
      ],
      [
        "ki",
        "swa"
      ],
      [
        "ki",
        "swe"
      ],
      [
        "thu",
        "pha"
      ],
      [
        "sha",
        "yisi"
      ],
      [
        "hle",
        "lweni"
      ],
      [
        "ngen",
        "za"
      ],
      [
        "di",
        "ngeka"
      ],
      [
        "khulu",
        "me"
      ],
      [
        "qe",
        "ke"
      ],
      [
        "mba",
        "zo"
      ],
      [
        "uM",
        "o"
      ],
      [
        "va",
        "n"
      ],
      [
        "Ku",
        "lo"
      ],
      [
        "gi",
        "so"
      ],
      [
        "bha",
        "la"
      ],
      [
        "gci",
        "neni"
      ],
      [
        "te",
        "l"
      ],
      [
        "loku",
        "qala"
      ],
      [
        "gu",
        "la"
      ],
      [
        "tsh",
        "we"
      ],
      [
        "hlanga",
        "n"
      ],
      [
        "ja",
        "bula"
      ],
      [
        "kwenza",
        "yo"
      ],
      [
        "umu",
        "fi"
      ],
      [
        "naba",
        "ntu"
      ],
      [
        "wen",
        "ya"
      ],
      [
        "ngoM",
        "sombuluko"
      ],
      [
        "emba",
        "ngweni"
      ],
      [
        "phen",
        "ya"
      ],
      [
        "kuzo",
        "na"
      ],
      [
        "qinise",
        "kisi"
      ],
      [
        "Aba",
        "ntu"
      ],
      [
        "Ju",
        "layi"
      ],
      [
        "qha",
        "za"
      ],
      [
        "Ga",
        "ute"
      ],
      [
        "ngoLwesi",
        "bili"
      ],
      [
        "Uni",
        "ver"
      ],
      [
        "sezi",
        "ngeni"
      ],
      [
        "nx",
        "usa"
      ],
      [
        "xi",
        "co"
      ],
      [
        "saba",
        "lala"
      ],
      [
        "UMa",
        "lema"
      ],
      [
        "Ste",
        "llen"
      ],
      [
        "jwaye",
        "le"
      ],
      [
        "jwaye",
        "lekile"
      ],
      [
        "Ko",
        "dwa"
      ],
      [
        "shiyaga",
        "lombili"
      ],
      [
        "khiqi",
        "za"
      ],
      [
        "ake",
        "kho"
      ],
      [
        "kangaka",
        "nani"
      ],
      [
        "nyathe",
        "lo"
      ],
      [
        "Confed",
        "eration"
      ],
      [
        "setsh",
        "enziswa"
      ],
      [
        "dakami",
        "zwa"
      ],
      [
        "Juli",
        "us"
      ],
      [
        "Tas",
        "man"
      ],
      [
        "Gaute",
        "ng"
      ],
      [
        "Univer",
        "sity"
      ],
      [
        "Stellen",
        "bo"
      ],
      [
        "1",
        "7"
      ],
      [
        "1",
        "8"
      ],
      [
        "2",
        "4"
      ],
      [
        "2",
        "6"
      ],
      [
        "2",
        "8"
      ],
      [
        "H",
        "a"
      ],
      [
        "H",
        "lo"
      ],
      [
        "I",
        "nde"
      ],
      [
        "S",
        "kebhe"
      ],
      [
        "T",
        "H"
      ],
      [
        "U",
        "R"
      ],
      [
        "d",
        "on"
      ],
      [
        "e",
        "Goli"
      ],
      [
        "e",
        "Soweto"
      ],
      [
        "h",
        "ha"
      ],
      [
        "h",
        "lwe"
      ],
      [
        "i",
        "M"
      ],
      [
        "i",
        "yi"
      ],
      [
        "i",
        "gu"
      ],
      [
        "i",
        "ngizimu"
      ],
      [
        "i",
        "MKP"
      ],
      [
        "i",
        "bhande"
      ],
      [
        "o",
        "l"
      ],
      [
        "o",
        "munye"
      ],
      [
        "o",
        "bala"
      ],
      [
        "p",
        "end"
      ],
      [
        "q",
        "ulu"
      ],
      [
        "s",
        "ch"
      ],
      [
        "t",
        "lala"
      ],
      [
        "u",
        "la"
      ],
      [
        "u",
        "thi"
      ],
      [
        "x",
        "wa"
      ],
      [
        "x",
        "umalo"
      ],
      [
        "y",
        "emi"
      ],
      [
        "z",
        "z"
      ],
      [
        "z",
        "wi"
      ],
      [
        "ku",
        "ye"
      ],
      [
        "ku",
        "yena"
      ],
      [
        "ku",
        "phele"
      ],
      [
        "le",
        "lo"
      ],
      [
        "wa",
        "ne"
      ],
      [
        "wa",
        "mi"
      ],
      [
        "si",
        "we"
      ],
      [
        "si",
        "fazane"
      ],
      [
        "si",
        "gameko"
      ],
      [
        "ka",
        "Zulu"
      ],
      [
        "li",
        "we"
      ],
      [
        "lo",
        "hulumeni"
      ],
      [
        "thi",
        "nt"
      ],
      [
        "na",
        "ndi"
      ],
      [
        "na",
        "bezindaba"
      ],
      [
        "nga",
        "bomvu"
      ],
      [
        "be",
        "zo"
      ],
      [
        "sa",
        "zi"
      ],
      [
        "sa",
        "zo"
      ],
      [
        "oku",
        "ngu"
      ],
      [
        "oku",
        "fanele"
      ],
      [
        "um",
        "phakathi"
      ],
      [
        "um",
        "solwa"
      ],
      [
        "um",
        "thombo"
      ],
      [
        "nt",
        "sho"
      ],
      [
        "ze",
        "kile"
      ],
      [
        "bo",
        "phe"
      ],
      [
        "the",
        "nga"
      ],
      [
        "kho",
        "lwa"
      ],
      [
        "kho",
        "khela"
      ],
      [
        "kwa",
        "thi"
      ],
      [
        "mi",
        "sele"
      ],
      [
        "ngi",
        "sa"
      ],
      [
        "khu",
        "khu"
      ],
      [
        "so",
        "nke"
      ],
      [
        "ela",
        "li"
      ],
      [
        "kwe",
        "le"
      ],
      [
        "tho",
        "li"
      ],
      [
        "ezi",
        "hlukene"
      ],
      [
        "isi",
        "mo"
      ],
      [
        "nje",
        "ngama"
      ],
      [
        "shi",
        "ye"
      ],
      [
        "wo",
        "od"
      ],
      [
        "Ma",
        "lema"
      ],
      [
        "Ma",
        "mbazo"
      ],
      [
        "qo",
        "phe"
      ],
      [
        "qa",
        "sha"
      ],
      [
        "mu",
        "fi"
      ],
      [
        "ngen",
        "kathi"
      ],
      [
        "ngoku",
        "linga"
      ],
      [
        "va",
        "la"
      ],
      [
        "es",
        "u"
      ],
      [
        "phi",
        "we"
      ],
      [
        "seben",
        "ze"
      ],
      [
        "Ku",
        "zo"
      ],
      [
        "Ku",
        "ningi"
      ],
      [
        "vu",
        "le"
      ],
      [
        "te",
        "shi"
      ],
      [
        "land",
        "weni"
      ],
      [
        "she",
        "lwe"
      ],
      [
        "bona",
        "kale"
      ],
      [
        "dlu",
        "la"
      ],
      [
        "vi",
        "deo"
      ],
      [
        "khi",
        "phe"
      ],
      [
        "khi",
        "shwa"
      ],
      [
        "kuba",
        "landeli"
      ],
      [
        "ese",
        "le"
      ],
      [
        "ndawo",
        "nye"
      ],
      [
        "abe",
        "sifazane"
      ],
      [
        "lesi",
        "zwe"
      ],
      [
        "ngaba",
        "ntu"
      ],
      [
        "eN",
        "ingizimu"
      ],
      [
        "phele",
        "le"
      ],
      [
        "ebe",
        "le"
      ],
      [
        "ebe",
        "si"
      ],
      [
        "bheka",
        "ne"
      ],
      [
        "buye",
        "le"
      ],
      [
        "UK",
        "ZN"
      ],
      [
        "cha",
        "ze"
      ],
      [
        "nx",
        "use"
      ],
      [
        "Di",
        "ski"
      ],
      [
        "ngwa",
        "ne"
      ],
      [
        "base",
        "khaya"
      ],
      [
        "chi",
        "tha"
      ],
      [
        "per",
        "ience"
      ],
      [
        "kithi",
        "na"
      ],
      [
        "sungu",
        "lwa"
      ],
      [
        "hluku",
        "nye"
      ],
      [
        "Kho",
        "mishini"
      ],
      [
        "soma",
        "hlaya"
      ],
      [
        "KA",
        "ZI"
      ],
      [
        "HO",
        "LI"
      ],
      [
        "dum",
        "bu"
      ],
      [
        "Par",
        "k"
      ],
      [
        "ikakhulu",
        "kazi"
      ],
      [
        "Ki",
        "a"
      ],
      [
        "ngxo",
        "xo"
      ],
      [
        "Ex",
        "perience"
      ],
      [
        "okhe",
        "thweni"
      ],
      [
        "empi",
        "lweni"
      ],
      [
        "shayisi",
        "bhakela"
      ],
      [
        "hlangan",
        "weni"
      ],
      [
        "qinisekisi",
        "le"
      ],
      [
        "Stellenbo",
        "sch"
      ],
      [
        "Inde",
        "pend"
      ],
      [
        "Independ",
        "ent"
      ],
      [
        "A",
        "T"
      ],
      [
        "A",
        "ms"
      ],
      [
        "B",
        "ra"
      ],
      [
        "E",
        "mi"
      ],
      [
        "I",
        "so"
      ],
      [
        "J",
        "e"
      ],
      [
        "M",
        "hlongo"
      ],
      [
        "N",
        "kosi"
      ],
      [
        "S",
        "U"
      ],
      [
        "S",
        "ho"
      ],
      [
        "S",
        "poti"
      ],
      [
        "a",
        "wa"
      ],
      [
        "a",
        "hlukene"
      ],
      [
        "c",
        "re"
      ],
      [
        "e",
        "qo"
      ],
      [
        "e",
        "wu"
      ],
      [
        "e",
        "Lo"
      ],
      [
        "e",
        "Kapa"
      ],
      [
        "f",
        "y"
      ],
      [
        "f",
        "emu"
      ],
      [
        "g",
        "qeke"
      ],
      [
        "h",
        "ele"
      ],
      [
        "i",
        "the"
      ],
      [
        "i",
        "va"
      ],
      [
        "i",
        "bhola"
      ],
      [
        "m",
        "thetho"
      ],
      [
        "m",
        "lomo"
      ],
      [
        "o",
        "k"
      ],
      [
        "o",
        "ngu"
      ],
      [
        "o",
        "seku"
      ],
      [
        "o",
        "kwenzeka"
      ],
      [
        "r",
        "u"
      ],
      [
        "s",
        "weni"
      ],
      [
        "t",
        "la"
      ],
      [
        "u",
        "daba"
      ],
      [
        "u",
        "khale"
      ],
      [
        "u",
        "Ngizwe"
      ],
      [
        "ng",
        "ry"
      ],
      [
        "ba",
        "ze"
      ],
      [
        "ba",
        "ndla"
      ],
      [
        "wa",
        "KwaZulu"
      ],
      [
        "en",
        "de"
      ],
      [
        "en",
        "eminyaka"
      ],
      [
        "si",
        "fundazwe"
      ],
      [
        "ma",
        "ma"
      ],
      [
        "ma",
        "qede"
      ],
      [
        "ka",
        "ncane"
      ],
      [
        "lo",
        "khetho"
      ],
      [
        "na",
        "thi"
      ],
      [
        "na",
        "ngo"
      ],
      [
        "se",
        "kho"
      ],
      [
        "se",
        "kwa"
      ],
      [
        "uku",
        "bu"
      ],
      [
        "uku",
        "pha"
      ],
      [
        "uku",
        "ngena"
      ],
      [
        "nga",
        "yi"
      ],
      [
        "nga",
        "seku"
      ],
      [
        "nga",
        "lolu"
      ],
      [
        "ni",
        "kwa"
      ],
      [
        "be",
        "ts"
      ],
      [
        "ngo",
        "mpetha"
      ],
      [
        "ya",
        "yi"
      ],
      [
        "ya",
        "KwaZulu"
      ],
      [
        "sa",
        "la"
      ],
      [
        "oku",
        "nga"
      ],
      [
        "em",
        "ndeni"
      ],
      [
        "em",
        "landweni"
      ],
      [
        "ye",
        "Premiership"
      ],
      [
        "yi",
        "so"
      ],
      [
        "za",
        "lwa"
      ],
      [
        "aba",
        "se"
      ],
      [
        "aba",
        "gi"
      ],
      [
        "um",
        "thetho"
      ],
      [
        "um",
        "qeqeshi"
      ],
      [
        "um",
        "gilwa"
      ],
      [
        "ko",
        "nzo"
      ],
      [
        "bi",
        "za"
      ],
      [
        "kho",
        "mba"
      ],
      [
        "kwa",
        "lo"
      ],
      [
        "no",
        "nyaka"
      ],
      [
        "khu",
        "ngweni"
      ],
      [
        "so",
        "hlangothini"
      ],
      [
        "ama",
        "ningi"
      ],
      [
        "hla",
        "thu"
      ],
      [
        "kwe",
        "midlalo"
      ],
      [
        "tho",
        "lwe"
      ],
      [
        "isi",
        "hlobo"
      ],
      [
        "isi",
        "celo"
      ],
      [
        "esi",
        "ku"
      ],
      [
        "esi",
        "fundazweni"
      ],
      [
        "shi",
        "wo"
      ],
      [
        "thu",
        "nzi"
      ],
      [
        "Ma",
        "na"
      ],
      [
        "ci",
        "al"
      ],
      [
        "qo",
        "ndisi"
      ],
      [
        "qa",
        "shwa"
      ],
      [
        "mu",
        "ka"
      ],
      [
        "kwi",
        "Chiefs"
      ],
      [
        "kwi",
        "Caf"
      ],
      [
        "co",
        "b"
      ],
      [
        "me",
        "za"
      ],
      [
        "es",
        "ti"
      ],
      [
        "in",
        "kulumo"
      ],
      [
        "noku",
        "ba"
      ],
      [
        "noku",
        "yinto"
      ],
      [
        "hi",
        "nga"
      ],
      [
        "vu",
        "za"
      ],
      [
        "vu",
        "lele"
      ],
      [
        "gci",
        "ni"
      ],
      [
        "UM",
        "HOLI"
      ],
      [
        "she",
        "she"
      ],
      [
        "bona",
        "kala"
      ],
      [
        "yisi",
        "khombisa"
      ],
      [
        "qi",
        "na"
      ],
      [
        "So",
        "mlomo"
      ],
      [
        "aku",
        "kho"
      ],
      [
        "Co",
        "m"
      ],
      [
        "Co",
        "lle"
      ],
      [
        "waba",
        "dlali"
      ],
      [
        "waba",
        "khaya"
      ],
      [
        "kuzo",
        "ba"
      ],
      [
        "yase",
        "M"
      ],
      [
        "qinise",
        "ko"
      ],
      [
        "kwezi",
        "nye"
      ],
      [
        "phu",
        "la"
      ],
      [
        "Ja",
        "cob"
      ],
      [
        "ngani",
        "selwa"
      ],
      [
        "sebenzisa",
        "na"
      ],
      [
        "Go",
        "ld"
      ],
      [
        "Wor",
        "ship"
      ],
      [
        "chu",
        "nge"
      ],
      [
        "ngokuba",
        "mbisana"
      ],
      [
        "nezin",
        "hlelo"
      ],
      [
        "sem",
        "thethweni"
      ],
      [
        "yaba",
        "ntu"
      ],
      [
        "Dla",
        "dla"
      ],
      [
        "Ho",
        "lly"
      ],
      [
        "hlangani",
        "sa"
      ],
      [
        "Th",
        "eku"
      ],
      [
        "Hu",
        "ngry"
      ],
      [
        "finye",
        "lela"
      ],
      [
        "phendu",
        "la"
      ],
      [
        "phakami",
        "so"
      ],
      [
        "gqo",
        "ke"
      ],
      [
        "DLA",
        "LI"
      ],
      [
        "Ph",
        "ini"
      ],
      [
        "dolo",
        "bha"
      ],
      [
        "vivin",
        "yo"
      ],
      [
        "bhiki",
        "sho"
      ],
      [
        "wood",
        "bets"
      ],
      [
        "ebele",
        "bele"
      ],
      [
        "Ams",
        "tel"
      ],
      [
        "SU",
        "V"
      ],
      [
        "Spoti",
        "fy"
      ],
      [
        "hele",
        "mbe"
      ],
      [
        "emndeni",
        "ni"
      ],
      [
        "hlathu",
        "ze"
      ],
      [
        "Holly",
        "woodbets"
      ],
      [
        "2",
        "1"
      ],
      [
        "5",
        "0"
      ],
      [
        "A",
        "B"
      ],
      [
        "A",
        "S"
      ],
      [
        "A",
        "ku"
      ],
      [
        "A",
        "th"
      ],
      [
        "B",
        "uthelezi"
      ],
      [
        "D",
        "J"
      ],
      [
        "D",
        "u"
      ],
      [
        "H",
        "ilu"
      ],
      [
        "I",
        "mi"
      ],
      [
        "I",
        "zin"
      ],
      [
        "I",
        "nkosi"
      ],
      [
        "L",
        "O"
      ],
      [
        "M",
        "the"
      ],
      [
        "N",
        "kantolo"
      ],
      [
        "N",
        "kk"
      ],
      [
        "T",
        "a"
      ],
      [
        "U",
        "qhube"
      ],
      [
        "W",
        "ester"
      ],
      [
        "Z",
        "E"
      ],
      [
        "b",
        "we"
      ],
      [
        "c",
        "t"
      ],
      [
        "c",
        "er"
      ],
      [
        "c",
        "ho"
      ],
      [
        "e",
        "o"
      ],
      [
        "e",
        "co"
      ],
      [
        "e",
        "Polokwane"
      ],
      [
        "g",
        "ement"
      ],
      [
        "g",
        "wenya"
      ],
      [
        "i",
        "Ma"
      ],
      [
        "i",
        "gebe"
      ],
      [
        "i",
        "ndoda"
      ],
      [
        "j",
        "ele"
      ],
      [
        "k",
        "W"
      ],
      [
        "m",
        "khulu"
      ],
      [
        "o",
        "wesifazane"
      ],
      [
        "q",
        "weni"
      ],
      [
        "r",
        "le"
      ],
      [
        "s",
        "ka"
      ],
      [
        "u",
        "ke"
      ],
      [
        "u",
        "nyaka"
      ],
      [
        "u",
        "thole"
      ],
      [
        "u",
        "sizo"
      ],
      [
        "u",
        "hulumeni"
      ],
      [
        "v",
        "umela"
      ],
      [
        "ku",
        "ne"
      ],
      [
        "ku",
        "vu"
      ],
      [
        "ku",
        "lokhu"
      ],
      [
        "ng",
        "we"
      ],
      [
        "ba",
        "ne"
      ],
      [
        "wa",
        "m"
      ],
      [
        "zi",
        "nga"
      ],
      [
        "ma",
        "ne"
      ],
      [
        "ka",
        "M"
      ],
      [
        "ka",
        "nga"
      ],
      [
        "li",
        "zo"
      ],
      [
        "li",
        "sile"
      ],
      [
        "we",
        "zwe"
      ],
      [
        "we",
        "Mamelodi"
      ],
      [
        "na",
        "le"
      ],
      [
        "na",
        "kuba"
      ],
      [
        "se",
        "f"
      ],
      [
        "nd",
        "u"
      ],
      [
        "nd",
        "wa"
      ],
      [
        "uku",
        "yo"
      ],
      [
        "nga",
        "lesi"
      ],
      [
        "ni",
        "ni"
      ],
      [
        "be",
        "r"
      ],
      [
        "be",
        "ngi"
      ],
      [
        "lu",
        "lekile"
      ],
      [
        "ngo",
        "zi"
      ],
      [
        "sa",
        "se"
      ],
      [
        "sa",
        "kwa"
      ],
      [
        "em",
        "bi"
      ],
      [
        "ye",
        "zin"
      ],
      [
        "yi",
        "ngakho"
      ],
      [
        "za",
        "mo"
      ],
      [
        "bu",
        "zwa"
      ],
      [
        "bu",
        "rg"
      ],
      [
        "aba",
        "dala"
      ],
      [
        "ke",
        "the"
      ],
      [
        "ko",
        "mo"
      ],
      [
        "bi",
        "kwa"
      ],
      [
        "bi",
        "llion"
      ],
      [
        "ha",
        "mbo"
      ],
      [
        "ngi",
        "ku"
      ],
      [
        "ngi",
        "ni"
      ],
      [
        "no",
        "Si"
      ],
      [
        "khu",
        "ngo"
      ],
      [
        "khu",
        "lisa"
      ],
      [
        "pha",
        "wu"
      ],
      [
        "pha",
        "ndle"
      ],
      [
        "kha",
        "nda"
      ],
      [
        "dla",
        "vuza"
      ],
      [
        "kwe",
        "soku"
      ],
      [
        "ezi",
        "nobuso"
      ],
      [
        "izi",
        "ndawo"
      ],
      [
        "isi",
        "thunzi"
      ],
      [
        "esi",
        "nga"
      ],
      [
        "esi",
        "zo"
      ],
      [
        "esi",
        "khulu"
      ],
      [
        "esi",
        "phezulu"
      ],
      [
        "nye",
        "lwe"
      ],
      [
        "fa",
        "kwa"
      ],
      [
        "qo",
        "qa"
      ],
      [
        "mbi",
        "ko"
      ],
      [
        "da",
        "bu"
      ],
      [
        "da",
        "weni"
      ],
      [
        "hle",
        "hli"
      ],
      [
        "pho",
        "q"
      ],
      [
        "eli",
        "zo"
      ],
      [
        "di",
        "ngo"
      ],
      [
        "at",
        "e"
      ],
      [
        "kwi",
        "Premiership"
      ],
      [
        "ben",
        "e"
      ],
      [
        "emi",
        "ningi"
      ],
      [
        "Si",
        "funa"
      ],
      [
        "Si",
        "welele"
      ],
      [
        "va",
        "ka"
      ],
      [
        "mp",
        "o"
      ],
      [
        "mp",
        "umelelo"
      ],
      [
        "phe",
        "thwe"
      ],
      [
        "kwen",
        "ziwa"
      ],
      [
        "ndi",
        "ma"
      ],
      [
        "nde",
        "lwa"
      ],
      [
        "gci",
        "ze"
      ],
      [
        "hlu",
        "lwa"
      ],
      [
        "hlu",
        "ngu"
      ],
      [
        "land",
        "ele"
      ],
      [
        "loku",
        "zi"
      ],
      [
        "Ba",
        "r"
      ],
      [
        "zoku",
        "ba"
      ],
      [
        "ubu",
        "gebengu"
      ],
      [
        "sen",
        "daweni"
      ],
      [
        "202",
        "1"
      ],
      [
        "Mo",
        "kaba"
      ],
      [
        "Mo",
        "koena"
      ],
      [
        "cwa",
        "ni"
      ],
      [
        "No",
        "ma"
      ],
      [
        "yesi",
        "gameko"
      ],
      [
        "kwesi",
        "zini"
      ],
      [
        "qinise",
        "kise"
      ],
      [
        "bazo",
        "qhubeka"
      ],
      [
        "Nga",
        "phandle"
      ],
      [
        "IF",
        "SA"
      ],
      [
        "lli",
        "es"
      ],
      [
        "thwe",
        "swe"
      ],
      [
        "nen",
        "kinga"
      ],
      [
        "ngoLwesi",
        "ne"
      ],
      [
        "hli",
        "n"
      ],
      [
        "Pro",
        "te"
      ],
      [
        "yen",
        "ze"
      ],
      [
        "us",
        "sef"
      ],
      [
        "Ngco",
        "ngo"
      ],
      [
        "kwenze",
        "ke"
      ],
      [
        "sungu",
        "li"
      ],
      [
        "jabu",
        "lela"
      ],
      [
        "CC",
        "IFSA"
      ],
      [
        "Ste",
        "llies"
      ],
      [
        "Ri",
        "cha"
      ],
      [
        "zem",
        "fundo"
      ],
      [
        "finye",
        "lele"
      ],
      [
        "kwethu",
        "lwa"
      ],
      [
        "doda",
        "na"
      ],
      [
        "beki",
        "sela"
      ],
      [
        "des",
        "lam"
      ],
      [
        "oda",
        "buka"
      ],
      [
        "phazami",
        "sa"
      ],
      [
        "Al",
        "g"
      ],
      [
        "epha",
        "keme"
      ],
      [
        "Spor",
        "ts"
      ],
      [
        "Yo",
        "ussef"
      ],
      [
        "Ab",
        "deslam"
      ],
      [
        "pula",
        "zini"
      ],
      [
        "ale",
        "di"
      ],
      [
        "oc",
        "co"
      ],
      [
        "khonji",
        "swa"
      ],
      [
        "ngokulinga",
        "na"
      ],
      [
        "hlukunye",
        "zwa"
      ],
      [
        "Iso",
        "lezwe"
      ],
      [
        "Colle",
        "ge"
      ],
      [
        "Hilu",
        "x"
      ],
      [
        "Mthe",
        "thwa"
      ],
      [
        "Wester",
        "n"
      ],
      [
        "ska",
        "ndi"
      ],
      [
        "A",
        "M"
      ],
      [
        "B",
        "roos"
      ],
      [
        "C",
        "ULI"
      ],
      [
        "E",
        "ng"
      ],
      [
        "E",
        "BO"
      ],
      [
        "F",
        "e"
      ],
      [
        "F",
        "or"
      ],
      [
        "K",
        "we"
      ],
      [
        "L",
        "esi"
      ],
      [
        "M",
        "T"
      ],
      [
        "N",
        "daba"
      ],
      [
        "N",
        "xumalo"
      ],
      [
        "O",
        "K"
      ],
      [
        "O",
        "li"
      ],
      [
        "S",
        "er"
      ],
      [
        "S",
        "eku"
      ],
      [
        "T",
        "e"
      ],
      [
        "U",
        "kusho"
      ],
      [
        "U",
        "SA"
      ],
      [
        "U",
        "Ngema"
      ],
      [
        "Y",
        "A"
      ],
      [
        "Z",
        "ion"
      ],
      [
        "a",
        "th"
      ],
      [
        "a",
        "yo"
      ],
      [
        "a",
        "ben"
      ],
      [
        "b",
        "y"
      ],
      [
        "e",
        "a"
      ],
      [
        "e",
        "ng"
      ],
      [
        "e",
        "Mo"
      ],
      [
        "h",
        "lwa"
      ],
      [
        "i",
        "th"
      ],
      [
        "i",
        "ne"
      ],
      [
        "i",
        "so"
      ],
      [
        "i",
        "moto"
      ],
      [
        "i",
        "mpahla"
      ],
      [
        "j",
        "oyi"
      ],
      [
        "l",
        "wini"
      ],
      [
        "m",
        "qhudelwano"
      ],
      [
        "n",
        "ny"
      ],
      [
        "o",
        "we"
      ],
      [
        "o",
        "pa"
      ],
      [
        "o",
        "kwenza"
      ],
      [
        "o",
        "yedwa"
      ],
      [
        "p",
        "themba"
      ],
      [
        "s",
        "sa"
      ],
      [
        "s",
        "ric"
      ],
      [
        "t",
        "si"
      ],
      [
        "u",
        "kwa"
      ],
      [
        "u",
        "Sa"
      ],
      [
        "u",
        "Cardoso"
      ],
      [
        "y",
        "em"
      ],
      [
        "ku",
        "si"
      ],
      [
        "ku",
        "nama"
      ],
      [
        "ng",
        "q"
      ],
      [
        "le",
        "r"
      ],
      [
        "le",
        "thu"
      ],
      [
        "wa",
        "gcina"
      ],
      [
        "zi",
        "be"
      ],
      [
        "zi",
        "bu"
      ],
      [
        "zi",
        "mele"
      ],
      [
        "en",
        "ya"
      ],
      [
        "en",
        "cane"
      ],
      [
        "si",
        "thi"
      ],
      [
        "si",
        "mo"
      ],
      [
        "ma",
        "shi"
      ],
      [
        "kh",
        "we"
      ],
      [
        "lo",
        "ne"
      ],
      [
        "na",
        "kho"
      ],
      [
        "se",
        "s"
      ],
      [
        "se",
        "Betway"
      ],
      [
        "nd",
        "we"
      ],
      [
        "ph",
        "eni"
      ],
      [
        "uku",
        "dlala"
      ],
      [
        "uku",
        "qeda"
      ],
      [
        "uku",
        "vota"
      ],
      [
        "ni",
        "kwe"
      ],
      [
        "be",
        "sa"
      ],
      [
        "be",
        "yi"
      ],
      [
        "be",
        "khona"
      ],
      [
        "ngo",
        "Novemba"
      ],
      [
        "ya",
        "lo"
      ],
      [
        "ye",
        "Betway"
      ],
      [
        "ye",
        "Motsepe"
      ],
      [
        "yi",
        "qembu"
      ],
      [
        "yi",
        "zin"
      ],
      [
        "za",
        "zi"
      ],
      [
        "bu",
        "yi"
      ],
      [
        "bu",
        "tho"
      ],
      [
        "bu",
        "holi"
      ],
      [
        "aba",
        "be"
      ],
      [
        "aba",
        "sebenzi"
      ],
      [
        "aba",
        "holi"
      ],
      [
        "aba",
        "sohlangothini"
      ],
      [
        "ke",
        "lwe"
      ],
      [
        "um",
        "holi"
      ],
      [
        "nt",
        "e"
      ],
      [
        "ze",
        "thu"
      ],
      [
        "bi",
        "wa"
      ],
      [
        "bo",
        "mbela"
      ],
      [
        "lwa",
        "se"
      ],
      [
        "lwa",
        "khe"
      ],
      [
        "ama",
        "ho"
      ],
      [
        "ama",
        "goli"
      ],
      [
        "hla",
        "va"
      ],
      [
        "hla",
        "nhla"
      ],
      [
        "nj",
        "we"
      ],
      [
        "kha",
        "mba"
      ],
      [
        "kha",
        "muzi"
      ],
      [
        "tha",
        "ni"
      ],
      [
        "tha",
        "ndi"
      ],
      [
        "tha",
        "thwa"
      ],
      [
        "kwe",
        "sa"
      ],
      [
        "ezi",
        "ba"
      ],
      [
        "ezi",
        "zo"
      ],
      [
        "izi",
        "nyanga"
      ],
      [
        "izi",
        "kibha"
      ],
      [
        "ngu",
        "yena"
      ],
      [
        "isi",
        "qiniseko"
      ],
      [
        "nje",
        "lwe"
      ],
      [
        "shi",
        "swa"
      ],
      [
        "shi",
        "unda"
      ],
      [
        "thu",
        "le"
      ],
      [
        "thu",
        "kiswa"
      ],
      [
        "Ma",
        "shi"
      ],
      [
        "sha",
        "ja"
      ],
      [
        "da",
        "yi"
      ],
      [
        "da",
        "lule"
      ],
      [
        "khe",
        "the"
      ],
      [
        "khe",
        "tha"
      ],
      [
        "khe",
        "lwane"
      ],
      [
        "pho",
        "n"
      ],
      [
        "hu",
        "ne"
      ],
      [
        "ngoku",
        "zi"
      ],
      [
        "ngoku",
        "nga"
      ],
      [
        "ngoku",
        "gcwele"
      ],
      [
        "kwi",
        "Sundowns"
      ],
      [
        "mba",
        "ngi"
      ],
      [
        "ca",
        "ci"
      ],
      [
        "ca",
        "st"
      ],
      [
        "Si",
        "ko"
      ],
      [
        "ti",
        "ng"
      ],
      [
        "phi",
        "kisa"
      ],
      [
        "kule",
        "zi"
      ],
      [
        "in",
        "kantolo"
      ],
      [
        "in",
        "cwadi"
      ],
      [
        "seben",
        "zini"
      ],
      [
        "seben",
        "zela"
      ],
      [
        "ta",
        "mbo"
      ],
      [
        "ga",
        "lelo"
      ],
      [
        "gi",
        "di"
      ],
      [
        "eku",
        "qaleni"
      ],
      [
        "UM",
        "o"
      ],
      [
        "UM",
        "CULI"
      ],
      [
        "she",
        "sha"
      ],
      [
        "Kwa",
        "Ma"
      ],
      [
        "gu",
        "gu"
      ],
      [
        "cu",
        "pheni"
      ],
      [
        "ve",
        "lo"
      ],
      [
        "nama",
        "Siko"
      ],
      [
        "et",
        "shiunda"
      ],
      [
        "uN",
        "kulunkulu"
      ],
      [
        "Ka",
        "giso"
      ],
      [
        "pa",
        "ngeni"
      ],
      [
        "ja",
        "zz"
      ],
      [
        "ce",
        "bo"
      ],
      [
        "re",
        "to"
      ],
      [
        "Ca",
        "sric"
      ],
      [
        "nti",
        "leka"
      ],
      [
        "Le",
        "opa"
      ],
      [
        "izin",
        "solo"
      ],
      [
        "Ci",
        "ko"
      ],
      [
        "abe",
        "be"
      ],
      [
        "UN",
        "G"
      ],
      [
        "eN",
        "a"
      ],
      [
        "vele",
        "le"
      ],
      [
        "eM",
        "bombela"
      ],
      [
        "landela",
        "yo"
      ],
      [
        "ebe",
        "li"
      ],
      [
        "Ama",
        "phoyisa"
      ],
      [
        "ngezi",
        "nto"
      ],
      [
        "xo",
        "lo"
      ],
      [
        "phu",
        "tha"
      ],
      [
        "Aba",
        "nye"
      ],
      [
        "Nga",
        "kho"
      ],
      [
        "kwama",
        "nje"
      ],
      [
        "Ja",
        "eco"
      ],
      [
        "uB",
        "ra"
      ],
      [
        "ngom",
        "culo"
      ],
      [
        "uMa",
        "lema"
      ],
      [
        "nesi",
        "khathi"
      ],
      [
        "yoM",
        "thethosisekelo"
      ],
      [
        "lolu",
        "nye"
      ],
      [
        "hli",
        "zi"
      ],
      [
        "yama",
        "zane"
      ],
      [
        "Se",
        "khukhu"
      ],
      [
        "Se",
        "pthemba"
      ],
      [
        "kuma",
        "Play"
      ],
      [
        "per",
        "s"
      ],
      [
        "gwa",
        "za"
      ],
      [
        "log",
        "y"
      ],
      [
        "wom",
        "beni"
      ],
      [
        "jabu",
        "lisa"
      ],
      [
        "Play",
        "house"
      ],
      [
        "khutha",
        "za"
      ],
      [
        "Goli",
        "ath"
      ],
      [
        "eri",
        "a"
      ],
      [
        "shiyaga",
        "lolunye"
      ],
      [
        "kama",
        "skandi"
      ],
      [
        "Thu",
        "thukiswa"
      ],
      [
        "lama",
        "phuzu"
      ],
      [
        "New",
        "s"
      ],
      [
        "phumele",
        "la"
      ],
      [
        "Zo",
        "ndo"
      ],
      [
        "inq",
        "waba"
      ],
      [
        "menye",
        "zelwa"
      ],
      [
        "tati",
        "mende"
      ],
      [
        "ener",
        "al"
      ],
      [
        "Musi",
        "c"
      ],
      [
        "gq",
        "ama"
      ],
      [
        "kuMa",
        "sipala"
      ],
      [
        "don",
        "sa"
      ],
      [
        "hha",
        "yi"
      ],
      [
        "ngaseku",
        "pheleni"
      ],
      [
        "Mana",
        "gement"
      ],
      [
        "phoq",
        "ele"
      ],
      [
        "cwani",
        "ngo"
      ],
      [
        "MT",
        "N"
      ],
      [
        "Leopa",
        "rds"
      ],
      [
        "Jaeco",
        "o"
      ],
      [
        "Sekhukhu",
        "ne"
      ],
      [
        "3",
        "1"
      ],
      [
        "5",
        "5"
      ],
      [
        "A",
        "d"
      ],
      [
        "B",
        "en"
      ],
      [
        "B",
        "est"
      ],
      [
        "D",
        "P"
      ],
      [
        "E",
        "khuluma"
      ],
      [
        "E",
        "qhuba"
      ],
      [
        "F",
        "P"
      ],
      [
        "F",
        "AC"
      ],
      [
        "H",
        "U"
      ],
      [
        "H",
        "UM"
      ],
      [
        "H",
        "igh"
      ],
      [
        "I",
        "t"
      ],
      [
        "I",
        "ta"
      ],
      [
        "I",
        "Sundowns"
      ],
      [
        "M",
        "engameli"
      ],
      [
        "M",
        "khwanazi"
      ],
      [
        "N",
        "D"
      ],
      [
        "N",
        "P"
      ],
      [
        "N",
        "yamazane"
      ],
      [
        "R",
        "ose"
      ],
      [
        "S",
        "O"
      ],
      [
        "T",
        "I"
      ],
      [
        "T",
        "hi"
      ],
      [
        "U",
        "D"
      ],
      [
        "U",
        "Ramaphosa"
      ],
      [
        "U",
        "CC"
      ],
      [
        "U",
        "Zuma"
      ],
      [
        "Y",
        "E"
      ],
      [
        "a",
        "thi"
      ],
      [
        "a",
        "thole"
      ],
      [
        "a",
        "mehlo"
      ],
      [
        "d",
        "lelwa"
      ],
      [
        "e",
        "ngena"
      ],
      [
        "e",
        "yokuthi"
      ],
      [
        "e",
        "jele"
      ],
      [
        "f",
        "ela"
      ],
      [
        "f",
        "eza"
      ],
      [
        "g",
        "h"
      ],
      [
        "g",
        "at"
      ],
      [
        "h",
        "n"
      ],
      [
        "i",
        "c"
      ]
    ]
  }
}