{
  "version": "1.0",
  "truncation": null,
  "padding": null,
  "added_tokens": [
    {
      "id": 0,
      "content": "[UNK]",
      "single_word": false,
      "lstrip": false,
      "rstrip": false,
      "normalized": false,
      "special": true
    },
    {
      "id": 1,
      "content": "[PAD]",
      "single_word": false,
      "lstrip": false,
      "rstrip": false,
      "normalized": false,
      "special": true
    }
  ],
  "normalizer": null,
  "pre_tokenizer": {
    "type": "Whitespace"
  },
  "post_processor": null,
  "decoder": null,
  "model": {
    "type": "BPE",
    "dropout": null,
    "unk_token": "[UNK]",
    "continuing_subword_prefix": null,
    "end_of_word_suffix": null,
    "fuse_unk": false,
    "byte_fallback": false,
    "ignore_merges": false,
    "vocab": {
      "[UNK]": 0,
      "[PAD]": 1,
      "!": 2,
      "\"": 3,
      "%": 4,
      "&": 5,
      "'": 6,
      "(": 7,
      ")": 8,
      "+": 9,
      ",": 10,
      "-": 11,
      ".": 12,
      "/": 13,
      "0": 14,
      "1": 15,
      "2": 16,
      "3": 17,
      "4": 18,
      "5": 19,
      "6": 20,
      "7": 21,
      "8": 22,
      "9": 23,
      ":": 24,
      ";": 25,
      "?": 26,
      "@": 27,
      "A": 28,
      "B": 29,
      "C": 30,
      "D": 31,
      "E": 32,
      "F": 33,
      "G": 34,
      "H": 35,
      "I": 36,
      "J": 37,
      "K": 38,
      "L": 39,
      "M": 40,
      "N": 41,
      "O": 42,
      "P": 43,
      "Q": 44,
      "R": 45,
      "S": 46,
      "T": 47,
      "U": 48,
      "V": 49,
      "W": 50,
      "X": 51,
      "Y": 52,
      "Z": 53,
      "[": 54,
      "]": 55,
      "_": 56,
      "a": 57,
      "b": 58,
      "c": 59,
      "d": 60,
      "e": 61,
      "f": 62,
      "g": 63,
      "h": 64,
      "i": 65,
      "j": 66,
      "k": 67,
      "l": 68,
      "m": 69,
      "n": 70,
      "o": 71,
      "p": 72,
      "q": 73,
      "r": 74,
      "s": 75,
      "t": 76,
      "u": 77,
      "v": 78,
      "w": 79,
      "x": 80,
      "y": 81,
      "z": 82,
      "|": 83,
      "·": 84,
      "Ë": 85,
      "è": 86,
      "é": 87,
      "ë": 88,
      "ł": 89,
      "​": 90,
      "–": 91,
      "‘": 92,
      "’": 93,
      "“": 94,
      "”": 95,
      "€": 96,
      "ku": 97,
      "ng": 98,
      "th": 99,
      "la": 100,
      "ba": 101,
      "le": 102,
      "wa": 103,
      "zi": 104,
      "en": 105,
      "si": 106,
      "ka": 107,
      "kh": 108,
      "ma": 109,
      "thi": 110,
      "li": 111,
      "lo": 112,
      "na": 113,
      "we": 114,
      "ph": 115,
      "uku": 116,
      "nd": 117,
      "se": 118,
      "ni": 119,
      "lu": 120,
      "sh": 121,
      "nga": 122,
      "be": 123,
      "oku": 124,
      "ya": 125,
      "sa": 126,
      "ne": 127,
      "aba": 128,
      "bu": 129,
      "nt": 130,
      "ngo": 131,
      "ye": 132,
      "ke": 133,
      "za": 134,
      "yi": 135,
      "zo": 136,
      "eni": 137,
      "the": 138,
      "bo": 139,
      "um": 140,
      "ukuthi": 141,
      "ze": 142,
      "ko": 143,
      "bi": 144,
      "mi": 145,
      "kho": 146,
      "nge": 147,
      "fu": 148,
      "yo": 149,
      "pha": 150,
      "khu": 151,
      "kwa": 152,
      "nj": 153,
      "no": 154,
      "ha": 155,
      "lwa": 156,
      "kha": 157,
      "so": 158,
      "izi": 159,
      "hla": 160,
      "ama": 161,
      "em": 162,
      "ezi": 163,
      "ngi": 164,
      "ele": 165,
      "ela": 166,
      "tho": 167,
      "nya": 168,
      "nje": 169,
      "hu": 170,
      "kwe": 171,
      "tha": 172,
      "khe": 173,
      "esi": 174,
      "nye": 175,
      "mbi": 176,
      "sha": 177,
      "ki": 178,
      "Ma": 179,
      "hle": 180,
      "kw": 181,
      "isi": 182,
      "ngu": 183,
      "ala": 184,
      "ci": 185,
      "he": 186,
      "nto": 187,
      "weni": 188,
      "wo": 189,
      "ben": 190,
      "thu": 191,
      "nda": 192,
      "sho": 193,
      "ntu": 194,
      "ngen": 195,
      "fa": 196,
      "ho": 197,
      "ini": 198,
      "lwe": 199,
      "uM": 200,
      "khulu": 201,
      "Ng": 202,
      "mu": 203,
      "pho": 204,
      "qo": 205,
      "ngoku": 206,
      "uma": 207,
      "eli": 208,
      "ngoba": 209,
      "mba": 210,
      "mo": 211,
      "seben": 212,
      "khona": 213,
      "uthe": 214,
      "phe": 215,
      "end": 216,
      "ndi": 217,
      "to": 218,
      "Si": 219,
      "phi": 220,
      "di": 221,
      "va": 222,
      "dwa": 223,
      "nu": 224,
      "kwen": 225,
      "noku": 226,
      "Ku": 227,
      "me": 228,
      "tsh": 229,
      "kule": 230,
      "khathi": 231,
      "ulu": 232,
      "ri": 233,
      "swa": 234,
      "ndo": 235,
      "ndle": 236,
      "hlo": 237,
      "nke": 238,
      "ti": 239,
      "wu": 240,
      "ca": 241,
      "in": 242,
      "ta": 243,
      "su": 244,
      "zoku": 245,
      "da": 246,
      "shi": 247,
      "sebenzi": 248,
      "yoku": 249,
      "zwe": 250,
      "bhe": 251,
      "mp": 252,
      "ve": 253,
      "fi": 254,
      "kusho": 255,
      "njengoba": 256,
      "imi": 257,
      "dla": 258,
      "nyaka": 259,
      "abantu": 260,
      "Uthe": 261,
      "te": 262,
      "kodwa": 263,
      "du": 264,
      "nezi": 265,
      "de": 266,
      "ngesi": 267,
      "bha": 268,
      "nuz": 269,
      "kathi": 270,
      "qa": 271,
      "ga": 272,
      "lela": 273,
      "nde": 274,
      "yisa": 275,
      "UM": 276,
      "ra": 277,
      "20": 278,
      "lele": 279,
      "bona": 280,
      "on": 281,
      "ene": 282,
      "nele": 283,
      "bula": 284,
      "qhu": 285,
      "ndla": 286,
      "uMnuz": 287,
      "hlu": 288,
      "Nk": 289,
      "she": 290,
      "futhi": 291,
      "funa": 292,
      "phakathi": 293,
      "kuleli": 294,
      "hlelo": 295,
      "mali": 296,
      ".\"": 297,
      "cu": 298,
      "vu": 299,
      "kazi": 300,
      "kile": 301,
      "ja": 302,
      "ro": 303,
      "wesi": 304,
      "dlu": 305,
      "izin": 306,
      "cala": 307,
      "gci": 308,
      "st": 309,
      "embu": 310,
      "eku": 311,
      "qu": 312,
      "kanto": 313,
      "lokhu": 314,
      "nama": 315,
      "nja": 316,
      "kantolo": 317,
      "qembu": 318,
      "yen": 319,
      "ningi": 320,
      "hlanga": 321,
      "hi": 322,
      ",”": 323,
      "cwa": 324,
      "nsi": 325,
      "ngesikhathi": 326,
      "The": 327,
      "ubu": 328,
      "qhube": 329,
      "loku": 330,
      "ce": 331,
      "ngapha": 332,
      "ge": 333,
      "xa": 334,
      "Lo": 335,
      "meni": 336,
      "fundi": 337,
      "Na": 338,
      "nku": 339,
      "phoyisa": 340,
      "co": 341,
      "kene": 342,
      "kakhulu": 343,
      "khi": 344,
      "nyango": 345,
      "mbisa": 346,
      "Zulu": 347,
      "vi": 348,
      "huma": 349,
      "Kwa": 350,
      "So": 351,
      "mele": 352,
      "lapho": 353,
      "cimbi": 354,
      "kwenza": 355,
      "nzi": 356,
      "ube": 357,
      "ema": 358,
      "mbo": 359,
      "soku": 360,
      "suku": 361,
      "zwa": 362,
      "kuzo": 363,
      "kela": 364,
      "lesi": 365,
      "fanele": 366,
      "qala": 367,
      "land": 368,
      "nta": 369,
      "mbili": 370,
      "moto": 371,
      "ndleni": 372,
      "pala": 373,
      "sipala": 374,
      "shwa": 375,
      "umo": 376,
      ",\"": 377,
      "00": 378,
      "abe": 379,
      "lisa": 380,
      "naba": 381,
      "kwazi": 382,
      "thola": 383,
      "phinde": 384,
      "202": 385,
      "gu": 386,
      "leni": 387,
      "funda": 388,
      "ny": 389,
      "kuba": 390,
      "kube": 391,
      "ent": 392,
      "ukuze": 393,
      "lumeni": 394,
      "hulumeni": 395,
      "go": 396,
      "izo": 397,
      "qini": 398,
      "uNk": 399,
      "xo": 400,
      "wana": 401,
      "kala": 402,
      "kanja": 403,
      "nti": 404,
      "bili": 405,
      "holi": 406,
      "aku": 407,
      "nq": 408,
      "ngama": 409,
      "SA": 410,
      "mbe": 411,
      "sz": 412,
      "swe": 413,
      "umu": 414,
      "koku": 415,
      "thiwa": 416,
      "lungu": 417,
      "thetho": 418,
      "emi": 419,
      "lweni": 420,
      "kwezi": 421,
      "kwi": 422,
      "re": 423,
      "ndeni": 424,
      "solwa": 425,
      "ende": 426,
      "beni": 427,
      "kuka": 428,
      "veze": 429,
      "Um": 430,
      "eze": 431,
      "xhuma": 432,
      "yisi": 433,
      "Aba": 434,
      "uzo": 435,
      "phu": 436,
      "sele": 437,
      "AN": 438,
      "Ba": 439,
      "La": 440,
      "Pha": 441,
      "woku": 442,
      "ndele": 443,
      "enye": 444,
      "nom": 445,
      "khetho": 446,
      "ayi": 447,
      "or": 448,
      "zweni": 449,
      "zulu": 450,
      "ngezi": 451,
      "noma": 452,
      "kanjalo": 453,
      "mela": 454,
      "olu": 455,
      "seku": 456,
      "Ngi": 457,
      "qhubeka": 458,
      "Le": 459,
      "ji": 460,
      "wen": 461,
      "balu": 462,
      "zeka": 463,
      "khala": 464,
      "ndawo": 465,
      "tal": 466,
      "do": 467,
      "bazo": 468,
      "waye": 469,
      "hlukene": 470,
      "er": 471,
      "gi": 472,
      "jo": 473,
      "minyaka": 474,
      "fundo": 475,
      "nyu": 476,
      "xhumana": 477,
      "UN": 478,
      "dlela": 479,
      "enga": 480,
      "tu": 481,
      "ukuba": 482,
      "bese": 483,
      "dlule": 484,
      "yena": 485,
      "manje": 486,
      "ndaba": 487,
      "Natal": 488,
      "ase": 489,
      "ani": 490,
      "ngeni": 491,
      "lelwa": 492,
      "nisi": 493,
      "hamba": 494,
      "KwaZulu": 495,
      "Pa": 496,
      "eN": 497,
      "leka": 498,
      "thimba": 499,
      "ngokuthi": 500,
      "sebenza": 501,
      "ese": 502,
      "sen": 503,
      "vele": 504,
      "vela": 505,
      "thweni": 506,
      "lezi": 507,
      "wase": 508,
      "sika": 509,
      "zane": 510,
      "ngena": 511,
      "Ngo": 512,
      "nqumo": 513,
      "eM": 514,
      "uT": 515,
      "ngqo": 516,
      "lindele": 517,
      "lolu": 518,
      "zama": 519,
      "zayo": 520,
      "enda": 521,
      "game": 522,
      "gcina": 523,
      "Af": 524,
      "Ima": 525,
      "Sa": 526,
      "ch": 527,
      "imali": 528,
      "mende": 529,
      "pa": 530,
      "qe": 531,
      "wi": 532,
      "kumele": 533,
      "kahle": 534,
      "abanga": 535,
      "Afri": 536,
      "Image": 537,
      "ing": 538,
      "seni": 539,
      "uG": 540,
      "wakhe": 541,
      "kelele": 542,
      "thanda": 543,
      "ngenxa": 544,
      "Ama": 545,
      "obe": 546,
      "uva": 547,
      "ngwa": 548,
      "bandla": 549,
      "thinta": 550,
      "phela": 551,
      "sela": 552,
      "umele": 553,
      "khuluma": 554,
      "nokuthi": 555,
      "zokuxhumana": 556,
      "bhamu": 557,
      "jabu": 558,
      "landela": 559,
      "gomo": 560,
      "uNksz": 561,
      "IN": 562,
      "aka": 563,
      "engu": 564,
      "fo": 565,
      "gwa": 566,
      "nka": 567,
      "om": 568,
      "uhlelo": 569,
      "kukhona": 570,
      "banga": 571,
      "wathi": 572,
      "siza": 573,
      "lungi": 574,
      "ngayo": 575,
      "kele": 576,
      "ume": 577,
      "kwini": 578,
      "ndlela": 579,
      "yokuthi": 580,
      "nkulu": 581,
      "Me": 582,
      "al": 583,
      "gwe": 584,
      "bala": 585,
      "leli": 586,
      "ziwa": 587,
      "shini": 588,
      "yakhe": 589,
      "nesi": 590,
      "buko": 591,
      "ntwana": 592,
      "ngom": 593,
      "yom": 594,
      "sonto": 595,
      "dlalo": 596,
      "Thekwini": 597,
      "gameko": 598,
      "Lwesi": 599,
      "mbu": 600,
      "kulo": 601,
      "lika": 602,
      "sezi": 603,
      "nkundleni": 604,
      "bh": 605,
      "ebu": 606,
      "gx": 607,
      "usho": 608,
      "zu": 609,
      "kunga": 610,
      "thisha": 611,
      "ngane": 612,
      "abazo": 613,
      "buye": 614,
      "kosi": 615,
      "ngemp": 616,
      "hlala": 617,
      "hlanu": 618,
      "thombo": 619,
      "mbisana": 620,
      "Mi": 621,
      "Zuma": 622,
      "nx": 623,
      "nen": 624,
      "use": 625,
      "thwa": 626,
      "lekile": 627,
      "kanye": 628,
      "kwesi": 629,
      "shaye": 630,
      "cane": 631,
      "mpani": 632,
      "No": 633,
      "ebe": 634,
      "lli": 635,
      "bani": 636,
      "sizo": 637,
      "kanje": 638,
      "lingi": 639,
      "seki": 640,
      "shwe": 641,
      "umbi": 642,
      "kwaba": 643,
      "Masipala": 644,
      "ngendlela": 645,
      "hlobo": 646,
      "veza": 647,
      "umuntu": 648,
      "gama": 649,
      "qi": 650,
      "kanti": 651,
      "shu": 652,
      "ngoLwesi": 653,
      "phathi": 654,
      "amalungu": 655,
      "ezinkundleni": 656,
      "phezulu": 657,
      "tshu": 658,
      "izolo": 659,
      "LE": 660,
      "Mo": 661,
      "obu": 662,
      "kufanele": 663,
      "enkantolo": 664,
      "zela": 665,
      "kole": 666,
      "yona": 667,
      "phansi": 668,
      "phambili": 669,
      "emuva": 670,
      "fana": 671,
      "suka": 672,
      "),": 673,
      "Ca": 674,
      "FP": 675,
      "IS": 676,
      "Mnyango": 677,
      "bho": 678,
      "es": 679,
      "eya": 680,
      "hli": 681,
      "mcimbi": 682,
      "oli": 683,
      "rt": 684,
      "ss": 685,
      "usa": 686,
      "uMa": 687,
      "kulu": 688,
      "zin": 689,
      "zibuko": 690,
      "zom": 691,
      "konke": 692,
      "khombisa": 693,
      "kwama": 694,
      "thathu": 695,
      "endu": 696,
      "tion": 697,
      "hinga": 698,
      "ngaphandle": 699,
      "qiniseki": 700,
      "Eph": 701,
      "Ta": 702,
      "isa": 703,
      "nci": 704,
      "of": 705,
      "qha": 706,
      "reli": 707,
      "ukhetho": 708,
      "wini": 709,
      "theni": 710,
      "labo": 711,
      "zini": 712,
      "sesi": 713,
      "bone": 714,
      "kwabo": 715,
      "amaphoyisa": 716,
      "muva": 717,
      "suke": 718,
      "culi": 719,
      "culo": 720,
      "hlangani": 721,
      "lindeleke": 722,
      "Ephreli": 723,
      "KP": 724,
      "Shinga": 725,
      "gqu": 726,
      "ol": 727,
      "uK": 728,
      "enzi": 729,
      "ngaka": 730,
      "yesi": 731,
      "umela": 732,
      "phawu": 733,
      "lwane": 734,
      "thole": 735,
      "fazane": 736,
      "phethe": 737,
      "hlangano": 738,
      "Lokhu": 739,
      "Isi": 740,
      "daba": 741,
      "eThekwini": 742,
      "icala": 743,
      "keni": 744,
      "mem": 745,
      "ru": 746,
      "uN": 747,
      "lala": 748,
      "waba": 749,
      "masipala": 750,
      "thini": 751,
      "phen": 752,
      "ngakho": 753,
      "nemi": 754,
      "boni": 755,
      "izinisi": 756,
      "isinqumo": 757,
      "bhekene": 758,
      "bulala": 759,
      "cwadi": 760,
      "bhizinisi": 761,
      "MKP": 762,
      "Uku": 763,
      "Zi": 764,
      "esa": 765,
      "iN": 766,
      "ise": 767,
      "ncane": 768,
      "vo": 769,
      "xenye": 770,
      "kusa": 771,
      "lakhe": 772,
      "lelwe": 773,
      "kalo": 774,
      "lokho": 775,
      "phele": 776,
      "bezi": 777,
      "benga": 778,
      "abafundi": 779,
      "nobu": 780,
      "izinto": 781,
      "munye": 782,
      "pheth": 783,
      "kwenze": 784,
      "hloni": 785,
      "sebenzisa": 786,
      "bheka": 787,
      "ngaphansi": 788,
      "2026": 789,
      "uNkk": 790,
      "ANC": 791,
      "balula": 792,
      "ngqoshe": 793,
      "Ja": 794,
      "Se": 795,
      "bhu": 796,
      "eba": 797,
      "eza": 798,
      "ilo": 799,
      "meli": 800,
      "ry": 801,
      "uya": 802,
      "ngcwa": 803,
      "abanye": 804,
      "buka": 805,
      "buya": 806,
      "yizi": 807,
      "misa": 808,
      "ngeSo": 809,
      "kwakhe": 810,
      "hlabeni": 811,
      "esikhathi": 812,
      "kinga": 813,
      "ngene": 814,
      "Silo": 815,
      "fika": 816,
      "fundazwe": 817,
      "UL": 818,
      "asi": 819,
      "ll": 820,
      "tsha": 821,
      "lando": 822,
      "leke": 823,
      "weze": 824,
      "saka": 825,
      "abasolwa": 826,
      "ying": 827,
      "yinto": 828,
      "hambe": 829,
      "khaya": 830,
      "amanzi": 831,
      "nyama": 832,
      "wona": 833,
      "wonke": 834,
      "faka": 835,
      "dinge": 836,
      "bonakala": 837,
      "Nksz": 838,
      "nabanye": 839,
      "Phala": 840,
      "ngempela": 841,
      "Uni": 842,
      "ck": 843,
      "chi": 844,
      "dala": 845,
      "ed": 846,
      "into": 847,
      "ona": 848,
      "pe": 849,
      "ts": 850,
      "ur": 851,
      "uni": 852,
      "wum": 853,
      "kulandela": 854,
      "ngum": 855,
      "baba": 856,
      "bazi": 857,
      "balo": 858,
      "wama": 859,
      "zile": 860,
      "lonke": 861,
      "nase": 862,
      "nabo": 863,
      "sebe": 864,
      "ngase": 865,
      "yabo": 866,
      "abaningi": 867,
      "ngonyaka": 868,
      "khokhe": 869,
      "hlalo": 870,
      "emhlabeni": 871,
      "Mazibuko": 872,
      "thuba": 873,
      "Nga": 874,
      "shint": 875,
      "bheke": 876,
      "ngeSonto": 877,
      "LA": 878,
      "Ne": 879,
      "cha": 880,
      "ez": 881,
      "ezo": 882,
      "ebi": 883,
      "osa": 884,
      "okhe": 885,
      "uD": 886,
      "uth": 887,
      "xha": 888,
      "kuya": 889,
      "kubo": 890,
      "ena": 891,
      "themba": 892,
      "umsebenzi": 893,
      "kon": 894,
      "bisa": 895,
      "ngeke": 896,
      "ngemuva": 897,
      "khula": 898,
      "amacala": 899,
      "Mamba": 900,
      "thula": 901,
      "fakazi": 902,
      "qoka": 903,
      "tshe": 904,
      "fike": 905,
      "ter": 906,
      "gcine": 907,
      "Afrika": 908,
      "llion": 909,
      "dingeka": 910,
      "Phalamende": 911,
      "Mambazo": 912,
      "HA": 913,
      "Hi": 914,
      "Kho": 915,
      "dy": 916,
      "imp": 917,
      "ozo": 918,
      "wukuthi": 919,
      "kuthiwa": 920,
      "bambisana": 921,
      "besi": 922,
      "yase": 923,
      "nte": 924,
      "ngoM": 925,
      "zonke": 926,
      "koleni": 927,
      "migomo": 928,
      "khosi": 929,
      "ezinye": 930,
      "thathe": 931,
      "khulumela": 932,
      "tshenzi": 933,
      "qale": 934,
      "bulawa": 935,
      "nzima": 936,
      "000": 937,
      "endaweni": 938,
      "memeze": 939,
      "yingxenye": 940,
      "AS": 941,
      "DA": 942,
      "In": 943,
      "Mp": 944,
      "Mbu": 945,
      "edlule": 946,
      "ir": 947,
      "oda": 948,
      "lana": 949,
      "bantu": 950,
      "sile": 951,
      "kampani": 952,
      "man": 953,
      "phendu": 954,
      "kelo": 955,
      "yise": 956,
      "kom": 957,
      "thatha": 958,
      "Ngqo": 959,
      "Ngesikhathi": 960,
      "muntu": 961,
      "tshele": 962,
      "dalu": 963,
      "roli": 964,
      "ekutheni": 965,
      "qhubeke": 966,
      "selelo": 967,
      "nyuka": 968,
      "tuli": 969,
      "phethroli": 970,
      "Ngqongqoshe": 971,
      "10": 972,
      "30": 973,
      "Ga": 974,
      "Hla": 975,
      "Okhulumela": 976,
      "Uma": 977,
      "azo": 978,
      "abo": 979,
      "awu": 980,
      "cwe": 981,
      "iswa": 982,
      "imoto": 983,
      "nhla": 984,
      "ty": 985,
      "visi": 986,
      "kuyo": 987,
      "kuphela": 988,
      "kulindeleke": 989,
      "base": 990,
      "lezwe": 991,
      "siwe": 992,
      "khum": 993,
      "lile": 994,
      "lona": 995,
      "nakalo": 996,
      "setshenzi": 997,
      "belo": 998,
      "bebe": 999,
      "okuthiwa": 1000,
      "yale": 1001,
      "yanga": 1002,
      "abasebenzi": 1003,
      "kelwe": 1004,
      "zansi": 1005,
      "thethweni": 1006,
      "umthombo": 1007,
      "tati": 1008,
      "lokuthi": 1009,
      "fundisa": 1010,
      "vikela": 1011,
      "Africa": 1012,
      "gxe": 1013,
      "okhethweni": 1014,
      "Ci": 1015,
      "EN": 1016,
      "KU": 1017,
      "Ko": 1018,
      "LI": 1019,
      "Oku": 1020,
      "ayo": 1021,
      "engi": 1022,
      "ibi": 1023,
      "mhla": 1024,
      "mvu": 1025,
      "op": 1026,
      "rd": 1027,
      "ngweni": 1028,
      "wabo": 1029,
      "khwana": 1030,
      "lise": 1031,
      "nazo": 1032,
      "ndlu": 1033,
      "ngalo": 1034,
      "okuba": 1035,
      "yazi": 1036,
      "yama": 1037,
      "yezi": 1038,
      "zabo": 1039,
      "bonke": 1040,
      "yoM": 1041,
      "phaka": 1042,
      "khanka": 1043,
      "izimoto": 1044,
      "hlaba": 1045,
      "emsebenzi": 1046,
      "isikhathi": 1047,
      "uMnyango": 1048,
      "tor": 1049,
      "kwenzeka": 1050,
      "kulesi": 1051,
      "dubula": 1052,
      "nezinye": 1053,
      "dlula": 1054,
      "izinhlelo": 1055,
      "fundazweni": 1056,
      "lingisa": 1057,
      "Tas": 1058,
      "phawula": 1059,
      "khwanazi": 1060,
      "emsebenzini": 1061,
      "Ap": 1062,
      "BA": 1063,
      "Bo": 1064,
      "Cha": 1065,
      "Fu": 1066,
      "Lu": 1067,
      "ON": 1068,
      "Sha": 1069,
      "Tha": 1070,
      "Uveze": 1071,
      "aye": 1072,
      "ePhalamende": 1073,
      "gqi": 1074,
      "iqembu": 1075,
      "nwa": 1076,
      "nza": 1077,
      "owa": 1078,
      "pi": 1079,
      "tro": 1080,
      "uba": 1081,
      "uveze": 1082,
      "yeni": 1083,
      "ngwe": 1084,
      "kale": 1085,
      "kahulumeni": 1086,
      "liwe": 1087,
      "naye": 1088,
      "nini": 1089,
      "ngabe": 1090,
      "ngoma": 1091,
      "zange": 1092,
      "umcimbi": 1093,
      "umndeni": 1094,
      "khokh": 1095,
      "emba": 1096,
      "ezingu": 1097,
      "shaya": 1098,
      "hlela": 1099,
      "phosa": 1100,
      "Kuthiwa": 1101,
      "shiya": 1102,
      "shesha": 1103,
      "khipha": 1104,
      "South": 1105,
      "2024": 1106,
      "uGumbi": 1107,
      "phathiswa": 1108,
      "hlanganisa": 1109,
      "ngcwabo": 1110,
      "setshenziswa": 1111,
      "AI": 1112,
      "FM": 1113,
      "Inde": 1114,
      "Ka": 1115,
      "Mzansi": 1116,
      "Rama": 1117,
      "Vu": 1118,
      "and": 1119,
      "don": 1120,
      "hho": 1121,
      "im": 1122,
      "ibe": 1123,
      "indawo": 1124,
      "jwaye": 1125,
      "ment": 1126,
      "neni": 1127,
      "ose": 1128,
      "oso": 1129,
      "owaye": 1130,
      "pend": 1131,
      "yu": 1132,
      "sizi": 1133,
      "lini": 1134,
      "wezoku": 1135,
      "phuma": 1136,
      "ndisi": 1137,
      "ngani": 1138,
      "ezinta": 1139,
      "huli": 1140,
      "thando": 1141,
      "shado": 1142,
      "ngenyanga": 1143,
      "ngokushesha": 1144,
      "mola": 1145,
      "tshela": 1146,
      "sungu": 1147,
      "teshi": 1148,
      "duze": 1149,
      "cula": 1150,
      "yenza": 1151,
      "khiphe": 1152,
      "khishwa": 1153,
      "sokuthi": 1154,
      "landeli": 1155,
      "tholakala": 1156,
      "eNkantolo": 1157,
      "gwaqo": 1158,
      "albhamu": 1159,
      "ebusuku": 1160,
      "gxi": 1161,
      "onal": 1162,
      "New": 1163,
      "Hlabisa": 1164,
      "Independ": 1165,
      "hhovisi": 1166,
      "Independent": 1167,
      "19": 1168,
      "Bi": 1169,
      "HI": 1170,
      "Ji": 1171,
      "KZ": 1172,
      "Ki": 1173,
      "Kha": 1174,
      "Li": 1175,
      "Tru": 1176,
      "UK": 1177,
      "US": 1178,
      "WE": 1179,
      "Zo": 1180,
      "an": 1181,
      "ali": 1182,
      "cela": 1183,
      "eP": 1184,
      "gh": 1185,
      "nend": 1186,
      "por": 1187,
      "per": 1188,
      "ula": 1189,
      "ukwe": 1190,
      "ufuna": 1191,
      "ukwenza": 1192,
      "thwe": 1193,
      "lama": 1194,
      "bakhe": 1195,
      "bafuna": 1196,
      "ziwe": 1197,
      "siya": 1198,
      "sifundo": 1199,
      "lom": 1200,
      "wezi": 1201,
      "phumela": 1202,
      "ukunga": 1203,
      "sem": 1204,
      "semola": 1205,
      "lutho": 1206,
      "ngawo": 1207,
      "beka": 1208,
      "zele": 1209,
      "miez": 1210,
      "million": 1211,
      "khonj": 1212,
      "ngekho": 1213,
      "yonke": 1214,
      "khundleni": 1215,
      "lwazi": 1216,
      "sola": 1217,
      "amabili": 1218,
      "nyana": 1219,
      "mbiko": 1220,
      "kisa": 1221,
      "ngenela": 1222,
      "phiko": 1223,
      "hloko": 1224,
      "shiwe": 1225,
      "zwelonke": 1226,
      "dlala": 1227,
      "dutshu": 1228,
      "ral": 1229,
      "hluka": 1230,
      "wesifazane": 1231,
      "celo": 1232,
      "gebe": 1233,
      "humalo": 1234,
      "gungu": 1235,
      "Lady": 1236,
      "Lamiez": 1237,
      "Meyi": 1238,
      "Miss": 1239,
      "shayeli": 1240,
      "bhodi": 1241,
      "ngempelasonto": 1242,
      "konzo": 1243,
      "Ramaphosa": 1244,
      "KZN": 1245,
      "Trust": 1246,
      "Bla": 1247,
      "IFP": 1248,
      "NFP": 1249,
      "angu": 1250,
      "cele": 1251,
      "deni": 1252,
      "ethi": 1253,
      "hl": 1254,
      "mthetho": 1255,
      "mdlalo": 1256,
      "od": 1257,
      "qulu": 1258,
      "uzi": 1259,
      "kuye": 1260,
      "kuhulumeni": 1261,
      "laba": 1262,
      "baya": 1263,
      "ence": 1264,
      "sini": 1265,
      "kabi": 1266,
      "nandi": 1267,
      "phumele": 1268,
      "ngaphakathi": 1269,
      "sama": 1270,
      "abaculi": 1271,
      "ntshi": 1272,
      "yelana": 1273,
      "thelo": 1274,
      "bonele": 1275,
      "umi": 1276,
      "funi": 1277,
      "amaningi": 1278,
      "emva": 1279,
      "ezimbili": 1280,
      "Masemola": 1281,
      "hlekelele": 1282,
      "benza": 1283,
      "uMntwana": 1284,
      "muka": 1285,
      "qondi": 1286,
      "val": 1287,
      "mehlo": 1288,
      "inkantolo": 1289,
      "imigomo": 1290,
      "nezin": 1291,
      "UMbalula": 1292,
      "stende": 1293,
      "ekuseni": 1294,
      "Theku": 1295,
      "ubuholi": 1296,
      "SAC": 1297,
      "ezehlukene": 1298,
      "Ngonyama": 1299,
      "nkampani": 1300,
      "mbulu": 1301,
      "khokhelwa": 1302,
      "shintsha": 1303,
      "tatimende": 1304,
      "okubalwa": 1305,
      "Tasman": 1306,
      "gqibelo": 1307,
      "bonelelo": 1308,
      "40": 1309,
      "Di": 1310,
      "FAS": 1311,
      "HO": 1312,
      "Izi": 1313,
      "Ntuli": 1314,
      "R3": 1315,
      "Sta": 1316,
      "SFAS": 1317,
      "Thu": 1318,
      "dizi": 1319,
      "eG": 1320,
      "el": 1321,
      "ezayo": 1322,
      "hha": 1323,
      "hem": 1324,
      "iya": 1325,
      "ithe": 1326,
      "ithimba": 1327,
      "omu": 1328,
      "rk": 1329,
      "sta": 1330,
      "ster": 1331,
      "us": 1332,
      "lase": 1333,
      "lani": 1334,
      "babe": 1335,
      "babo": 1336,
      "bamba": 1337,
      "kaMasipala": 1338,
      "kazwelonke": 1339,
      "mayelana": 1340,
      "thina": 1341,
      "seka": 1342,
      "lula": 1343,
      "neminyaka": 1344,
      "ngobu": 1345,
      "zalwane": 1346,
      "yibona": 1347,
      "umthetho": 1348,
      "phatha": 1349,
      "noM": 1350,
      "khame": 1351,
      "solo": 1352,
      "sombulu": 1353,
      "izimu": 1354,
      "amaqembu": 1355,
      "ezinda": 1356,
      "nyanga": 1357,
      "kwemali": 1358,
      "Madla": 1359,
      "shona": 1360,
      "fake": 1361,
      "phepha": 1362,
      "tshwa": 1363,
      "caci": 1364,
      "iminyaka": 1365,
      "Nkk": 1366,
      "ubufakazi": 1367,
      "ceke": 1368,
      "qinisa": 1369,
      "Abantu": 1370,
      "balulekile": 1371,
      "engameli": 1372,
      "ingizimu": 1373,
      "ngwane": 1374,
      "jabule": 1375,
      "omkhulu": 1376,
      "gwebo": 1377,
      "tshudeni": 1378,
      "gqugqu": 1379,
      "phenyo": 1380,
      "chaza": 1381,
      "Jikelele": 1382,
      "Kia": 1383,
      "Black": 1384,
      "dizili": 1385,
      "khamera": 1386,
      "Madlanga": 1387,
      ".”": 1388,
      "Al": 1389,
      "Co": 1390,
      "Dur": 1391,
      "EK": 1392,
      "Ho": 1393,
      "IP": 1394,
      "Mfundo": 1395,
      "Pri": 1396,
      "Pro": 1397,
      "Zwe": 1398,
      "Zayo": 1399,
      "anga": 1400,
      "eMa": 1401,
      "gesi": 1402,
      "il": 1403,
      "indlela": 1404,
      "nze": 1405,
      "nqo": 1406,
      "ncwa": 1407,
      "nkosi": 1408,
      "okwa": 1409,
      "oqo": 1410,
      "unga": 1411,
      "uSi": 1412,
      "uLo": 1413,
      "kuthi": 1414,
      "kune": 1415,
      "kudingeka": 1416,
      "ban": 1417,
      "bakuleli": 1418,
      "zikha": 1419,
      "enja": 1420,
      "kayo": 1421,
      "kade": 1422,
      "kancane": 1423,
      "kaphethroli": 1424,
      "mas": 1425,
      "mabhizinisi": 1426,
      "linde": 1427,
      "lovu": 1428,
      "nankulu": 1429,
      "weqembu": 1430,
      "ukusebenza": 1431,
      "ngale": 1432,
      "bert": 1433,
      "okukhona": 1434,
      "yaba": 1435,
      "yalo": 1436,
      "ababe": 1437,
      "buyi": 1438,
      "buzo": 1439,
      "ngokwe": 1440,
      "ngomunye": 1441,
      "yedwa": 1442,
      "zakhe": 1443,
      "yimp": 1444,
      "boshwa": 1445,
      "bonisi": 1446,
      "mile": 1447,
      "mishini": 1448,
      "phathe": 1449,
      "nonyaka": 1450,
      "izindaba": 1451,
      "ezikoleni": 1452,
      "nyakeni": 1453,
      "nyangweni": 1454,
      "esifundazweni": 1455,
      "esikhundleni": 1456,
      "kweni": 1457,
      "ntokazi": 1458,
      "thulwa": 1459,
      "ngenele": 1460,
      "uMfu": 1461,
      "uMbonisi": 1462,
      "mufi": 1463,
      "elika": 1464,
      "phezu": 1465,
      "ndie": 1466,
      "tshwe": 1467,
      "swano": 1468,
      "hlolwa": 1469,
      "tional": 1470,
      "tival": 1471,
      "incwadi": 1472,
      "bheki": 1473,
      "bhala": 1474,
      "UMnyango": 1475,
      "UMntwana": 1476,
      "qhuba": 1477,
      "wesilisa": 1478,
      "ngaphambi": 1479,
      "umonakalo": 1480,
      "kubalwa": 1481,
      "entsha": 1482,
      "xoshwa": 1483,
      "kanjani": 1484,
      "Abanye": 1485,
      "Phasika": 1486,
      "estival": 1487,
      "ncinti": 1488,
      "memezele": 1489,
      "Mbube": 1490,
      "yalezo": 1491,
      "gebengu": 1492,
      "SACP": 1493,
      "hhayi": 1494,
      "sombuluko": 1495,
      "ezindaweni": 1496,
      "Albert": 1497,
      "Durban": 1498,
      "Zayoni": 1499,
      "13": 1500,
      "15": 1501,
      "Aku": 1502,
      "BC": 1503,
      "Cy": 1504,
      "Dla": 1505,
      "EM": 1506,
      "Ha": 1507,
      "IK": 1508,
      "Juni": 1509,
      "Ro": 1510,
      "Red": 1511,
      "UB": 1512,
      "bhi": 1513,
      "dle": 1514,
      "eke": 1515,
      "ekhuluma": 1516,
      "gem": 1517,
      "gcwe": 1518,
      "ikakhulu": 1519,
      "kt": 1520,
      "kenye": 1521,
      "nsela": 1522,
      "oma": 1523,
      "ssa": 1524,
      "smi": 1525,
      "sti": 1526,
      "uB": 1527,
      "uyi": 1528,
      "usuku": 1529,
      "uhulumeni": 1530,
      "vume": 1531,
      "kuwo": 1532,
      "kuMasipala": 1533,
      "kusuka": 1534,
      "ngq": 1535,
      "wayo": 1536,
      "wari": 1537,
      "zim": 1538,
      "zinga": 1539,
      "zindaba": 1540,
      "enj": 1541,
      "siteshi": 1542,
      "kandi": 1543,
      "lima": 1544,
      "litha": 1545,
      "pheli": 1546,
      "ukuzi": 1547,
      "okuyi": 1548,
      "yami": 1549,
      "buso": 1550,
      "zase": 1551,
      "yini": 1552,
      "thelela": 1553,
      "umsolwa": 1554,
      "umculo": 1555,
      "bikwa": 1556,
      "khukhula": 1557,
      "lwama": 1558,
      "khangi": 1559,
      "khatha": 1560,
      "izingu": 1561,
      "izikhulu": 1562,
      "izibhamu": 1563,
      "hlale": 1564,
      "ezithinta": 1565,
      "ngisho": 1566,
      "khetha": 1567,
      "esibhe": 1568,
      "esiphezulu": 1569,
      "shana": 1570,
      "hleli": 1571,
      "hlelweni": 1572,
      "hola": 1573,
      "holwa": 1574,
      "Ngoku": 1575,
      "eliphezulu": 1576,
      "Sizo": 1577,
      "dingo": 1578,
      "inch": 1579,
      "dayisa": 1580,
      "dunankulu": 1581,
      "wesifundazwe": 1582,
      "dlunkulu": 1583,
      "izinsuku": 1584,
      "Solezwe": 1585,
      "sokuba": 1586,
      "xox": 1587,
      "Umthombo": 1588,
      "Phakathi": 1589,
      "jozi": 1590,
      "senze": 1591,
      "waseM": 1592,
      "Amaphoyisa": 1593,
      "ziwayo": 1594,
      "sezingeni": 1595,
      "lingisi": 1596,
      "qinisekisa": 1597,
      "yesigameko": 1598,
      "ngoMgqibelo": 1599,
      "Kodwa": 1600,
      "News": 1601,
      "gcwele": 1602,
      ").": 1603,
      "12": 1604,
      "Asi": 1605,
      "ELE": 1606,
      "Fi": 1607,
      "Gra": 1608,
      "Hlo": 1609,
      "IZ": 1610,
      "Kle": 1611,
      "Khumalo": 1612,
      "Nkosi": 1613,
      "Ph": 1614,
      "Ra": 1615,
      "Ri": 1616,
      "TH": 1617,
      "Te": 1618,
      "WA": 1619,
      "Wa": 1620,
      "am": 1621,
      "awa": 1622,
      "azi": 1623,
      "abu": 1624,
      "amehlo": 1625,
      "dela": 1626,
      "eye": 1627,
      "eyi": 1628,
      "eqo": 1629,
      "ezweni": 1630,
      "gqa": 1631,
      "hlwe": 1632,
      "id": 1633,
      "igama": 1634,
      "ithuba": 1635,
      "ju": 1636,
      "msebenzi": 1637,
      "othisha": 1638,
      "ongum": 1639,
      "sweni": 1640,
      "tre": 1641,
      "uthi": 1642,
      "uto": 1643,
      "usu": 1644,
      "zwi": 1645,
      "kuze": 1646,
      "kuhle": 1647,
      "kunezi": 1648,
      "kuqala": 1649,
      "kuvele": 1650,
      "kuchaza": 1651,
      "lahle": 1652,
      "baze": 1653,
      "war": 1654,
      "zinto": 1655,
      "enze": 1656,
      "enkulu": 1657,
      "singa": 1658,
      "khwa": 1659,
      "kheni": 1660,
      "thile": 1661,
      "linye": 1662,
      "nathi": 1663,
      "nawo": 1664,
      "ukuqo": 1665,
      "ukuphawula": 1666,
      "sekelo": 1667,
      "nie": 1668,
      "beku": 1669,
      "okunye": 1670,
      "okuyinto": 1671,
      "saba": 1672,
      "sakhe": 1673,
      "sakazi": 1674,
      "ababa": 1675,
      "abalandeli": 1676,
      "kethe": 1677,
      "zami": 1678,
      "yiswa": 1679,
      "kohla": 1680,
      "ngelo": 1681,
      "ngemigomo": 1682,
      "khundla": 1683,
      "lwango": 1684,
      "khakha": 1685,
      "khashana": 1686,
      "som": 1687,
      "izingane": 1688,
      "hlamvu": 1689,
      "amandla": 1690,
      "emcimbi": 1691,
      "ezin": 1692,
      "nginga": 1693,
      "tholwe": 1694,
      "nyela": 1695,
      "Mantshi": 1696,
      "isimo": 1697,
      "thule": 1698,
      "thuli": 1699,
      "thuki": 1700,
      "Ngeke": 1701,
      "mukela": 1702,
      "ngokubambisana": 1703,
      "sebenze": 1704,
      "pheshe": 1705,
      "Sihlalo": 1706,
      "phila": 1707,
      "nokunye": 1708,
      "Kuzo": 1709,
      "ndondo": 1710,
      "tiki": 1711,
      "ver": 1712,
      "duzo": 1713,
      "phakathini": 1714,
      "quko": 1715,
      "abesi": 1716,
      "qiniso": 1717,
      "kokuba": 1718,
      "phula": 1719,
      "Basa": 1720,
      "jikelele": 1721,
      "wenza": 1722,
      "Park": 1723,
      "Sambu": 1724,
      "ING": 1725,
      "lungise": 1726,
      "phambilini": 1727,
      "eyayi": 1728,
      "bonile": 1729,
      "chitha": 1730,
      "ntengo": 1731,
      "gxeka": 1732,
      "niningwane": 1733,
      "donsa": 1734,
      "ezintathu": 1735,
      "khonjiswa": 1736,
      "Ladysmi": 1737,
      "hluku": 1738,
      "eGoli": 1739,
      "maskandi": 1740,
      "esibhedlela": 1741,
      "Klebe": 1742,
      "emcimbini": 1743,
      "Sambudla": 1744,
      "Ladysmith": 1745,
      "11": 1746,
      "17": 1747,
      "18": 1748,
      "22": 1749,
      "25": 1750,
      "Bhe": 1751,
      "Em": 1752,
      "Esi": 1753,
      "Gama": 1754,
      "GEM": 1755,
      "Hol": 1756,
      "Iso": 1757,
      "Ithimba": 1758,
      "King": 1759,
      "LO": 1760,
      "Lesi": 1761,
      "Mba": 1762,
      "NSFAS": 1763,
      "Ti": 1764,
      "Top": 1765,
      "UV": 1766,
      "UZ": 1767,
      "Ukusho": 1768,
      "Uphinde": 1769,
      "UZuma": 1770,
      "We": 1771,
      "Xaba": 1772,
      "Yo": 1773,
      "cy": 1774,
      "caba": 1775,
      "cho": 1776,
      "ex": 1777,
      "ewu": 1778,
      "ehlukene": 1779,
      "ebhodi": 1780,
      "gra": 1781,
      "hlwa": 1782,
      "inga": 1783,
      "ine": 1784,
      "int": 1785,
      "ibandla": 1786,
      "ibhizinisi": 1787,
      "lt": 1788,
      "lle": 1789,
      "mm": 1790,
      "nqa": 1791,
      "nce": 1792,
      "nsuku": 1793,
      "nhloko": 1794,
      "oyi": 1795,
      "poli": 1796,
      "rs": 1797,
      "tri": 1798,
      "uS": 1799,
      "usi": 1800,
      "ungo": 1801,
      "vala": 1802,
      "zaba": 1803,
      "ën": 1804,
      "kum": 1805,
      "kuyi": 1806,
      "kuvela": 1807,
      "kubuye": 1808,
      "thenda": 1809,
      "baningi": 1810,
      "lelo": 1811,
      "enya": 1812,
      "enza": 1813,
      "enzo": 1814,
      "sibe": 1815,
      "sindo": 1816,
      "sifuna": 1817,
      "manga": 1818,
      "thiki": 1819,
      "lisile": 1820,
      "nalo": 1821,
      "nayo": 1822,
      "naso": 1823,
      "ukuyo": 1824,
      "ukubona": 1825,
      "ukuthola": 1826,
      "ndezi": 1827,
      "ndlovu": 1828,
      "selwa": 1829,
      "ngazo": 1830,
      "okunga": 1831,
      "yamthetho": 1832,
      "abasha": 1833,
      "ababili": 1834,
      "abasuke": 1835,
      "buke": 1836,
      "ngozi": 1837,
      "kezwe": 1838,
      "zathu": 1839,
      "yili": 1840,
      "yize": 1841,
      "thele": 1842,
      "thenga": 1843,
      "bonga": 1844,
      "umphakathi": 1845,
      "zemi": 1846,
      "zelwa": 1847,
      "koM": 1848,
      "komi": 1849,
      "konti": 1850,
      "khono": 1851,
      "yokhetho": 1852,
      "phambi": 1853,
      "khuza": 1854,
      "khulelwe": 1855,
      "njwe": 1856,
      "notho": 1857,
      "hanje": 1858,
      "hambisa": 1859,
      "hambisana": 1860,
      "khalo": 1861,
      "sonke": 1862,
      "izitshudeni": 1863,
      "hlango": 1864,
      "amazwe": 1865,
      "tholi": 1866,
      "nyakenye": 1867,
      "njenge": 1868,
      "njengama": 1869,
      "kwemi": 1870,
      "esizo": 1871,
      "shaja": 1872,
      "kibha": 1873,
      "isigameko": 1874,
      "isicelo": 1875,
      "isigwebo": 1876,
      "ciko": 1877,
      "cindezi": 1878,
      "woMnyango": 1879,
      "bene": 1880,
      "ngenzeka": 1881,
      "fani": 1882,
      "Ngisi": 1883,
      "Ngemuva": 1884,
      "ngokuhlanga": 1885,
      "mbango": 1886,
      "uthela": 1887,
      "phisa": 1888,
      "phikisa": 1889,
      "nokuzi": 1890,
      "kulezi": 1891,
      "ndleko": 1892,
      "hlola": 1893,
      "wula": 1894,
      "cation": 1895,
      "inselelo": 1896,
      "shisa": 1897,
      "shiye": 1898,
      "bheyili": 1899,
      "finye": 1900,
      "imizi": 1901,
      "qaleni": 1902,
      "ekubeni": 1903,
      "qungq": 1904,
      "njalo": 1905,
      "xazulu": 1906,
      "vishini": 1907,
      "umoya": 1908,
      "nabantu": 1909,
      "nywa": 1910,
      "kubantu": 1911,
      "xoxa": 1912,
      "nquma": 1913,
      "SAP": 1914,
      "SABC": 1915,
      "eminyakeni": 1916,
      "yisithu": 1917,
      "wokuthi": 1918,
      "giso": 1919,
      "asebe": 1920,
      "eMnyangweni": 1921,
      "paper": 1922,
      "jabulisa": 1923,
      "folo": 1924,
      "gwaza": 1925,
      "lungiswa": 1926,
      "kungabi": 1927,
      "nenkinga": 1928,
      "lling": 1929,
      "ngoLwesithathu": 1930,
      "qhaza": 1931,
      "qhamuka": 1932,
      "iNkantolo": 1933,
      "hambela": 1934,
      "uDkt": 1935,
      "Khomishini": 1936,
      "dalule": 1937,
      "khumbula": 1938,
      "Citro": 1939,
      "phakami": 1940,
      "khankaso": 1941,
      "Shayamthetho": 1942,
      "khokhela": 1943,
      "lamaZayoni": 1944,
      "semthethweni": 1945,
      "gungundlovu": 1946,
      "hembani": 1947,
      "omusha": 1948,
      "yimpoqo": 1949,
      "ncintiswano": 1950,
      "gembula": 1951,
      "Newspaper": 1952,
      "Basalt": 1953,
      "GEMS": 1954,
      "gram": 1955,
      "politiki": 1956,
      "thikithi": 1957,
      "kontileka": 1958,
      "ngokuhlanganyela": 1959,
      "Citroën": 1960,
      "Newspapers": 1961,
      "14": 1962,
      "95": 1963,
      "AB": 1964,
      "Aya": 1965,
      "Bu": 1966,
      "Edu": 1967,
      "Fan": 1968,
      "GQ": 1969,
      "IE": 1970,
      "Imi": 1971,
      "Kwen": 1972,
      "Pe": 1973,
      "SH": 1974,
      "To": 1975,
      "YA": 1976,
      "YE": 1977,
      "athe": 1978,
      "angi": 1979,
      "akhe": 1980,
      "cre": 1981,
      "cabanga": 1982,
      "ction": 1983,
      "ctor": 1984,
      "dini": 1985,
      "ethe": 1986,
      "eyo": 1987,
      "epha": 1988,
      "ethinta": 1989,
      "eyokuthi": 1990,
      "ekhaya": 1991,
      "gq": 1992,
      "haba": 1993,
      "ikha": 1994,
      "izwe": 1995,
      "ibuya": 1996,
      "intengo": 1997,
      "je": 1998,
      "km": 1999,
      "onga": 2000,
      "okwe": 2001,
      "ohlelweni": 2002,
      "rum": 2003,
      "scre": 2004,
      "tv": 2005,
      "ul": 2006,
      "up": 2007,
      "ut": 2008,
      "uso": 2009,
      "uphinde": 2010,
      "uyena": 2011,
      "uPa": 2012,
      "uphenyo": 2013,
      "kuno": 2014,
      "kundleni": 2015,
      "kuphinde": 2016,
      "kuqhubeka": 2017,
      "kunesi": 2018,
      "thumele": 2019,
      "bathe": 2020,
      "bavu": 2021,
      "walo": 2022,
      "wabe": 2023,
      "wane": 2024,
      "wawo": 2025,
      "waKwaZulu": 2026,
      "ward": 2027,
      "enkundleni": 2028,
      "simo": 2029,
      "sifo": 2030,
      "kaZwe": 2031,
      "kamaskandi": 2032,
      "mary": 2033,
      "thinte": 2034,
      "lithini": 2035,
      "lohulumeni": 2036,
      "nake": 2037,
      "nakho": 2038,
      "wezwe": 2039,
      "weMKP": 2040,
      "weTheku": 2041,
      "phini": 2042,
      "ukubheka": 2043,
      "ngathi": 2044,
      "ngaso": 2045,
      "okufanele": 2046,
      "sazi": 2047,
      "abasa": 2048,
      "buyisa": 2049,
      "yemali": 2050,
      "yeMantshi": 2051,
      "kezwa": 2052,
      "zani": 2053,
      "zakwabo": 2054,
      "bolo": 2055,
      "phathwa": 2056,
      "njwa": 2057,
      "khandlu": 2058,
      "soka": 2059,
      "sobu": 2060,
      "izindawo": 2061,
      "hlanhla": 2062,
      "amagama": 2063,
      "emo": 2064,
      "emthethweni": 2065,
      "esiNgisi": 2066,
      "kila": 2067,
      "Mashi": 2068,
      "Magi": 2069,
      "isibalo": 2070,
      "wom": 2071,
      "fakwe": 2072,
      "uMbuso": 2073,
      "Ngwen": 2074,
      "muke": 2075,
      "umalo": 2076,
      "endeni": 2077,
      "endlini": 2078,
      "tori": 2079,
      "Sifuna": 2080,
      "phile": 2081,
      "dili": 2082,
      "Kufanele": 2083,
      "khathini": 2084,
      "ndoda": 2085,
      "tic": 2086,
      "daka": 2087,
      "imibuzo": 2088,
      "imininingwane": 2089,
      "dlalweni": 2090,
      "dede": 2091,
      "UMHO": 2092,
      "bonakale": 2093,
      "shelwe": 2094,
      "sheshe": 2095,
      "fundiseni": 2096,
      "coco": 2097,
      "vimba": 2098,
      "zwakala": 2099,
      "kuzoba": 2100,
      "2023": 2101,
      "izoba": 2102,
      "emihlanu": 2103,
      "kwezinye": 2104,
      "retori": 2105,
      "ndawonye": 2106,
      "joyi": 2107,
      "jovo": 2108,
      "nyunyana": 2109,
      "eNkulu": 2110,
      "senza": 2111,
      "endawo": 2112,
      "Sassa": 2113,
      "gwaq": 2114,
      "lungisa": 2115,
      "buyela": 2116,
      "nxusa": 2117,
      "ngoLwesibili": 2118,
      "ngoLwesihlanu": 2119,
      "fanayo": 2120,
      "Car": 2121,
      "zinsuku": 2122,
      "kusasa": 2123,
      "sebenzisana": 2124,
      "ebandleni": 2125,
      "sakazo": 2126,
      "Unite": 2127,
      "osaziwayo": 2128,
      "ngoMsombuluko": 2129,
      "odana": 2130,
      "basekhaya": 2131,
      "Okunye": 2132,
      "mhlanje": 2133,
      "App": 2134,
      "Funda": 2135,
      "jwayelekile": 2136,
      "wezokuThu": 2137,
      "Billing": 2138,
      "HIV": 2139,
      "ports": 2140,
      "dutshulwa": 2141,
      "hlukani": 2142,
      "Meyiwa": 2143,
      "Primary": 2144,
      "izinguquko": 2145,
      "Phini": 2146,
      "Isolezwe": 2147,
      "ungose": 2148,
      "thelevishini": 2149,
      "hanjelwe": 2150,
      "qungquthela": 2151,
      "yisithupha": 2152,
      "Education": 2153,
      "Kwenzeka": 2154,
      "screen": 2155,
      "Magic": 2156,
      "Ngwenya": 2157,
      "UMHOLI": 2158,
      "retoria": 2159,
      "16": 2160,
      "36": 2161,
      "50": 2162,
      "80": 2163,
      "AM": 2164,
      "AZ": 2165,
      "Ar": 2166,
      "Angi": 2167,
      "Aga": 2168,
      "Auto": 2169,
      "Ch": 2170,
      "Ezi": 2171,
      "Fe": 2172,
      "Festival": 2173,
      "Go": 2174,
      "Gwar": 2175,
      "IC": 2176,
      "Laba": 2177,
      "Lezi": 2178,
      "Leli": 2179,
      "Mkhwanazi": 2180,
      "Nt": 2181,
      "Nkantolo": 2182,
      "Oma": 2183,
      "Pho": 2184,
      "R7": 2185,
      "Sho": 2186,
      "SUV": 2187,
      "Scho": 2188,
      "UNksz": 2189,
      "UMasemola": 2190,
      "UNkk": 2191,
      "ZE": 2192,
      "ahla": 2193,
      "abenza": 2194,
      "dtu": 2195,
      "dlelwa": 2196,
      "dume": 2197,
      "eng": 2198,
      "eyoku": 2199,
      "fe": 2200,
      "ff": 2201,
      "fini": 2202,
      "hy": 2203,
      "ila": 2204,
      "ina": 2205,
      "ize": 2206,
      "indi": 2207,
      "iva": 2208,
      "iSilo": 2209,
      "klo": 2210,
      "ly": 2211,
      "nhlobo": 2212,
      "oba": 2213,
      "othi": 2214,
      "odlule": 2215,
      "oMnyango": 2216,
      "ongase": 2217,
      "rth": 2218,
      "rhu": 2219,
      "tlala": 2220,
      "ue": 2221,
      "ubo": 2222,
      "uthu": 2223,
      "ute": 2224,
      "uch": 2225,
      "usizo": 2226,
      "ushu": 2227,
      "udaba": 2228,
      "uthando": 2229,
      "vumele": 2230,
      "wuku": 2231,
      "ywa": 2232,
      "kuna": 2233,
      "kusuke": 2234,
      "kuwona": 2235,
      "kungenzeka": 2236,
      "ngcindezi": 2237,
      "langa": 2238,
      "lalelwa": 2239,
      "bathi": 2240,
      "bakwazi": 2241,
      "bambe": 2242,
      "wami": 2243,
      "zika": 2244,
      "sisa": 2245,
      "sisekelo": 2246,
      "kali": 2247,
      "kash": 2248,
      "kaze": 2249,
      "khele": 2250,
      "khwama": 2251,
      "mane": 2252,
      "maduze": 2253,
      "lilo": 2254,
      "lizo": 2255,
      "wele": 2256,
      "wethimba": 2257,
      "webandla": 2258,
      "pheni": 2259,
      "ukum": 2260,
      "set": 2261,
      "sengathi": 2262,
      "nikwa": 2263,
      "nikazi": 2264,
      "luzo": 2265,
      "ngaba": 2266,
      "ngazi": 2267,
      "bela": 2268,
      "bezo": 2269,
      "okuzo": 2270,
      "sabantu": 2271,
      "abase": 2272,
      "abafuna": 2273,
      "abaholi": 2274,
      "ntweni": 2275,
      "ngoJuni": 2276,
      "zame": 2277,
      "yizo": 2278,
      "yiseni": 2279,
      "zobu": 2280,
      "umlando": 2281,
      "biza": 2282,
      "misi": 2283,
      "mizwa": 2284,
      "misele": 2285,
      "ngeminyaka": 2286,
      "phara": 2287,
      "khule": 2288,
      "kwathi": 2289,
      "noNksz": 2290,
      "sotho": 2291,
      "izikhala": 2292,
      "izikole": 2293,
      "izibonelelo": 2294,
      "hlahla": 2295,
      "hlangene": 2296,
      "eme": 2297,
      "emzini": 2298,
      "emphakathini": 2299,
      "emgwaq": 2300,
      "ezinya": 2301,
      "ngisa": 2302,
      "thombe": 2303,
      "nyathelo": 2304,
      "hulani": 2305,
      "huzani": 2306,
      "kweminyaka": 2307,
      "kweSilo": 2308,
      "thaka": 2309,
      "khethe": 2310,
      "esinga": 2311,
      "eside": 2312,
      "esikoleni": 2313,
      "mbise": 2314,
      "Matlala": 2315,
      "isikole": 2316,
      "isicoco": 2317,
      "nguM": 2318,
      "cial": 2319,
      "worth": 2320,
      "benze": 2321,
      "thulo": 2322,
      "uMphathiswa": 2323,
      "Ngco": 2324,
      "phoyiseni": 2325,
      "mond": 2326,
      "sebenzela": 2327,
      "ndile": 2328,
      "tolo": 2329,
      "dier": 2330,
      "valwa": 2331,
      "vakash": 2332,
      "kwente": 2333,
      "kwenzile": 2334,
      "Kuya": 2335,
      "Kubikwa": 2336,
      "ril": 2337,
      "riga": 2338,
      "caca": 2339,
      "caleni": 2340,
      "inkampani": 2341,
      "susa": 2342,
      "sukela": 2343,
      "yokunga": 2344,
      "mpi": 2345,
      "velo": 2346,
      "fiso": 2347,
      "imithetho": 2348,
      "teji": 2349,
      "teshini": 2350,
      "qashwe": 2351,
      "gatsha": 2352,
      "hluleka": 2353,
      "izinkampani": 2354,
      "gcize": 2355,
      "stri": 2356,
      "namaphoyisa": 2357,
      "njaro": 2358,
      "hlangana": 2359,
      "cwani": 2360,
      "lokubulala": 2361,
      "ngaphambili": 2362,
      "gebenga": 2363,
      "emalo": 2364,
      "emahhovisi": 2365,
      "kuzokwenza": 2366,
      "landele": 2367,
      "tholakale": 2368,
      "umufi": 2369,
      "thethosisekelo": 2370,
      "ezepolitiki": 2371,
      "ndelene": 2372,
      "ayikho": 2373,
      "orth": 2374,
      "Ngiya": 2375,
      "Lesotho": 2376,
      "uTha": 2377,
      "uThulani": 2378,
      "Sadtu": 2379,
      "chmond": 2380,
      "thandana": 2381,
      "obeku": 2382,
      "ngomculo": 2383,
      "ngomlando": 2384,
      "shayela": 2385,
      "ngoLwesine": 2386,
      "Cape": 2387,
      "ISI": 2388,
      "uMazibuko": 2389,
      "zomphakathi": 2390,
      "isane": 2391,
      "phawule": 2392,
      "phenya": 2393,
      "Zion": 2394,
      "bezindaba": 2395,
      "hlonipha": 2396,
      "wezeMfundo": 2397,
      "sakazweni": 2398,
      "Univer": 2399,
      "konzweni": 2400,
      "High": 2401,
      "impi": 2402,
      "Insta": 2403,
      "Mpungose": 2404,
      "phendule": 2405,
      "Gaute": 2406,
      "African": 2407,
      "yoMthethosisekelo": 2408,
      "Chana": 2409,
      "Thami": 2410,
      "Vusi": 2411,
      "sunguli": 2412,
      "nendlela": 2413,
      "port": 2414,
      "okwamanje": 2415,
      "uLondie": 2416,
      "bhekise": 2417,
      "Richmond": 2418,
      "gqamisa": 2419,
      "phesheya": 2420,
      "abesifazane": 2421,
      "komiti": 2422,
      "finyelele": 2423,
      "SAPS": 2424,
      "phakamiso": 2425,
      "Fannie": 2426,
      "kilasini": 2427,
      "dakamizwa": 2428,
      "Agasti": 2429,
      "Gwarube": 2430,
      "School": 2431,
      "ongasekho": 2432,
      "rhuleni": 2433,
      "pharafini": 2434,
      "Ngcobo": 2435,
      "kwentengo": 2436,
      "rigadier": 2437,
      "Instagram": 2438,
      "Gauteng": 2439,
      "100": 2440,
      "500": 2441,
      "AC": 2442,
      "Award": 2443,
      "Baba": 2444,
      "Cya": 2445,
      "Cent": 2446,
      "DS": 2447,
      "De": 2448,
      "Do": 2449,
      "Dlu": 2450,
      "Duma": 2451,
      "Eng": 2452,
      "Eqhuba": 2453,
      "Fa": 2454,
      "HAN": 2455,
      "IM": 2456,
      "KM": 2457,
      "Mthe": 2458,
      "Mini": 2459,
      "Nx": 2460,
      "Nta": 2461,
      "Ndunankulu": 2462,
      "Ndlunkulu": 2463,
      "Nje": 2464,
      "OB": 2465,
      "Omunye": 2466,
      "Pretoria": 2467,
      "R2": 2468,
      "RS": 2469,
      "Re": 2470,
      "Shaba": 2471,
      "TR": 2472,
      "Tho": 2473,
      "Ube": 2474,
      "Ubu": 2475,
      "Uqhube": 2476,
      "Uhulumeni": 2477,
      "URamaphosa": 2478,
      "Udalule": 2479,
      "Vele": 2480,
      "Xo": 2481,
      "ar": 2482,
      "alu": 2483,
      "angama": 2484,
      "angene": 2485,
      "aqhubeke": 2486,
      "bri": 2487,
      "con": 2488,
      "dwe": 2489,
      "eq": 2490,
      "ethu": 2491,
      "for": 2492,
      "gaba": 2493,
      "gqo": 2494,
      "hlisa": 2495,
      "humu": 2496,
      "iba": 2497,
      "ito": 2498,
      "isu": 2499,
      "ifuna": 2500,
      "iswe": 2501,
      "ilungu": 2502,
      "iMKP": 2503,
      "iNgonyama": 2504,
      "iMbube": 2505,
      "iqiniso": 2506,
      "indoda": 2507,
      "jele": 2508,
      "ld": 2509,
      "menye": 2510,
      "mfundo": 2511,
      "mendeni": 2512,
      "nweni": 2513,
      "nkinga": 2514,
      "nhlekelele": 2515,
      "othe": 2516,
      "ono": 2517,
      "ora": 2518,
      "ost": 2519,
      "okoku": 2520,
      "obala": 2521,
      "omasipala": 2522,
      "qwa": 2523,
      "ssi": 2524,
      "tweni": 2525,
      "uJ": 2526,
      "uW": 2527,
      "ub": 2528,
      "uli": 2529,
      "ukwa": 2530,
      "unyaka": 2531,
      "uthole": 2532,
      "uNgqongqoshe": 2533,
      "uphawule": 2534,
      "uXo": 2535,
      "veni": 2536,
      "vemba": 2537,
      "xusa": 2538,
      "ywe": 2539,
      "yho": 2540,
      "zz": 2541,
      "kuphi": 2542,
      "kuda": 2543,
      "kubhe": 2544,
      "kude": 2545,
      "kuningi": 2546,
      "kukhombisa": 2547,
      "kugxi": 2548,
      "ngwini": 2549,
      "thumela": 2550,
      "lazi": 2551,
      "lapha": 2552,
      "bama": 2553,
      "bayi": 2554,
      "lena": 2555,
      "leso": 2556,
      "lethu": 2557,
      "zibe": 2558,
      "ziya": 2559,
      "ziyo": 2560,
      "zingeni": 2561,
      "zingaka": 2562,
      "enki": 2563,
      "encane": 2564,
      "sic": 2565,
      "sigameko": 2566,
      "sikole": 2567,
      "kakhe": 2568,
      "kaZulu": 2569,
      "kahlanu": 2570,
      "kangaka": 2571,
      "kaMadlanga": 2572,
      "khen": 2573,
      "mandla": 2574,
      "maqembu": 2575,
      "mastende": 2576,
      "liya": 2577,
      "liyo": 2578,
      "ligh": 2579,
      "lodwa": 2580,
      "naku": 2581,
      "nani": 2582,
      "namhlanje": 2583,
      "wethu": 2584,
      "wePhasika": 2585,
      "phumu": 2586,
      "ukukhu": 2587,
      "ukukhuluma": 2588,
      "ukubulala": 2589,
      "ukuvikela": 2590,
      "ndu": 2591,
      "ndum": 2592,
      "ndela": 2593,
      "ndweni": 2594,
      "seThekwini": 2595,
      "sh1": 2596,
      "ngabo": 2597,
      "beli": 2598,
      "beqembu": 2599,
      "bebandla": 2600,
      "okuningi": 2601,
      "okulindeleke": 2602,
      "yawo": 2603,
      "abazi": 2604,
      "abane": 2605,
      "abazalwane": 2606,
      "buze": 2607,
      "buyise": 2608,
      "ntso": 2609,
      "ngokwenza": 2610,
      "ngosuku": 2611,
      "ngoMashi": 2612,
      "yela": 2613,
      "yeli": 2614,
      "yeminyaka": 2615,
      "kekho": 2616,
      "yingakho": 2617,
      "zoM": 2618,
      "zolo": 2619,
      "bophe": 2620,
      "boshiwe": 2621,
      "umbu": 2622,
      "umshado": 2623,
      "umsindo": 2624,
      "umkhankaso": 2625,
      "zeli": 2626,
      "zelwe": 2627,
      "kobu": 2628,
      "kombiko": 2629,
      "bile": 2630,
      "billion": 2631,
      "mina": 2632,
      "kholo": 2633,
      "khokha": 2634,
      "khonya": 2635,
      "khomba": 2636,
      "ngemali": 2637,
      "ngecala": 2638,
      "pham": 2639,
      "khuba": 2640,
      "khutha": 2641,
      "kwazo": 2642,
      "kwalesi": 2643,
      "kwalokho": 2644,
      "khasi": 2645,
      "khakheni": 2646,
      "soli": 2647,
      "sondo": 2648,
      "izing": 2649,
      "izifundo": 2650,
      "izikibha": 2651,
      "izinyathelo": 2652,
      "hlaka": 2653,
      "amanye": 2654,
      "amabolo": 2655,
      "emp": 2656,
      "emhlanga": 2657,
      "emeze": 2658,
      "emsakazweni": 2659,
      "ezinga": 2660,
      "ezizo": 2661,
      "ngizo": 2662,
      "tholwa": 2663,
      "njengo": 2664,
      "kwese": 2665,
      "thakusa": 2666,
      "khelwane": 2667,
      "khemisi": 2668,
      "esiShayamthetho": 2669,
      "nyelwa": 2670,
      "shane": 2671,
      "Manje": 2672,
      "Majozi": 2673,
      "isihlobo": 2674,
      "isitatimende": 2675,
      "nguNgqongqoshe": 2676,
      "wokholo": 2677,
      "ngenza": 2678,
      "fakwa": 2679,
      "hox": 2680,
      "khulume": 2681,
      "muhla": 2682,
      "qotho": 2683,
      "ngokuba": 2684,
      "ngokuzi": 2685,
      "ngokusemthethweni": 2686,
      "umasipala": 2687,
      "mbama": 2688,
      "monakalo": 2689,
      "ndisa": 2690,
      "touch": 2691,
      "Simela": 2692,
      "phiwe": 2693,
      "dinga": 2694,
      "didi": 2695,
      "nuwari": 2696,
      "kwenziwa": 2697,
      "Kule": 2698,
      "Kurhuleni": 2699,
      "tsheni": 2700,
      "rist": 2701,
      "tile": 2702,
      "cal": 2703,
      "info": 2704,
      "inment": 2705,
      "inkonzo": 2706,
      "tainment": 2707,
      "sule": 2708,
      "zokuba": 2709,
      "zokushaja": 2710,
      "dale": 2711,
      "dayiswa": 2712,
      "yokukhetha": 2713,
      "bhekele": 2714,
      "mpilo": 2715,
      "imisebenzi": 2716,
      "imicimbi": 2717,
      "imiphumela": 2718,
      "dlame": 2719,
      "dulinde": 2720,
      "bhale": 2721,
      "bhange": 2722,
      "qalile": 2723,
      "UMC": 2724,
      "UMnuz": 2725,
      "UMkhwanazi": 2726,
      "ran": 2727,
      "2019": 2728,
      "eneral": 2729,
      "vula": 2730,
      "jabula": 2731,
      "jaji": 2732,
      "izincwadi": 2733,
      "gcini": 2734,
      "gcineni": 2735,
      "sty": 2736,
      "ekufundiseni": 2737,
      "hingo": 2738,
      "fundiswa": 2739,
      "Nanda": 2740,
      "National": 2741,
      "cob": 2742,
      "khishwe": 2743,
      "vile": 2744,
      "vice": 2745,
      "email": 2746,
      "emaphoyiseni": 2747,
      "emakilasini": 2748,
      "mboni": 2749,
      "mbono": 2750,
      "zwaka": 2751,
      "ntambama": 2752,
      "kwazise": 2753,
      "2022": 2754,
      "gula": 2755,
      "gunya": 2756,
      "akukho": 2757,
      "mbela": 2758,
      "umuzi": 2759,
      "yisikhathi": 2760,
      "Abasolwa": 2761,
      "uzoba": 2762,
      "phuza": 2763,
      "wokubambisana": 2764,
      "ngezindlela": 2765,
      "oluzayo": 2766,
      "Lewi": 2767,
      "jika": 2768,
      "wena": 2769,
      "engaka": 2770,
      "esezingeni": 2771,
      "waseKurhuleni": 2772,
      "ngqongqoshe": 2773,
      "qede": 2774,
      "IND": 2775,
      "akazange": 2776,
      "sizakala": 2777,
      "Meya": 2778,
      "Medi": 2779,
      "Metro": 2780,
      "balale": 2781,
      "ushonele": 2782,
      "ngempilo": 2783,
      "Mina": 2784,
      "Nokho": 2785,
      "Novemba": 2786,
      "LED": 2787,
      "hlise": 2788,
      "qinisekise": 2789,
      "nciphisa": 2790,
      "memora": 2791,
      "neminye": 2792,
      "pheleni": 2793,
      "nobuhle": 2794,
      "phethwe": 2795,
      "kwenzeke": 2796,
      "hlonishwa": 2797,
      "Januwari": 2798,
      "Jacob": 2799,
      "ULU": 2800,
      "hambele": 2801,
      "khokhelwe": 2802,
      "ebise": 2803,
      "uDuma": 2804,
      "xhaso": 2805,
      "tshelwe": 2806,
      "Hill": 2807,
      "odalwe": 2808,
      "yalelo": 2809,
      "gxekwa": 2810,
      "City": 2811,
      "dubulana": 2812,
      "Lundi": 2813,
      "Thato": 2814,
      "osomabhizinisi": 2815,
      "sungulwa": 2816,
      "Khaya": 2817,
      "nendodana": 2818,
      "dutshulwe": 2819,
      "phumelele": 2820,
      "umile": 2821,
      "State": 2822,
      "cekeceke": 2823,
      "nqoba": 2824,
      "nkosini": 2825,
      "Reddy": 2826,
      "ikakhulukazi": 2827,
      "zimbeni": 2828,
      "enjini": 2829,
      "zaseKhaya": 2830,
      "senzeke": 2831,
      "Grade": 2832,
      "Team": 2833,
      "ukuqokwa": 2834,
      "kohlakalo": 2835,
      "thukiswa": 2836,
      "hlukume": 2837,
      "Holworth": 2838,
      "intela": 2839,
      "nqamu": 2840,
      "koMphakathi": 2841,
      "hlangothi": 2842,
      "Ayanda": 2843,
      "kaZwelithini": 2844,
      "diliza": 2845,
      "Ntwana": 2846,
      "Omacekeceke": 2847,
      "hybri": 2848,
      "emgwaqweni": 2849,
      "cwaningo": 2850,
      "Awards": 2851,
      "Cyan": 2852,
      "Velenkosini": 2853,
      "humusha": 2854,
      "uXolani": 2855,
      "kugxilwe": 2856,
      "lights": 2857,
      "emhlanganweni": 2858,
      "touchscreen": 2859,
      "Simelane": 2860,
      "infotainment": 2861,
      "Lewis": 2862,
      "memorandum": 2863,
      "Holworthy": 2864,
      "hybrid": 2865,
      "\".": 2866,
      "28": 2867,
      "45": 2868,
      "78": 2869,
      "90": 2870,
      ":\"": 2871,
      "AT": 2872,
      "And": 2873,
      "Cho": 2874,
      "Chi": 2875,
      "DJ": 2876,
      "Da": 2877,
      "Dube": 2878,
      "DLA": 2879,
      "Emp": 2880,
      "ELA": 2881,
      "ELI": 2882,
      "GO": 2883,
      "Gumbi": 2884,
      "IB": 2885,
      "Iya": 2886,
      "Ithe": 2887,
      "ILE": 2888,
      "LAN": 2889,
      "Mswe": 2890,
      "Mpa": 2891,
      "Mbalula": 2892,
      "Melika": 2893,
      "Nto": 2894,
      "Nda": 2895,
      "Ningizimu": 2896,
      "NUZ": 2897,
      "North": 2898,
      "OR": 2899,
      "Okwa": 2900,
      "OSH": 2901,
      "PH": 2902,
      "Pla": 2903,
      "Poli": 2904,
      "Que": 2905,
      "RIS": 2906,
      "Rus": 2907,
      "SI": 2908,
      "Sesi": 2909,
      "Ste": 2910,
      "Spe": 2911,
      "Senzo": 2912,
      "Ukuba": 2913,
      "UXaba": 2914,
      "Vi": 2915,
      "ad": 2916,
      "alo": 2917,
      "athu": 2918,
      "akazi": 2919,
      "aphinde": 2920,
      "asebenze": 2921,
      "ct": 2922,
      "eV": 2923,
      "et": 2924,
      "efu": 2925,
      "ekha": 2926,
      "ephe": 2927,
      "ezoku": 2928,
      "ebha": 2929,
      "efuna": 2930,
      "ephakathi": 2931,
      "eqembu": 2932,
      "efanele": 2933,
      "eduze": 2934,
      "eDurban": 2935,
      "ecaleni": 2936,
      "ejele": 2937,
      "festival": 2938,
      "gy": 2939,
      "gco": 2940,
      "gqoka": 2941,
      "iyi": 2942,
      "ihla": 2943,
      "ikhona": 2944,
      "imeni": 2945,
      "indaba": 2946,
      "iMo": 2947,
      "iyona": 2948,
      "iCa": 2949,
      "ifika": 2950,
      "ithenda": 2951,
      "juba": 2952,
      "lla": 2953,
      "lwini": 2954,
      "mfi": 2955,
      "mqoka": 2956,
      "mnandi": 2957,
      "mncintiswano": 2958,
      "mjovo": 2959,
      "msakazo": 2960,
      "nthi": 2961,
      "nco": 2962,
      "nzeka": 2963,
      "nhlangano": 2964,
      "ofu": 2965,
      "obese": 2966,
      "ozayo": 2967,
      "ophethe": 2968,
      "oyedwa": 2969,
      "oKlebe": 2970,
      "onobuhle": 2971,
      "pp": 2972,
      "qh": 2973,
      "qwini": 2974,
      "qwaba": 2975,
      "rro": 2976,
      "sy": 2977,
      "sto": 2978,
      "spe": 2979,
      "tela": 2980,
      "ung": 2981,
      "uci": 2982,
      "uqo": 2983,
      "udu": 2984,
      "uhlu": 2985,
      "ukwazi": 2986,
      "uLe": 2987,
      "uNo": 2988,
      "utshele": 2989,
      "uLi": 2990,
      "ulwazi": 2991,
      "ven": 2992,
      "vuma": 2993,
      "vumela": 2994,
      "wn": 2995,
      "xh": 2996,
      "yk": 2997,
      "zabantu": 2998,
      "kula": 2999
    },
    "merges": [
      [
        "k",
        "u"
      ],
      [
        "n",
        "g"
      ],
      [
        "t",
        "h"
      ],
      [
        "l",
        "a"
      ],
      [
        "b",
        "a"
      ],
      [
        "l",
        "e"
      ],
      [
        "w",
        "a"
      ],
      [
        "z",
        "i"
      ],
      [
        "e",
        "n"
      ],
      [
        "s",
        "i"
      ],
      [
        "k",
        "a"
      ],
      [
        "k",
        "h"
      ],
      [
        "m",
        "a"
      ],
      [
        "th",
        "i"
      ],
      [
        "l",
        "i"
      ],
      [
        "l",
        "o"
      ],
      [
        "n",
        "a"
      ],
      [
        "w",
        "e"
      ],
      [
        "p",
        "h"
      ],
      [
        "u",
        "ku"
      ],
      [
        "n",
        "d"
      ],
      [
        "s",
        "e"
      ],
      [
        "n",
        "i"
      ],
      [
        "l",
        "u"
      ],
      [
        "s",
        "h"
      ],
      [
        "ng",
        "a"
      ],
      [
        "b",
        "e"
      ],
      [
        "o",
        "ku"
      ],
      [
        "y",
        "a"
      ],
      [
        "s",
        "a"
      ],
      [
        "n",
        "e"
      ],
      [
        "a",
        "ba"
      ],
      [
        "b",
        "u"
      ],
      [
        "n",
        "t"
      ],
      [
        "ng",
        "o"
      ],
      [
        "y",
        "e"
      ],
      [
        "k",
        "e"
      ],
      [
        "z",
        "a"
      ],
      [
        "y",
        "i"
      ],
      [
        "z",
        "o"
      ],
      [
        "en",
        "i"
      ],
      [
        "th",
        "e"
      ],
      [
        "b",
        "o"
      ],
      [
        "u",
        "m"
      ],
      [
        "uku",
        "thi"
      ],
      [
        "z",
        "e"
      ],
      [
        "k",
        "o"
      ],
      [
        "b",
        "i"
      ],
      [
        "m",
        "i"
      ],
      [
        "kh",
        "o"
      ],
      [
        "ng",
        "e"
      ],
      [
        "f",
        "u"
      ],
      [
        "y",
        "o"
      ],
      [
        "ph",
        "a"
      ],
      [
        "kh",
        "u"
      ],
      [
        "k",
        "wa"
      ],
      [
        "n",
        "j"
      ],
      [
        "n",
        "o"
      ],
      [
        "h",
        "a"
      ],
      [
        "l",
        "wa"
      ],
      [
        "kh",
        "a"
      ],
      [
        "s",
        "o"
      ],
      [
        "i",
        "zi"
      ],
      [
        "h",
        "la"
      ],
      [
        "a",
        "ma"
      ],
      [
        "e",
        "m"
      ],
      [
        "e",
        "zi"
      ],
      [
        "ng",
        "i"
      ],
      [
        "e",
        "le"
      ],
      [
        "e",
        "la"
      ],
      [
        "th",
        "o"
      ],
      [
        "n",
        "ya"
      ],
      [
        "nj",
        "e"
      ],
      [
        "h",
        "u"
      ],
      [
        "k",
        "we"
      ],
      [
        "th",
        "a"
      ],
      [
        "kh",
        "e"
      ],
      [
        "e",
        "si"
      ],
      [
        "n",
        "ye"
      ],
      [
        "m",
        "bi"
      ],
      [
        "sh",
        "a"
      ],
      [
        "k",
        "i"
      ],
      [
        "M",
        "a"
      ],
      [
        "h",
        "le"
      ],
      [
        "k",
        "w"
      ],
      [
        "i",
        "si"
      ],
      [
        "ng",
        "u"
      ],
      [
        "a",
        "la"
      ],
      [
        "c",
        "i"
      ],
      [
        "h",
        "e"
      ],
      [
        "nt",
        "o"
      ],
      [
        "w",
        "eni"
      ],
      [
        "w",
        "o"
      ],
      [
        "b",
        "en"
      ],
      [
        "th",
        "u"
      ],
      [
        "nd",
        "a"
      ],
      [
        "sh",
        "o"
      ],
      [
        "nt",
        "u"
      ],
      [
        "ng",
        "en"
      ],
      [
        "f",
        "a"
      ],
      [
        "h",
        "o"
      ],
      [
        "i",
        "ni"
      ],
      [
        "l",
        "we"
      ],
      [
        "u",
        "M"
      ],
      [
        "khu",
        "lu"
      ],
      [
        "N",
        "g"
      ],
      [
        "m",
        "u"
      ],
      [
        "ph",
        "o"
      ],
      [
        "q",
        "o"
      ],
      [
        "ng",
        "oku"
      ],
      [
        "u",
        "ma"
      ],
      [
        "e",
        "li"
      ],
      [
        "ngo",
        "ba"
      ],
      [
        "m",
        "ba"
      ],
      [
        "m",
        "o"
      ],
      [
        "se",
        "ben"
      ],
      [
        "kho",
        "na"
      ],
      [
        "u",
        "the"
      ],
      [
        "ph",
        "e"
      ],
      [
        "en",
        "d"
      ],
      [
        "nd",
        "i"
      ],
      [
        "t",
        "o"
      ],
      [
        "S",
        "i"
      ],
      [
        "ph",
        "i"
      ],
      [
        "d",
        "i"
      ],
      [
        "v",
        "a"
      ],
      [
        "d",
        "wa"
      ],
      [
        "n",
        "u"
      ],
      [
        "kw",
        "en"
      ],
      [
        "n",
        "oku"
      ],
      [
        "K",
        "u"
      ],
      [
        "m",
        "e"
      ],
      [
        "t",
        "sh"
      ],
      [
        "ku",
        "le"
      ],
      [
        "kha",
        "thi"
      ],
      [
        "u",
        "lu"
      ],
      [
        "r",
        "i"
      ],
      [
        "s",
        "wa"
      ],
      [
        "nd",
        "o"
      ],
      [
        "nd",
        "le"
      ],
      [
        "h",
        "lo"
      ],
      [
        "n",
        "ke"
      ],
      [
        "t",
        "i"
      ],
      [
        "w",
        "u"
      ],
      [
        "c",
        "a"
      ],
      [
        "i",
        "n"
      ],
      [
        "t",
        "a"
      ],
      [
        "s",
        "u"
      ],
      [
        "z",
        "oku"
      ],
      [
        "d",
        "a"
      ],
      [
        "sh",
        "i"
      ],
      [
        "seben",
        "zi"
      ],
      [
        "y",
        "oku"
      ],
      [
        "z",
        "we"
      ],
      [
        "b",
        "he"
      ],
      [
        "m",
        "p"
      ],
      [
        "v",
        "e"
      ],
      [
        "f",
        "i"
      ],
      [
        "ku",
        "sho"
      ],
      [
        "nje",
        "ngoba"
      ],
      [
        "i",
        "mi"
      ],
      [
        "d",
        "la"
      ],
      [
        "nya",
        "ka"
      ],
      [
        "aba",
        "ntu"
      ],
      [
        "U",
        "the"
      ],
      [
        "t",
        "e"
      ],
      [
        "ko",
        "dwa"
      ],
      [
        "d",
        "u"
      ],
      [
        "ne",
        "zi"
      ],
      [
        "d",
        "e"
      ],
      [
        "nge",
        "si"
      ],
      [
        "b",
        "ha"
      ],
      [
        "nu",
        "z"
      ],
      [
        "ka",
        "thi"
      ],
      [
        "q",
        "a"
      ],
      [
        "g",
        "a"
      ],
      [
        "le",
        "la"
      ],
      [
        "nd",
        "e"
      ],
      [
        "yi",
        "sa"
      ],
      [
        "U",
        "M"
      ],
      [
        "r",
        "a"
      ],
      [
        "2",
        "0"
      ],
      [
        "le",
        "le"
      ],
      [
        "bo",
        "na"
      ],
      [
        "o",
        "n"
      ],
      [
        "en",
        "e"
      ],
      [
        "ne",
        "le"
      ],
      [
        "bu",
        "la"
      ],
      [
        "q",
        "hu"
      ],
      [
        "nd",
        "la"
      ],
      [
        "uM",
        "nuz"
      ],
      [
        "h",
        "lu"
      ],
      [
        "N",
        "k"
      ],
      [
        "sh",
        "e"
      ],
      [
        "fu",
        "thi"
      ],
      [
        "fu",
        "na"
      ],
      [
        "pha",
        "kathi"
      ],
      [
        "kule",
        "li"
      ],
      [
        "hle",
        "lo"
      ],
      [
        "ma",
        "li"
      ],
      [
        ".",
        "\""
      ],
      [
        "c",
        "u"
      ],
      [
        "v",
        "u"
      ],
      [
        "ka",
        "zi"
      ],
      [
        "ki",
        "le"
      ],
      [
        "j",
        "a"
      ],
      [
        "r",
        "o"
      ],
      [
        "we",
        "si"
      ],
      [
        "d",
        "lu"
      ],
      [
        "izi",
        "n"
      ],
      [
        "c",
        "ala"
      ],
      [
        "g",
        "ci"
      ],
      [
        "s",
        "t"
      ],
      [
        "em",
        "bu"
      ],
      [
        "e",
        "ku"
      ],
      [
        "q",
        "u"
      ],
      [
        "ka",
        "nto"
      ],
      [
        "lo",
        "khu"
      ],
      [
        "na",
        "ma"
      ],
      [
        "nj",
        "a"
      ],
      [
        "kanto",
        "lo"
      ],
      [
        "q",
        "embu"
      ],
      [
        "y",
        "en"
      ],
      [
        "ni",
        "ngi"
      ],
      [
        "hla",
        "nga"
      ],
      [
        "h",
        "i"
      ],
      [
        ",",
        "”"
      ],
      [
        "c",
        "wa"
      ],
      [
        "n",
        "si"
      ],
      [
        "ngesi",
        "khathi"
      ],
      [
        "T",
        "he"
      ],
      [
        "u",
        "bu"
      ],
      [
        "qhu",
        "be"
      ],
      [
        "lo",
        "ku"
      ],
      [
        "c",
        "e"
      ],
      [
        "nga",
        "pha"
      ],
      [
        "g",
        "e"
      ],
      [
        "x",
        "a"
      ],
      [
        "L",
        "o"
      ],
      [
        "m",
        "eni"
      ],
      [
        "fu",
        "ndi"
      ],
      [
        "N",
        "a"
      ],
      [
        "n",
        "ku"
      ],
      [
        "pho",
        "yisa"
      ],
      [
        "c",
        "o"
      ],
      [
        "k",
        "ene"
      ],
      [
        "ka",
        "khulu"
      ],
      [
        "kh",
        "i"
      ],
      [
        "nya",
        "ngo"
      ],
      [
        "mbi",
        "sa"
      ],
      [
        "Z",
        "ulu"
      ],
      [
        "v",
        "i"
      ],
      [
        "hu",
        "ma"
      ],
      [
        "K",
        "wa"
      ],
      [
        "S",
        "o"
      ],
      [
        "m",
        "ele"
      ],
      [
        "la",
        "pho"
      ],
      [
        "ci",
        "mbi"
      ],
      [
        "kwen",
        "za"
      ],
      [
        "n",
        "zi"
      ],
      [
        "u",
        "be"
      ],
      [
        "e",
        "ma"
      ],
      [
        "m",
        "bo"
      ],
      [
        "s",
        "oku"
      ],
      [
        "s",
        "uku"
      ],
      [
        "z",
        "wa"
      ],
      [
        "ku",
        "zo"
      ],
      [
        "ke",
        "la"
      ],
      [
        "le",
        "si"
      ],
      [
        "fa",
        "nele"
      ],
      [
        "q",
        "ala"
      ],
      [
        "la",
        "nd"
      ],
      [
        "nt",
        "a"
      ],
      [
        "mbi",
        "li"
      ],
      [
        "mo",
        "to"
      ],
      [
        "ndle",
        "ni"
      ],
      [
        "p",
        "ala"
      ],
      [
        "si",
        "pala"
      ],
      [
        "sh",
        "wa"
      ],
      [
        "um",
        "o"
      ],
      [
        ",",
        "\""
      ],
      [
        "0",
        "0"
      ],
      [
        "a",
        "be"
      ],
      [
        "li",
        "sa"
      ],
      [
        "na",
        "ba"
      ],
      [
        "kwa",
        "zi"
      ],
      [
        "tho",
        "la"
      ],
      [
        "phi",
        "nde"
      ],
      [
        "20",
        "2"
      ],
      [
        "g",
        "u"
      ],
      [
        "le",
        "ni"
      ],
      [
        "fu",
        "nda"
      ],
      [
        "n",
        "y"
      ],
      [
        "ku",
        "ba"
      ],
      [
        "ku",
        "be"
      ],
      [
        "en",
        "t"
      ],
      [
        "uku",
        "ze"
      ],
      [
        "lu",
        "meni"
      ],
      [
        "hu",
        "lumeni"
      ],
      [
        "g",
        "o"
      ],
      [
        "i",
        "zo"
      ],
      [
        "q",
        "ini"
      ],
      [
        "u",
        "Nk"
      ],
      [
        "x",
        "o"
      ],
      [
        "wa",
        "na"
      ],
      [
        "ka",
        "la"
      ],
      [
        "ka",
        "nja"
      ],
      [
        "nt",
        "i"
      ],
      [
        "bi",
        "li"
      ],
      [
        "ho",
        "li"
      ],
      [
        "a",
        "ku"
      ],
      [
        "n",
        "q"
      ],
      [
        "nga",
        "ma"
      ],
      [
        "S",
        "A"
      ],
      [
        "m",
        "be"
      ],
      [
        "s",
        "z"
      ],
      [
        "s",
        "we"
      ],
      [
        "um",
        "u"
      ],
      [
        "k",
        "oku"
      ],
      [
        "thi",
        "wa"
      ],
      [
        "lu",
        "ngu"
      ],
      [
        "the",
        "tho"
      ],
      [
        "e",
        "mi"
      ],
      [
        "l",
        "weni"
      ],
      [
        "kwe",
        "zi"
      ],
      [
        "kw",
        "i"
      ],
      [
        "r",
        "e"
      ],
      [
        "nd",
        "eni"
      ],
      [
        "so",
        "lwa"
      ],
      [
        "end",
        "e"
      ],
      [
        "b",
        "eni"
      ],
      [
        "ku",
        "ka"
      ],
      [
        "ve",
        "ze"
      ],
      [
        "U",
        "m"
      ],
      [
        "e",
        "ze"
      ],
      [
        "x",
        "huma"
      ],
      [
        "yi",
        "si"
      ],
      [
        "A",
        "ba"
      ],
      [
        "u",
        "zo"
      ],
      [
        "ph",
        "u"
      ],
      [
        "se",
        "le"
      ],
      [
        "A",
        "N"
      ],
      [
        "B",
        "a"
      ],
      [
        "L",
        "a"
      ],
      [
        "P",
        "ha"
      ],
      [
        "w",
        "oku"
      ],
      [
        "nd",
        "ele"
      ],
      [
        "en",
        "ye"
      ],
      [
        "no",
        "m"
      ],
      [
        "khe",
        "tho"
      ],
      [
        "a",
        "yi"
      ],
      [
        "o",
        "r"
      ],
      [
        "z",
        "weni"
      ],
      [
        "z",
        "ulu"
      ],
      [
        "nge",
        "zi"
      ],
      [
        "no",
        "ma"
      ],
      [
        "kanja",
        "lo"
      ],
      [
        "m",
        "ela"
      ],
      [
        "o",
        "lu"
      ],
      [
        "se",
        "ku"
      ],
      [
        "Ng",
        "i"
      ],
      [
        "qhube",
        "ka"
      ],
      [
        "L",
        "e"
      ],
      [
        "j",
        "i"
      ],
      [
        "w",
        "en"
      ],
      [
        "ba",
        "lu"
      ],
      [
        "ze",
        "ka"
      ],
      [
        "kha",
        "la"
      ],
      [
        "nda",
        "wo"
      ],
      [
        "ta",
        "l"
      ],
      [
        "d",
        "o"
      ],
      [
        "ba",
        "zo"
      ],
      [
        "wa",
        "ye"
      ],
      [
        "hlu",
        "kene"
      ],
      [
        "e",
        "r"
      ],
      [
        "g",
        "i"
      ],
      [
        "j",
        "o"
      ],
      [
        "mi",
        "nyaka"
      ],
      [
        "fu",
        "ndo"
      ],
      [
        "ny",
        "u"
      ],
      [
        "xhuma",
        "na"
      ],
      [
        "U",
        "N"
      ],
      [
        "d",
        "lela"
      ],
      [
        "e",
        "nga"
      ],
      [
        "t",
        "u"
      ],
      [
        "uku",
        "ba"
      ],
      [
        "be",
        "se"
      ],
      [
        "dlu",
        "le"
      ],
      [
        "yen",
        "a"
      ],
      [
        "ma",
        "nje"
      ],
      [
        "nd",
        "aba"
      ],
      [
        "Na",
        "tal"
      ],
      [
        "a",
        "se"
      ],
      [
        "a",
        "ni"
      ],
      [
        "ng",
        "eni"
      ],
      [
        "le",
        "lwa"
      ],
      [
        "ni",
        "si"
      ],
      [
        "ha",
        "mba"
      ],
      [
        "Kwa",
        "Zulu"
      ],
      [
        "P",
        "a"
      ],
      [
        "e",
        "N"
      ],
      [
        "le",
        "ka"
      ],
      [
        "thi",
        "mba"
      ],
      [
        "ngoku",
        "thi"
      ],
      [
        "seben",
        "za"
      ],
      [
        "e",
        "se"
      ],
      [
        "s",
        "en"
      ],
      [
        "v",
        "ele"
      ],
      [
        "v",
        "ela"
      ],
      [
        "th",
        "weni"
      ],
      [
        "le",
        "zi"
      ],
      [
        "wa",
        "se"
      ],
      [
        "si",
        "ka"
      ],
      [
        "za",
        "ne"
      ],
      [
        "ngen",
        "a"
      ],
      [
        "Ng",
        "o"
      ],
      [
        "nq",
        "umo"
      ],
      [
        "e",
        "M"
      ],
      [
        "u",
        "T"
      ],
      [
        "ng",
        "qo"
      ],
      [
        "li",
        "ndele"
      ],
      [
        "lo",
        "lu"
      ],
      [
        "za",
        "ma"
      ],
      [
        "za",
        "yo"
      ],
      [
        "end",
        "a"
      ],
      [
        "ga",
        "me"
      ],
      [
        "gci",
        "na"
      ],
      [
        "A",
        "f"
      ],
      [
        "I",
        "ma"
      ],
      [
        "S",
        "a"
      ],
      [
        "c",
        "h"
      ],
      [
        "i",
        "mali"
      ],
      [
        "m",
        "ende"
      ],
      [
        "p",
        "a"
      ],
      [
        "q",
        "e"
      ],
      [
        "w",
        "i"
      ],
      [
        "ku",
        "mele"
      ],
      [
        "ka",
        "hle"
      ],
      [
        "aba",
        "nga"
      ],
      [
        "Af",
        "ri"
      ],
      [
        "Ima",
        "ge"
      ],
      [
        "i",
        "ng"
      ],
      [
        "s",
        "eni"
      ],
      [
        "u",
        "G"
      ],
      [
        "wa",
        "khe"
      ],
      [
        "ke",
        "lele"
      ],
      [
        "tha",
        "nda"
      ],
      [
        "ngen",
        "xa"
      ],
      [
        "A",
        "ma"
      ],
      [
        "o",
        "be"
      ],
      [
        "u",
        "va"
      ],
      [
        "ng",
        "wa"
      ],
      [
        "ba",
        "ndla"
      ],
      [
        "thi",
        "nta"
      ],
      [
        "ph",
        "ela"
      ],
      [
        "se",
        "la"
      ],
      [
        "um",
        "ele"
      ],
      [
        "khulu",
        "ma"
      ],
      [
        "noku",
        "thi"
      ],
      [
        "zoku",
        "xhumana"
      ],
      [
        "bha",
        "mu"
      ],
      [
        "ja",
        "bu"
      ],
      [
        "land",
        "ela"
      ],
      [
        "go",
        "mo"
      ],
      [
        "uNk",
        "sz"
      ],
      [
        "I",
        "N"
      ],
      [
        "a",
        "ka"
      ],
      [
        "e",
        "ngu"
      ],
      [
        "f",
        "o"
      ],
      [
        "g",
        "wa"
      ],
      [
        "n",
        "ka"
      ],
      [
        "o",
        "m"
      ],
      [
        "u",
        "hlelo"
      ],
      [
        "ku",
        "khona"
      ],
      [
        "ba",
        "nga"
      ],
      [
        "wa",
        "thi"
      ],
      [
        "si",
        "za"
      ],
      [
        "lu",
        "ngi"
      ],
      [
        "nga",
        "yo"
      ],
      [
        "ke",
        "le"
      ],
      [
        "um",
        "e"
      ],
      [
        "kw",
        "ini"
      ],
      [
        "ndle",
        "la"
      ],
      [
        "yoku",
        "thi"
      ],
      [
        "nku",
        "lu"
      ],
      [
        "M",
        "e"
      ],
      [
        "a",
        "l"
      ],
      [
        "g",
        "we"
      ],
      [
        "ba",
        "la"
      ],
      [
        "le",
        "li"
      ],
      [
        "zi",
        "wa"
      ],
      [
        "sh",
        "ini"
      ],
      [
        "ya",
        "khe"
      ],
      [
        "ne",
        "si"
      ],
      [
        "bu",
        "ko"
      ],
      [
        "nt",
        "wana"
      ],
      [
        "ngo",
        "m"
      ],
      [
        "yo",
        "m"
      ],
      [
        "so",
        "nto"
      ],
      [
        "dla",
        "lo"
      ],
      [
        "The",
        "kwini"
      ],
      [
        "game",
        "ko"
      ],
      [
        "L",
        "wesi"
      ],
      [
        "m",
        "bu"
      ],
      [
        "ku",
        "lo"
      ],
      [
        "li",
        "ka"
      ],
      [
        "se",
        "zi"
      ],
      [
        "nku",
        "ndleni"
      ],
      [
        "b",
        "h"
      ],
      [
        "e",
        "bu"
      ],
      [
        "g",
        "x"
      ],
      [
        "u",
        "sho"
      ],
      [
        "z",
        "u"
      ],
      [
        "ku",
        "nga"
      ],
      [
        "thi",
        "sha"
      ],
      [
        "nga",
        "ne"
      ],
      [
        "aba",
        "zo"
      ],
      [
        "bu",
        "ye"
      ],
      [
        "ko",
        "si"
      ],
      [
        "nge",
        "mp"
      ],
      [
        "hla",
        "la"
      ],
      [
        "hla",
        "nu"
      ],
      [
        "tho",
        "mbo"
      ],
      [
        "mbisa",
        "na"
      ],
      [
        "M",
        "i"
      ],
      [
        "Z",
        "uma"
      ],
      [
        "n",
        "x"
      ],
      [
        "n",
        "en"
      ],
      [
        "u",
        "se"
      ],
      [
        "th",
        "wa"
      ],
      [
        "le",
        "kile"
      ],
      [
        "ka",
        "nye"
      ],
      [
        "kwe",
        "si"
      ],
      [
        "sha",
        "ye"
      ],
      [
        "ca",
        "ne"
      ],
      [
        "mp",
        "ani"
      ],
      [
        "N",
        "o"
      ],
      [
        "e",
        "be"
      ],
      [
        "l",
        "li"
      ],
      [
        "ba",
        "ni"
      ],
      [
        "si",
        "zo"
      ],
      [
        "ka",
        "nje"
      ],
      [
        "li",
        "ngi"
      ],
      [
        "se",
        "ki"
      ],
      [
        "sh",
        "we"
      ],
      [
        "um",
        "bi"
      ],
      [
        "kwa",
        "ba"
      ],
      [
        "Ma",
        "sipala"
      ],
      [
        "ngen",
        "dlela"
      ],
      [
        "hlo",
        "bo"
      ],
      [
        "ve",
        "za"
      ],
      [
        "umu",
        "ntu"
      ],
      [
        "g",
        "ama"
      ],
      [
        "q",
        "i"
      ],
      [
        "ka",
        "nti"
      ],
      [
        "sh",
        "u"
      ],
      [
        "ngo",
        "Lwesi"
      ],
      [
        "pha",
        "thi"
      ],
      [
        "ama",
        "lungu"
      ],
      [
        "ezi",
        "nkundleni"
      ],
      [
        "phe",
        "zulu"
      ],
      [
        "tsh",
        "u"
      ],
      [
        "izo",
        "lo"
      ],
      [
        "L",
        "E"
      ],
      [
        "M",
        "o"
      ],
      [
        "o",
        "bu"
      ],
      [
        "ku",
        "fanele"
      ],
      [
        "en",
        "kantolo"
      ],
      [
        "ze",
        "la"
      ],
      [
        "ko",
        "le"
      ],
      [
        "yo",
        "na"
      ],
      [
        "pha",
        "nsi"
      ],
      [
        "pha",
        "mbili"
      ],
      [
        "em",
        "uva"
      ],
      [
        "fa",
        "na"
      ],
      [
        "su",
        "ka"
      ],
      [
        ")",
        ","
      ],
      [
        "C",
        "a"
      ],
      [
        "F",
        "P"
      ],
      [
        "I",
        "S"
      ],
      [
        "M",
        "nyango"
      ],
      [
        "b",
        "ho"
      ],
      [
        "e",
        "s"
      ],
      [
        "e",
        "ya"
      ],
      [
        "h",
        "li"
      ],
      [
        "m",
        "cimbi"
      ],
      [
        "o",
        "li"
      ],
      [
        "r",
        "t"
      ],
      [
        "s",
        "s"
      ],
      [
        "u",
        "sa"
      ],
      [
        "u",
        "Ma"
      ],
      [
        "ku",
        "lu"
      ],
      [
        "zi",
        "n"
      ],
      [
        "zi",
        "buko"
      ],
      [
        "zo",
        "m"
      ],
      [
        "ko",
        "nke"
      ],
      [
        "kho",
        "mbisa"
      ],
      [
        "kwa",
        "ma"
      ],
      [
        "tha",
        "thu"
      ],
      [
        "end",
        "u"
      ],
      [
        "ti",
        "on"
      ],
      [
        "hi",
        "nga"
      ],
      [
        "ngapha",
        "ndle"
      ],
      [
        "qini",
        "seki"
      ],
      [
        "E",
        "ph"
      ],
      [
        "T",
        "a"
      ],
      [
        "i",
        "sa"
      ],
      [
        "n",
        "ci"
      ],
      [
        "o",
        "f"
      ],
      [
        "q",
        "ha"
      ],
      [
        "r",
        "eli"
      ],
      [
        "u",
        "khetho"
      ],
      [
        "w",
        "ini"
      ],
      [
        "th",
        "eni"
      ],
      [
        "la",
        "bo"
      ],
      [
        "zi",
        "ni"
      ],
      [
        "se",
        "si"
      ],
      [
        "bo",
        "ne"
      ],
      [
        "kwa",
        "bo"
      ],
      [
        "ama",
        "phoyisa"
      ],
      [
        "mu",
        "va"
      ],
      [
        "su",
        "ke"
      ],
      [
        "cu",
        "li"
      ],
      [
        "cu",
        "lo"
      ],
      [
        "hlanga",
        "ni"
      ],
      [
        "lindele",
        "ke"
      ],
      [
        "Eph",
        "reli"
      ],
      [
        "K",
        "P"
      ],
      [
        "S",
        "hinga"
      ],
      [
        "g",
        "qu"
      ],
      [
        "o",
        "l"
      ],
      [
        "u",
        "K"
      ],
      [
        "en",
        "zi"
      ],
      [
        "nga",
        "ka"
      ],
      [
        "ye",
        "si"
      ],
      [
        "um",
        "ela"
      ],
      [
        "pha",
        "wu"
      ],
      [
        "lwa",
        "ne"
      ],
      [
        "tho",
        "le"
      ],
      [
        "fa",
        "zane"
      ],
      [
        "phe",
        "the"
      ],
      [
        "hlanga",
        "no"
      ],
      [
        "Lo",
        "khu"
      ],
      [
        "I",
        "si"
      ],
      [
        "d",
        "aba"
      ],
      [
        "e",
        "Thekwini"
      ],
      [
        "i",
        "cala"
      ],
      [
        "k",
        "eni"
      ],
      [
        "m",
        "em"
      ],
      [
        "r",
        "u"
      ],
      [
        "u",
        "N"
      ],
      [
        "la",
        "la"
      ],
      [
        "wa",
        "ba"
      ],
      [
        "ma",
        "sipala"
      ],
      [
        "thi",
        "ni"
      ],
      [
        "ph",
        "en"
      ],
      [
        "nga",
        "kho"
      ],
      [
        "ne",
        "mi"
      ],
      [
        "bo",
        "ni"
      ],
      [
        "izi",
        "nisi"
      ],
      [
        "isi",
        "nqumo"
      ],
      [
        "bhe",
        "kene"
      ],
      [
        "bula",
        "la"
      ],
      [
        "cwa",
        "di"
      ],
      [
        "bh",
        "izinisi"
      ],
      [
        "M",
        "KP"
      ],
      [
        "U",
        "ku"
      ],
      [
        "Z",
        "i"
      ],
      [
        "e",
        "sa"
      ],
      [
        "i",
        "N"
      ],
      [
        "i",
        "se"
      ],
      [
        "n",
        "cane"
      ],
      [
        "v",
        "o"
      ],
      [
        "x",
        "enye"
      ],
      [
        "ku",
        "sa"
      ],
      [
        "la",
        "khe"
      ],
      [
        "le",
        "lwe"
      ],
      [
        "ka",
        "lo"
      ],
      [
        "lo",
        "kho"
      ],
      [
        "ph",
        "ele"
      ],
      [
        "be",
        "zi"
      ],
      [
        "be",
        "nga"
      ],
      [
        "aba",
        "fundi"
      ],
      [
        "no",
        "bu"
      ],
      [
        "izi",
        "nto"
      ],
      [
        "mu",
        "nye"
      ],
      [
        "phe",
        "th"
      ],
      [
        "kwen",
        "ze"
      ],
      [
        "hlo",
        "ni"
      ],
      [
        "sebenzi",
        "sa"
      ],
      [
        "bhe",
        "ka"
      ],
      [
        "ngapha",
        "nsi"
      ],
      [
        "202",
        "6"
      ],
      [
        "uNk",
        "k"
      ],
      [
        "AN",
        "C"
      ],
      [
        "balu",
        "la"
      ],
      [
        "ngqo",
        "she"
      ],
      [
        "J",
        "a"
      ],
      [
        "S",
        "e"
      ],
      [
        "b",
        "hu"
      ],
      [
        "e",
        "ba"
      ],
      [
        "e",
        "za"
      ],
      [
        "i",
        "lo"
      ],
      [
        "m",
        "eli"
      ],
      [
        "r",
        "y"
      ],
      [
        "u",
        "ya"
      ],
      [
        "ng",
        "cwa"
      ],
      [
        "aba",
        "nye"
      ],
      [
        "bu",
        "ka"
      ],
      [
        "bu",
        "ya"
      ],
      [
        "yi",
        "zi"
      ],
      [
        "mi",
        "sa"
      ],
      [
        "nge",
        "So"
      ],
      [
        "kwa",
        "khe"
      ],
      [
        "hla",
        "beni"
      ],
      [
        "esi",
        "khathi"
      ],
      [
        "ki",
        "nga"
      ],
      [
        "ngen",
        "e"
      ],
      [
        "Si",
        "lo"
      ],
      [
        "fi",
        "ka"
      ],
      [
        "funda",
        "zwe"
      ],
      [
        "U",
        "L"
      ],
      [
        "a",
        "si"
      ],
      [
        "l",
        "l"
      ],
      [
        "t",
        "sha"
      ],
      [
        "la",
        "ndo"
      ],
      [
        "le",
        "ke"
      ],
      [
        "we",
        "ze"
      ],
      [
        "sa",
        "ka"
      ],
      [
        "aba",
        "solwa"
      ],
      [
        "yi",
        "ng"
      ],
      [
        "yi",
        "nto"
      ],
      [
        "ha",
        "mbe"
      ],
      [
        "kha",
        "ya"
      ],
      [
        "ama",
        "nzi"
      ],
      [
        "nya",
        "ma"
      ],
      [
        "wo",
        "na"
      ],
      [
        "wo",
        "nke"
      ],
      [
        "fa",
        "ka"
      ],
      [
        "di",
        "nge"
      ],
      [
        "bona",
        "kala"
      ],
      [
        "Nk",
        "sz"
      ],
      [
        "naba",
        "nye"
      ],
      [
        "Pha",
        "la"
      ],
      [
        "ngemp",
        "ela"
      ],
      [
        "U",
        "ni"
      ],
      [
        "c",
        "k"
      ],
      [
        "c",
        "hi"
      ],
      [
        "d",
        "ala"
      ],
      [
        "e",
        "d"
      ],
      [
        "i",
        "nto"
      ],
      [
        "o",
        "na"
      ],
      [
        "p",
        "e"
      ],
      [
        "t",
        "s"
      ],
      [
        "u",
        "r"
      ],
      [
        "u",
        "ni"
      ],
      [
        "w",
        "um"
      ],
      [
        "ku",
        "landela"
      ],
      [
        "ng",
        "um"
      ],
      [
        "ba",
        "ba"
      ],
      [
        "ba",
        "zi"
      ],
      [
        "ba",
        "lo"
      ],
      [
        "wa",
        "ma"
      ],
      [
        "zi",
        "le"
      ],
      [
        "lo",
        "nke"
      ],
      [
        "na",
        "se"
      ],
      [
        "na",
        "bo"
      ],
      [
        "se",
        "be"
      ],
      [
        "nga",
        "se"
      ],
      [
        "ya",
        "bo"
      ],
      [
        "aba",
        "ningi"
      ],
      [
        "ngo",
        "nyaka"
      ],
      [
        "kho",
        "khe"
      ],
      [
        "hla",
        "lo"
      ],
      [
        "em",
        "hlabeni"
      ],
      [
        "Ma",
        "zibuko"
      ],
      [
        "thu",
        "ba"
      ],
      [
        "Ng",
        "a"
      ],
      [
        "shi",
        "nt"
      ],
      [
        "bhe",
        "ke"
      ],
      [
        "ngeSo",
        "nto"
      ],
      [
        "L",
        "A"
      ],
      [
        "N",
        "e"
      ],
      [
        "c",
        "ha"
      ],
      [
        "e",
        "z"
      ],
      [
        "e",
        "zo"
      ],
      [
        "e",
        "bi"
      ],
      [
        "o",
        "sa"
      ],
      [
        "o",
        "khe"
      ],
      [
        "u",
        "D"
      ],
      [
        "u",
        "th"
      ],
      [
        "x",
        "ha"
      ],
      [
        "ku",
        "ya"
      ],
      [
        "ku",
        "bo"
      ],
      [
        "en",
        "a"
      ],
      [
        "the",
        "mba"
      ],
      [
        "um",
        "sebenzi"
      ],
      [
        "ko",
        "n"
      ],
      [
        "bi",
        "sa"
      ],
      [
        "nge",
        "ke"
      ],
      [
        "nge",
        "muva"
      ],
      [
        "khu",
        "la"
      ],
      [
        "ama",
        "cala"
      ],
      [
        "Ma",
        "mba"
      ],
      [
        "thu",
        "la"
      ],
      [
        "fa",
        "kazi"
      ],
      [
        "qo",
        "ka"
      ],
      [
        "tsh",
        "e"
      ],
      [
        "fi",
        "ke"
      ],
      [
        "te",
        "r"
      ],
      [
        "gci",
        "ne"
      ],
      [
        "Afri",
        "ka"
      ],
      [
        "lli",
        "on"
      ],
      [
        "dinge",
        "ka"
      ],
      [
        "Phala",
        "mende"
      ],
      [
        "Mamba",
        "zo"
      ],
      [
        "H",
        "A"
      ],
      [
        "H",
        "i"
      ],
      [
        "K",
        "ho"
      ],
      [
        "d",
        "y"
      ],
      [
        "i",
        "mp"
      ],
      [
        "o",
        "zo"
      ],
      [
        "w",
        "ukuthi"
      ],
      [
        "ku",
        "thiwa"
      ],
      [
        "ba",
        "mbisana"
      ],
      [
        "be",
        "si"
      ],
      [
        "ya",
        "se"
      ],
      [
        "nt",
        "e"
      ],
      [
        "ngo",
        "M"
      ],
      [
        "zo",
        "nke"
      ],
      [
        "ko",
        "leni"
      ],
      [
        "mi",
        "gomo"
      ],
      [
        "kho",
        "si"
      ],
      [
        "ezi",
        "nye"
      ],
      [
        "tha",
        "the"
      ],
      [
        "khulu",
        "mela"
      ],
      [
        "tsh",
        "enzi"
      ],
      [
        "qa",
        "le"
      ],
      [
        "bula",
        "wa"
      ],
      [
        "nzi",
        "ma"
      ],
      [
        "00",
        "0"
      ],
      [
        "enda",
        "weni"
      ],
      [
        "mem",
        "eze"
      ],
      [
        "ying",
        "xenye"
      ],
      [
        "A",
        "S"
      ],
      [
        "D",
        "A"
      ],
      [
        "I",
        "n"
      ],
      [
        "M",
        "p"
      ],
      [
        "M",
        "bu"
      ],
      [
        "e",
        "dlule"
      ],
      [
        "i",
        "r"
      ],
      [
        "o",
        "da"
      ],
      [
        "la",
        "na"
      ],
      [
        "ba",
        "ntu"
      ],
      [
        "si",
        "le"
      ],
      [
        "ka",
        "mpani"
      ],
      [
        "ma",
        "n"
      ],
      [
        "ph",
        "endu"
      ],
      [
        "ke",
        "lo"
      ],
      [
        "yi",
        "se"
      ],
      [
        "ko",
        "m"
      ],
      [
        "tha",
        "tha"
      ],
      [
        "Ng",
        "qo"
      ],
      [
        "Ng",
        "esikhathi"
      ],
      [
        "mu",
        "ntu"
      ],
      [
        "tsh",
        "ele"
      ],
      [
        "da",
        "lu"
      ],
      [
        "ro",
        "li"
      ],
      [
        "eku",
        "theni"
      ],
      [
        "qhube",
        "ke"
      ],
      [
        "sele",
        "lo"
      ],
      [
        "nyu",
        "ka"
      ],
      [
        "tu",
        "li"
      ],
      [
        "pheth",
        "roli"
      ],
      [
        "Ngqo",
        "ngqoshe"
      ],
      [
        "1",
        "0"
      ],
      [
        "3",
        "0"
      ],
      [
        "G",
        "a"
      ],
      [
        "H",
        "la"
      ],
      [
        "O",
        "khulumela"
      ],
      [
        "U",
        "ma"
      ],
      [
        "a",
        "zo"
      ],
      [
        "a",
        "bo"
      ],
      [
        "a",
        "wu"
      ],
      [
        "c",
        "we"
      ],
      [
        "i",
        "swa"
      ],
      [
        "i",
        "moto"
      ],
      [
        "n",
        "hla"
      ],
      [
        "t",
        "y"
      ],
      [
        "v",
        "isi"
      ],
      [
        "ku",
        "yo"
      ],
      [
        "ku",
        "phela"
      ],
      [
        "ku",
        "lindeleke"
      ],
      [
        "ba",
        "se"
      ],
      [
        "le",
        "zwe"
      ],
      [
        "si",
        "we"
      ],
      [
        "kh",
        "um"
      ],
      [
        "li",
        "le"
      ],
      [
        "lo",
        "na"
      ],
      [
        "na",
        "kalo"
      ],
      [
        "se",
        "tshenzi"
      ],
      [
        "be",
        "lo"
      ],
      [
        "be",
        "be"
      ],
      [
        "oku",
        "thiwa"
      ],
      [
        "ya",
        "le"
      ],
      [
        "ya",
        "nga"
      ],
      [
        "aba",
        "sebenzi"
      ],
      [
        "ke",
        "lwe"
      ],
      [
        "za",
        "nsi"
      ],
      [
        "the",
        "thweni"
      ],
      [
        "um",
        "thombo"
      ],
      [
        "ta",
        "ti"
      ],
      [
        "loku",
        "thi"
      ],
      [
        "fundi",
        "sa"
      ],
      [
        "vi",
        "kela"
      ],
      [
        "Afri",
        "ca"
      ],
      [
        "gx",
        "e"
      ],
      [
        "okhe",
        "thweni"
      ],
      [
        "C",
        "i"
      ],
      [
        "E",
        "N"
      ],
      [
        "K",
        "U"
      ],
      [
        "K",
        "o"
      ],
      [
        "L",
        "I"
      ],
      [
        "O",
        "ku"
      ],
      [
        "a",
        "yo"
      ],
      [
        "e",
        "ngi"
      ],
      [
        "i",
        "bi"
      ],
      [
        "m",
        "hla"
      ],
      [
        "m",
        "vu"
      ],
      [
        "o",
        "p"
      ],
      [
        "r",
        "d"
      ],
      [
        "ng",
        "weni"
      ],
      [
        "wa",
        "bo"
      ],
      [
        "kh",
        "wana"
      ],
      [
        "li",
        "se"
      ],
      [
        "na",
        "zo"
      ],
      [
        "nd",
        "lu"
      ],
      [
        "nga",
        "lo"
      ],
      [
        "oku",
        "ba"
      ],
      [
        "ya",
        "zi"
      ],
      [
        "ya",
        "ma"
      ],
      [
        "ye",
        "zi"
      ],
      [
        "za",
        "bo"
      ],
      [
        "bo",
        "nke"
      ],
      [
        "yo",
        "M"
      ],
      [
        "pha",
        "ka"
      ],
      [
        "kha",
        "nka"
      ],
      [
        "izi",
        "moto"
      ],
      [
        "hla",
        "ba"
      ],
      [
        "em",
        "sebenzi"
      ],
      [
        "isi",
        "khathi"
      ],
      [
        "uM",
        "nyango"
      ],
      [
        "to",
        "r"
      ],
      [
        "kwen",
        "zeka"
      ],
      [
        "kule",
        "si"
      ],
      [
        "du",
        "bula"
      ],
      [
        "nezi",
        "nye"
      ],
      [
        "dlu",
        "la"
      ],
      [
        "izin",
        "hlelo"
      ],
      [
        "funda",
        "zweni"
      ],
      [
        "lingi",
        "sa"
      ],
      [
        "Ta",
        "s"
      ],
      [
        "phawu",
        "la"
      ],
      [
        "khwana",
        "zi"
      ],
      [
        "emsebenzi",
        "ni"
      ],
      [
        "A",
        "p"
      ],
      [
        "B",
        "A"
      ],
      [
        "B",
        "o"
      ],
      [
        "C",
        "ha"
      ],
      [
        "F",
        "u"
      ],
      [
        "L",
        "u"
      ],
      [
        "O",
        "N"
      ],
      [
        "S",
        "ha"
      ],
      [
        "T",
        "ha"
      ],
      [
        "U",
        "veze"
      ],
      [
        "a",
        "ye"
      ],
      [
        "e",
        "Phalamende"
      ],
      [
        "g",
        "qi"
      ],
      [
        "i",
        "qembu"
      ],
      [
        "n",
        "wa"
      ],
      [
        "n",
        "za"
      ],
      [
        "o",
        "wa"
      ],
      [
        "p",
        "i"
      ],
      [
        "t",
        "ro"
      ],
      [
        "u",
        "ba"
      ],
      [
        "u",
        "veze"
      ],
      [
        "y",
        "eni"
      ],
      [
        "ng",
        "we"
      ],
      [
        "ka",
        "le"
      ],
      [
        "ka",
        "hulumeni"
      ],
      [
        "li",
        "we"
      ],
      [
        "na",
        "ye"
      ],
      [
        "ni",
        "ni"
      ],
      [
        "nga",
        "be"
      ],
      [
        "ngo",
        "ma"
      ],
      [
        "za",
        "nge"
      ],
      [
        "um",
        "cimbi"
      ],
      [
        "um",
        "ndeni"
      ],
      [
        "kho",
        "kh"
      ],
      [
        "em",
        "ba"
      ],
      [
        "ezi",
        "ngu"
      ],
      [
        "sha",
        "ya"
      ],
      [
        "hle",
        "la"
      ],
      [
        "pho",
        "sa"
      ],
      [
        "Ku",
        "thiwa"
      ],
      [
        "shi",
        "ya"
      ],
      [
        "she",
        "sha"
      ],
      [
        "khi",
        "pha"
      ],
      [
        "So",
        "uth"
      ],
      [
        "202",
        "4"
      ],
      [
        "uG",
        "umbi"
      ],
      [
        "phathi",
        "swa"
      ],
      [
        "hlangani",
        "sa"
      ],
      [
        "ngcwa",
        "bo"
      ],
      [
        "setshenzi",
        "swa"
      ],
      [
        "A",
        "I"
      ],
      [
        "F",
        "M"
      ],
      [
        "I",
        "nde"
      ],
      [
        "K",
        "a"
      ],
      [
        "M",
        "zansi"
      ],
      [
        "R",
        "ama"
      ],
      [
        "V",
        "u"
      ],
      [
        "a",
        "nd"
      ],
      [
        "d",
        "on"
      ],
      [
        "h",
        "ho"
      ],
      [
        "i",
        "m"
      ],
      [
        "i",
        "be"
      ],
      [
        "i",
        "ndawo"
      ],
      [
        "j",
        "waye"
      ],
      [
        "m",
        "ent"
      ],
      [
        "n",
        "eni"
      ],
      [
        "o",
        "se"
      ],
      [
        "o",
        "so"
      ],
      [
        "o",
        "waye"
      ],
      [
        "p",
        "end"
      ],
      [
        "y",
        "u"
      ],
      [
        "si",
        "zi"
      ],
      [
        "li",
        "ni"
      ],
      [
        "we",
        "zoku"
      ],
      [
        "ph",
        "uma"
      ],
      [
        "nd",
        "isi"
      ],
      [
        "nga",
        "ni"
      ],
      [
        "ezi",
        "nta"
      ],
      [
        "hu",
        "li"
      ],
      [
        "tha",
        "ndo"
      ],
      [
        "sha",
        "do"
      ],
      [
        "ngen",
        "yanga"
      ],
      [
        "ngoku",
        "shesha"
      ],
      [
        "mo",
        "la"
      ],
      [
        "tsh",
        "ela"
      ],
      [
        "su",
        "ngu"
      ],
      [
        "te",
        "shi"
      ],
      [
        "du",
        "ze"
      ],
      [
        "cu",
        "la"
      ],
      [
        "yen",
        "za"
      ],
      [
        "khi",
        "phe"
      ],
      [
        "khi",
        "shwa"
      ],
      [
        "soku",
        "thi"
      ],
      [
        "land",
        "eli"
      ],
      [
        "thola",
        "kala"
      ],
      [
        "eN",
        "kantolo"
      ],
      [
        "gwa",
        "qo"
      ],
      [
        "al",
        "bhamu"
      ],
      [
        "ebu",
        "suku"
      ],
      [
        "gx",
        "i"
      ],
      [
        "ona",
        "l"
      ],
      [
        "Ne",
        "w"
      ],
      [
        "Hla",
        "bisa"
      ],
      [
        "Inde",
        "pend"
      ],
      [
        "hho",
        "visi"
      ],
      [
        "Independ",
        "ent"
      ],
      [
        "1",
        "9"
      ],
      [
        "B",
        "i"
      ],
      [
        "H",
        "I"
      ],
      [
        "J",
        "i"
      ],
      [
        "K",
        "Z"
      ],
      [
        "K",
        "i"
      ],
      [
        "K",
        "ha"
      ],
      [
        "L",
        "i"
      ],
      [
        "T",
        "ru"
      ],
      [
        "U",
        "K"
      ],
      [
        "U",
        "S"
      ],
      [
        "W",
        "E"
      ],
      [
        "Z",
        "o"
      ],
      [
        "a",
        "n"
      ],
      [
        "a",
        "li"
      ],
      [
        "c",
        "ela"
      ],
      [
        "e",
        "P"
      ],
      [
        "g",
        "h"
      ],
      [
        "n",
        "end"
      ],
      [
        "p",
        "or"
      ],
      [
        "p",
        "er"
      ],
      [
        "u",
        "la"
      ],
      [
        "u",
        "kwe"
      ],
      [
        "u",
        "funa"
      ],
      [
        "u",
        "kwenza"
      ],
      [
        "th",
        "we"
      ],
      [
        "la",
        "ma"
      ],
      [
        "ba",
        "khe"
      ],
      [
        "ba",
        "funa"
      ],
      [
        "zi",
        "we"
      ],
      [
        "si",
        "ya"
      ],
      [
        "si",
        "fundo"
      ],
      [
        "lo",
        "m"
      ],
      [
        "we",
        "zi"
      ],
      [
        "ph",
        "umela"
      ],
      [
        "uku",
        "nga"
      ],
      [
        "se",
        "m"
      ],
      [
        "se",
        "mola"
      ],
      [
        "lu",
        "tho"
      ],
      [
        "nga",
        "wo"
      ],
      [
        "be",
        "ka"
      ],
      [
        "ze",
        "le"
      ],
      [
        "mi",
        "ez"
      ],
      [
        "mi",
        "llion"
      ],
      [
        "kho",
        "nj"
      ],
      [
        "nge",
        "kho"
      ],
      [
        "yo",
        "nke"
      ],
      [
        "khu",
        "ndleni"
      ],
      [
        "lwa",
        "zi"
      ],
      [
        "so",
        "la"
      ],
      [
        "ama",
        "bili"
      ],
      [
        "nya",
        "na"
      ],
      [
        "mbi",
        "ko"
      ],
      [
        "ki",
        "sa"
      ],
      [
        "ngen",
        "ela"
      ],
      [
        "phi",
        "ko"
      ],
      [
        "hlo",
        "ko"
      ],
      [
        "shi",
        "we"
      ],
      [
        "zwe",
        "lonke"
      ],
      [
        "dla",
        "la"
      ],
      [
        "du",
        "tshu"
      ],
      [
        "ra",
        "l"
      ],
      [
        "hlu",
        "ka"
      ],
      [
        "wesi",
        "fazane"
      ],
      [
        "ce",
        "lo"
      ],
      [
        "ge",
        "be"
      ],
      [
        "huma",
        "lo"
      ],
      [
        "gu",
        "ngu"
      ],
      [
        "La",
        "dy"
      ],
      [
        "La",
        "miez"
      ],
      [
        "Me",
        "yi"
      ],
      [
        "Mi",
        "ss"
      ],
      [
        "shaye",
        "li"
      ],
      [
        "bho",
        "di"
      ],
      [
        "ngempela",
        "sonto"
      ],
      [
        "kon",
        "zo"
      ],
      [
        "Rama",
        "phosa"
      ],
      [
        "KZ",
        "N"
      ],
      [
        "Tru",
        "st"
      ],
      [
        "B",
        "la"
      ],
      [
        "I",
        "FP"
      ],
      [
        "N",
        "FP"
      ],
      [
        "a",
        "ngu"
      ],
      [
        "c",
        "ele"
      ],
      [
        "d",
        "eni"
      ],
      [
        "e",
        "thi"
      ],
      [
        "h",
        "l"
      ],
      [
        "m",
        "thetho"
      ],
      [
        "m",
        "dlalo"
      ],
      [
        "o",
        "d"
      ],
      [
        "q",
        "ulu"
      ],
      [
        "u",
        "zi"
      ],
      [
        "ku",
        "ye"
      ],
      [
        "ku",
        "hulumeni"
      ],
      [
        "la",
        "ba"
      ],
      [
        "ba",
        "ya"
      ],
      [
        "en",
        "ce"
      ],
      [
        "si",
        "ni"
      ],
      [
        "ka",
        "bi"
      ],
      [
        "na",
        "ndi"
      ],
      [
        "ph",
        "umele"
      ],
      [
        "nga",
        "phakathi"
      ],
      [
        "sa",
        "ma"
      ],
      [
        "aba",
        "culi"
      ],
      [
        "nt",
        "shi"
      ],
      [
        "ye",
        "lana"
      ],
      [
        "the",
        "lo"
      ],
      [
        "bo",
        "nele"
      ],
      [
        "um",
        "i"
      ],
      [
        "fu",
        "ni"
      ],
      [
        "ama",
        "ningi"
      ],
      [
        "em",
        "va"
      ],
      [
        "ezi",
        "mbili"
      ],
      [
        "Ma",
        "semola"
      ],
      [
        "hle",
        "kelele"
      ],
      [
        "ben",
        "za"
      ],
      [
        "uM",
        "ntwana"
      ],
      [
        "mu",
        "ka"
      ],
      [
        "qo",
        "ndi"
      ],
      [
        "va",
        "l"
      ],
      [
        "me",
        "hlo"
      ],
      [
        "in",
        "kantolo"
      ],
      [
        "imi",
        "gomo"
      ],
      [
        "nezi",
        "n"
      ],
      [
        "UM",
        "balula"
      ],
      [
        "st",
        "ende"
      ],
      [
        "eku",
        "seni"
      ],
      [
        "The",
        "ku"
      ],
      [
        "ubu",
        "holi"
      ],
      [
        "SA",
        "C"
      ],
      [
        "eze",
        "hlukene"
      ],
      [
        "Ngo",
        "nyama"
      ],
      [
        "nka",
        "mpani"
      ],
      [
        "mbu",
        "lu"
      ],
      [
        "khokhe",
        "lwa"
      ],
      [
        "shint",
        "sha"
      ],
      [
        "tati",
        "mende"
      ],
      [
        "okuba",
        "lwa"
      ],
      [
        "Tas",
        "man"
      ],
      [
        "gqi",
        "belo"
      ],
      [
        "bonele",
        "lo"
      ],
      [
        "4",
        "0"
      ],
      [
        "D",
        "i"
      ],
      [
        "F",
        "AS"
      ],
      [
        "H",
        "O"
      ],
      [
        "I",
        "zi"
      ],
      [
        "N",
        "tuli"
      ],
      [
        "R",
        "3"
      ],
      [
        "S",
        "ta"
      ],
      [
        "S",
        "FAS"
      ],
      [
        "T",
        "hu"
      ],
      [
        "d",
        "izi"
      ],
      [
        "e",
        "G"
      ],
      [
        "e",
        "l"
      ],
      [
        "e",
        "zayo"
      ],
      [
        "h",
        "ha"
      ],
      [
        "h",
        "em"
      ],
      [
        "i",
        "ya"
      ],
      [
        "i",
        "the"
      ],
      [
        "i",
        "thimba"
      ],
      [
        "o",
        "mu"
      ],
      [
        "r",
        "k"
      ],
      [
        "s",
        "ta"
      ],
      [
        "s",
        "ter"
      ],
      [
        "u",
        "s"
      ],
      [
        "la",
        "se"
      ],
      [
        "la",
        "ni"
      ],
      [
        "ba",
        "be"
      ],
      [
        "ba",
        "bo"
      ],
      [
        "ba",
        "mba"
      ],
      [
        "ka",
        "Masipala"
      ],
      [
        "ka",
        "zwelonke"
      ],
      [
        "ma",
        "yelana"
      ],
      [
        "thi",
        "na"
      ],
      [
        "se",
        "ka"
      ],
      [
        "lu",
        "la"
      ],
      [
        "ne",
        "minyaka"
      ],
      [
        "ngo",
        "bu"
      ],
      [
        "za",
        "lwane"
      ],
      [
        "yi",
        "bona"
      ],
      [
        "um",
        "thetho"
      ],
      [
        "pha",
        "tha"
      ],
      [
        "no",
        "M"
      ],
      [
        "kha",
        "me"
      ],
      [
        "so",
        "lo"
      ],
      [
        "so",
        "mbulu"
      ],
      [
        "izi",
        "mu"
      ],
      [
        "ama",
        "qembu"
      ],
      [
        "ezi",
        "nda"
      ],
      [
        "nya",
        "nga"
      ],
      [
        "kwe",
        "mali"
      ],
      [
        "Ma",
        "dla"
      ],
      [
        "sho",
        "na"
      ],
      [
        "fa",
        "ke"
      ],
      [
        "phe",
        "pha"
      ],
      [
        "tsh",
        "wa"
      ],
      [
        "ca",
        "ci"
      ],
      [
        "imi",
        "nyaka"
      ],
      [
        "Nk",
        "k"
      ],
      [
        "ubu",
        "fakazi"
      ],
      [
        "ce",
        "ke"
      ],
      [
        "qini",
        "sa"
      ],
      [
        "Aba",
        "ntu"
      ],
      [
        "balu",
        "lekile"
      ],
      [
        "enga",
        "meli"
      ],
      [
        "ing",
        "izimu"
      ],
      [
        "ngwa",
        "ne"
      ],
      [
        "jabu",
        "le"
      ],
      [
        "om",
        "khulu"
      ],
      [
        "gwe",
        "bo"
      ],
      [
        "tshu",
        "deni"
      ],
      [
        "gqu",
        "gqu"
      ],
      [
        "phen",
        "yo"
      ],
      [
        "cha",
        "za"
      ],
      [
        "Ji",
        "kelele"
      ],
      [
        "Ki",
        "a"
      ],
      [
        "Bla",
        "ck"
      ],
      [
        "dizi",
        "li"
      ],
      [
        "khame",
        "ra"
      ],
      [
        "Madla",
        "nga"
      ],
      [
        ".",
        "”"
      ],
      [
        "A",
        "l"
      ],
      [
        "C",
        "o"
      ],
      [
        "D",
        "ur"
      ],
      [
        "E",
        "K"
      ],
      [
        "H",
        "o"
      ],
      [
        "I",
        "P"
      ],
      [
        "M",
        "fundo"
      ],
      [
        "P",
        "ri"
      ],
      [
        "P",
        "ro"
      ],
      [
        "Z",
        "we"
      ],
      [
        "Z",
        "ayo"
      ],
      [
        "a",
        "nga"
      ],
      [
        "e",
        "Ma"
      ],
      [
        "g",
        "esi"
      ],
      [
        "i",
        "l"
      ],
      [
        "i",
        "ndlela"
      ],
      [
        "n",
        "ze"
      ],
      [
        "n",
        "qo"
      ],
      [
        "n",
        "cwa"
      ],
      [
        "n",
        "kosi"
      ],
      [
        "o",
        "kwa"
      ],
      [
        "o",
        "qo"
      ],
      [
        "u",
        "nga"
      ],
      [
        "u",
        "Si"
      ],
      [
        "u",
        "Lo"
      ],
      [
        "ku",
        "thi"
      ],
      [
        "ku",
        "ne"
      ],
      [
        "ku",
        "dingeka"
      ],
      [
        "ba",
        "n"
      ],
      [
        "ba",
        "kuleli"
      ],
      [
        "zi",
        "kha"
      ],
      [
        "en",
        "ja"
      ],
      [
        "ka",
        "yo"
      ],
      [
        "ka",
        "de"
      ],
      [
        "ka",
        "ncane"
      ],
      [
        "ka",
        "phethroli"
      ],
      [
        "ma",
        "s"
      ],
      [
        "ma",
        "bhizinisi"
      ],
      [
        "li",
        "nde"
      ],
      [
        "lo",
        "vu"
      ],
      [
        "na",
        "nkulu"
      ],
      [
        "we",
        "qembu"
      ],
      [
        "uku",
        "sebenza"
      ],
      [
        "nga",
        "le"
      ],
      [
        "be",
        "rt"
      ],
      [
        "oku",
        "khona"
      ],
      [
        "ya",
        "ba"
      ],
      [
        "ya",
        "lo"
      ],
      [
        "aba",
        "be"
      ],
      [
        "bu",
        "yi"
      ],
      [
        "bu",
        "zo"
      ],
      [
        "ngo",
        "kwe"
      ],
      [
        "ngo",
        "munye"
      ],
      [
        "ye",
        "dwa"
      ],
      [
        "za",
        "khe"
      ],
      [
        "yi",
        "mp"
      ],
      [
        "bo",
        "shwa"
      ],
      [
        "bo",
        "nisi"
      ],
      [
        "mi",
        "le"
      ],
      [
        "mi",
        "shini"
      ],
      [
        "pha",
        "the"
      ],
      [
        "no",
        "nyaka"
      ],
      [
        "izi",
        "ndaba"
      ],
      [
        "ezi",
        "koleni"
      ],
      [
        "nya",
        "keni"
      ],
      [
        "nya",
        "ngweni"
      ],
      [
        "esi",
        "fundazweni"
      ],
      [
        "esi",
        "khundleni"
      ],
      [
        "kw",
        "eni"
      ],
      [
        "nto",
        "kazi"
      ],
      [
        "thu",
        "lwa"
      ],
      [
        "ngen",
        "ele"
      ],
      [
        "uM",
        "fu"
      ],
      [
        "uM",
        "bonisi"
      ],
      [
        "mu",
        "fi"
      ],
      [
        "eli",
        "ka"
      ],
      [
        "phe",
        "zu"
      ],
      [
        "ndi",
        "e"
      ],
      [
        "tsh",
        "we"
      ],
      [
        "swa",
        "no"
      ],
      [
        "hlo",
        "lwa"
      ],
      [
        "ti",
        "onal"
      ],
      [
        "ti",
        "val"
      ],
      [
        "in",
        "cwadi"
      ],
      [
        "bhe",
        "ki"
      ],
      [
        "bha",
        "la"
      ],
      [
        "UM",
        "nyango"
      ],
      [
        "UM",
        "ntwana"
      ],
      [
        "qhu",
        "ba"
      ],
      [
        "wesi",
        "lisa"
      ],
      [
        "ngapha",
        "mbi"
      ],
      [
        "umo",
        "nakalo"
      ],
      [
        "kuba",
        "lwa"
      ],
      [
        "ent",
        "sha"
      ],
      [
        "xo",
        "shwa"
      ],
      [
        "kanja",
        "ni"
      ],
      [
        "Aba",
        "nye"
      ],
      [
        "Pha",
        "sika"
      ],
      [
        "es",
        "tival"
      ],
      [
        "nci",
        "nti"
      ],
      [
        "memeze",
        "le"
      ],
      [
        "Mbu",
        "be"
      ],
      [
        "yale",
        "zo"
      ],
      [
        "gebe",
        "ngu"
      ],
      [
        "SAC",
        "P"
      ],
      [
        "hha",
        "yi"
      ],
      [
        "sombulu",
        "ko"
      ],
      [
        "ezinda",
        "weni"
      ],
      [
        "Al",
        "bert"
      ],
      [
        "Dur",
        "ban"
      ],
      [
        "Zayo",
        "ni"
      ],
      [
        "1",
        "3"
      ],
      [
        "1",
        "5"
      ],
      [
        "A",
        "ku"
      ],
      [
        "B",
        "C"
      ],
      [
        "C",
        "y"
      ],
      [
        "D",
        "la"
      ],
      [
        "E",
        "M"
      ],
      [
        "H",
        "a"
      ],
      [
        "I",
        "K"
      ],
      [
        "J",
        "uni"
      ],
      [
        "R",
        "o"
      ],
      [
        "R",
        "ed"
      ],
      [
        "U",
        "B"
      ],
      [
        "b",
        "hi"
      ],
      [
        "d",
        "le"
      ],
      [
        "e",
        "ke"
      ],
      [
        "e",
        "khuluma"
      ],
      [
        "g",
        "em"
      ],
      [
        "g",
        "cwe"
      ],
      [
        "i",
        "kakhulu"
      ],
      [
        "k",
        "t"
      ],
      [
        "k",
        "enye"
      ],
      [
        "n",
        "sela"
      ],
      [
        "o",
        "ma"
      ],
      [
        "s",
        "sa"
      ],
      [
        "s",
        "mi"
      ],
      [
        "s",
        "ti"
      ],
      [
        "u",
        "B"
      ],
      [
        "u",
        "yi"
      ],
      [
        "u",
        "suku"
      ],
      [
        "u",
        "hulumeni"
      ],
      [
        "v",
        "ume"
      ],
      [
        "ku",
        "wo"
      ],
      [
        "ku",
        "Masipala"
      ],
      [
        "ku",
        "suka"
      ],
      [
        "ng",
        "q"
      ],
      [
        "wa",
        "yo"
      ],
      [
        "wa",
        "ri"
      ],
      [
        "zi",
        "m"
      ],
      [
        "zi",
        "nga"
      ],
      [
        "zi",
        "ndaba"
      ],
      [
        "en",
        "j"
      ],
      [
        "si",
        "teshi"
      ],
      [
        "ka",
        "ndi"
      ],
      [
        "li",
        "ma"
      ],
      [
        "li",
        "tha"
      ],
      [
        "ph",
        "eli"
      ],
      [
        "uku",
        "zi"
      ],
      [
        "oku",
        "yi"
      ],
      [
        "ya",
        "mi"
      ],
      [
        "bu",
        "so"
      ],
      [
        "za",
        "se"
      ],
      [
        "yi",
        "ni"
      ],
      [
        "the",
        "lela"
      ],
      [
        "um",
        "solwa"
      ],
      [
        "um",
        "culo"
      ],
      [
        "bi",
        "kwa"
      ],
      [
        "khu",
        "khula"
      ],
      [
        "lwa",
        "ma"
      ],
      [
        "kha",
        "ngi"
      ],
      [
        "kha",
        "tha"
      ],
      [
        "izi",
        "ngu"
      ],
      [
        "izi",
        "khulu"
      ],
      [
        "izi",
        "bhamu"
      ],
      [
        "hla",
        "le"
      ],
      [
        "ezi",
        "thinta"
      ],
      [
        "ngi",
        "sho"
      ],
      [
        "khe",
        "tha"
      ],
      [
        "esi",
        "bhe"
      ],
      [
        "esi",
        "phezulu"
      ],
      [
        "sha",
        "na"
      ],
      [
        "hle",
        "li"
      ],
      [
        "hle",
        "lweni"
      ],
      [
        "ho",
        "la"
      ],
      [
        "ho",
        "lwa"
      ],
      [
        "Ng",
        "oku"
      ],
      [
        "eli",
        "phezulu"
      ],
      [
        "Si",
        "zo"
      ],
      [
        "di",
        "ngo"
      ],
      [
        "in",
        "ch"
      ],
      [
        "da",
        "yisa"
      ],
      [
        "du",
        "nankulu"
      ],
      [
        "wesi",
        "fundazwe"
      ],
      [
        "dlu",
        "nkulu"
      ],
      [
        "izin",
        "suku"
      ],
      [
        "So",
        "lezwe"
      ],
      [
        "soku",
        "ba"
      ],
      [
        "xo",
        "x"
      ],
      [
        "Um",
        "thombo"
      ],
      [
        "Pha",
        "kathi"
      ],
      [
        "jo",
        "zi"
      ],
      [
        "sen",
        "ze"
      ],
      [
        "wase",
        "M"
      ],
      [
        "Ama",
        "phoyisa"
      ],
      [
        "ziwa",
        "yo"
      ],
      [
        "sezi",
        "ngeni"
      ],
      [
        "lingi",
        "si"
      ],
      [
        "qiniseki",
        "sa"
      ],
      [
        "yesi",
        "gameko"
      ],
      [
        "ngoM",
        "gqibelo"
      ],
      [
        "Ko",
        "dwa"
      ],
      [
        "New",
        "s"
      ],
      [
        "gcwe",
        "le"
      ],
      [
        ")",
        "."
      ],
      [
        "1",
        "2"
      ],
      [
        "A",
        "si"
      ],
      [
        "E",
        "LE"
      ],
      [
        "F",
        "i"
      ],
      [
        "G",
        "ra"
      ],
      [
        "H",
        "lo"
      ],
      [
        "I",
        "Z"
      ],
      [
        "K",
        "le"
      ],
      [
        "K",
        "humalo"
      ],
      [
        "N",
        "kosi"
      ],
      [
        "P",
        "h"
      ],
      [
        "R",
        "a"
      ],
      [
        "R",
        "i"
      ],
      [
        "T",
        "H"
      ],
      [
        "T",
        "e"
      ],
      [
        "W",
        "A"
      ],
      [
        "W",
        "a"
      ],
      [
        "a",
        "m"
      ],
      [
        "a",
        "wa"
      ],
      [
        "a",
        "zi"
      ],
      [
        "a",
        "bu"
      ],
      [
        "a",
        "mehlo"
      ],
      [
        "d",
        "ela"
      ],
      [
        "e",
        "ye"
      ],
      [
        "e",
        "yi"
      ],
      [
        "e",
        "qo"
      ],
      [
        "e",
        "zweni"
      ],
      [
        "g",
        "qa"
      ],
      [
        "h",
        "lwe"
      ],
      [
        "i",
        "d"
      ],
      [
        "i",
        "gama"
      ],
      [
        "i",
        "thuba"
      ],
      [
        "j",
        "u"
      ],
      [
        "m",
        "sebenzi"
      ],
      [
        "o",
        "thisha"
      ],
      [
        "o",
        "ngum"
      ],
      [
        "s",
        "weni"
      ],
      [
        "t",
        "re"
      ],
      [
        "u",
        "thi"
      ],
      [
        "u",
        "to"
      ],
      [
        "u",
        "su"
      ],
      [
        "z",
        "wi"
      ],
      [
        "ku",
        "ze"
      ],
      [
        "ku",
        "hle"
      ],
      [
        "ku",
        "nezi"
      ],
      [
        "ku",
        "qala"
      ],
      [
        "ku",
        "vele"
      ],
      [
        "ku",
        "chaza"
      ],
      [
        "la",
        "hle"
      ],
      [
        "ba",
        "ze"
      ],
      [
        "wa",
        "r"
      ],
      [
        "zi",
        "nto"
      ],
      [
        "en",
        "ze"
      ],
      [
        "en",
        "kulu"
      ],
      [
        "si",
        "nga"
      ],
      [
        "kh",
        "wa"
      ],
      [
        "kh",
        "eni"
      ],
      [
        "thi",
        "le"
      ],
      [
        "li",
        "nye"
      ],
      [
        "na",
        "thi"
      ],
      [
        "na",
        "wo"
      ],
      [
        "uku",
        "qo"
      ],
      [
        "uku",
        "phawula"
      ],
      [
        "se",
        "kelo"
      ],
      [
        "ni",
        "e"
      ],
      [
        "be",
        "ku"
      ],
      [
        "oku",
        "nye"
      ],
      [
        "oku",
        "yinto"
      ],
      [
        "sa",
        "ba"
      ],
      [
        "sa",
        "khe"
      ],
      [
        "sa",
        "kazi"
      ],
      [
        "aba",
        "ba"
      ],
      [
        "aba",
        "landeli"
      ],
      [
        "ke",
        "the"
      ],
      [
        "za",
        "mi"
      ],
      [
        "yi",
        "swa"
      ],
      [
        "ko",
        "hla"
      ],
      [
        "nge",
        "lo"
      ],
      [
        "nge",
        "migomo"
      ],
      [
        "khu",
        "ndla"
      ],
      [
        "lwa",
        "ngo"
      ],
      [
        "kha",
        "kha"
      ],
      [
        "kha",
        "shana"
      ],
      [
        "so",
        "m"
      ],
      [
        "izi",
        "ngane"
      ],
      [
        "hla",
        "mvu"
      ],
      [
        "ama",
        "ndla"
      ],
      [
        "em",
        "cimbi"
      ],
      [
        "ezi",
        "n"
      ],
      [
        "ngi",
        "nga"
      ],
      [
        "tho",
        "lwe"
      ],
      [
        "nye",
        "la"
      ],
      [
        "Ma",
        "ntshi"
      ],
      [
        "isi",
        "mo"
      ],
      [
        "thu",
        "le"
      ],
      [
        "thu",
        "li"
      ],
      [
        "thu",
        "ki"
      ],
      [
        "Ng",
        "eke"
      ],
      [
        "mu",
        "kela"
      ],
      [
        "ngoku",
        "bambisana"
      ],
      [
        "seben",
        "ze"
      ],
      [
        "phe",
        "she"
      ],
      [
        "Si",
        "hlalo"
      ],
      [
        "phi",
        "la"
      ],
      [
        "noku",
        "nye"
      ],
      [
        "Ku",
        "zo"
      ],
      [
        "ndo",
        "ndo"
      ],
      [
        "ti",
        "ki"
      ],
      [
        "ve",
        "r"
      ],
      [
        "du",
        "zo"
      ],
      [
        "phakathi",
        "ni"
      ],
      [
        "qu",
        "ko"
      ],
      [
        "abe",
        "si"
      ],
      [
        "qini",
        "so"
      ],
      [
        "koku",
        "ba"
      ],
      [
        "phu",
        "la"
      ],
      [
        "Ba",
        "sa"
      ],
      [
        "ji",
        "kelele"
      ],
      [
        "wen",
        "za"
      ],
      [
        "Pa",
        "rk"
      ],
      [
        "Sa",
        "mbu"
      ],
      [
        "IN",
        "G"
      ],
      [
        "lungi",
        "se"
      ],
      [
        "phambili",
        "ni"
      ],
      [
        "eya",
        "yi"
      ],
      [
        "boni",
        "le"
      ],
      [
        "chi",
        "tha"
      ],
      [
        "nte",
        "ngo"
      ],
      [
        "gxe",
        "ka"
      ],
      [
        "nini",
        "ngwane"
      ],
      [
        "don",
        "sa"
      ],
      [
        "ezinta",
        "thu"
      ],
      [
        "khonj",
        "iswa"
      ],
      [
        "Lady",
        "smi"
      ],
      [
        "hl",
        "uku"
      ],
      [
        "eG",
        "oli"
      ],
      [
        "mas",
        "kandi"
      ],
      [
        "esibhe",
        "dlela"
      ],
      [
        "Kle",
        "be"
      ],
      [
        "emcimbi",
        "ni"
      ],
      [
        "Sambu",
        "dla"
      ],
      [
        "Ladysmi",
        "th"
      ],
      [
        "1",
        "1"
      ],
      [
        "1",
        "7"
      ],
      [
        "1",
        "8"
      ],
      [
        "2",
        "2"
      ],
      [
        "2",
        "5"
      ],
      [
        "B",
        "he"
      ],
      [
        "E",
        "m"
      ],
      [
        "E",
        "si"
      ],
      [
        "G",
        "ama"
      ],
      [
        "G",
        "EM"
      ],
      [
        "H",
        "ol"
      ],
      [
        "I",
        "so"
      ],
      [
        "I",
        "thimba"
      ],
      [
        "K",
        "ing"
      ],
      [
        "L",
        "O"
      ],
      [
        "L",
        "esi"
      ],
      [
        "M",
        "ba"
      ],
      [
        "N",
        "SFAS"
      ],
      [
        "T",
        "i"
      ],
      [
        "T",
        "op"
      ],
      [
        "U",
        "V"
      ],
      [
        "U",
        "Z"
      ],
      [
        "U",
        "kusho"
      ],
      [
        "U",
        "phinde"
      ],
      [
        "U",
        "Zuma"
      ],
      [
        "W",
        "e"
      ],
      [
        "X",
        "aba"
      ],
      [
        "Y",
        "o"
      ],
      [
        "c",
        "y"
      ],
      [
        "c",
        "aba"
      ],
      [
        "c",
        "ho"
      ],
      [
        "e",
        "x"
      ],
      [
        "e",
        "wu"
      ],
      [
        "e",
        "hlukene"
      ],
      [
        "e",
        "bhodi"
      ],
      [
        "g",
        "ra"
      ],
      [
        "h",
        "lwa"
      ],
      [
        "i",
        "nga"
      ],
      [
        "i",
        "ne"
      ],
      [
        "i",
        "nt"
      ],
      [
        "i",
        "bandla"
      ],
      [
        "i",
        "bhizinisi"
      ],
      [
        "l",
        "t"
      ],
      [
        "l",
        "le"
      ],
      [
        "m",
        "m"
      ],
      [
        "n",
        "qa"
      ],
      [
        "n",
        "ce"
      ],
      [
        "n",
        "suku"
      ],
      [
        "n",
        "hloko"
      ],
      [
        "o",
        "yi"
      ],
      [
        "p",
        "oli"
      ],
      [
        "r",
        "s"
      ],
      [
        "t",
        "ri"
      ],
      [
        "u",
        "S"
      ],
      [
        "u",
        "si"
      ],
      [
        "u",
        "ngo"
      ],
      [
        "v",
        "ala"
      ],
      [
        "z",
        "aba"
      ],
      [
        "ë",
        "n"
      ],
      [
        "ku",
        "m"
      ],
      [
        "ku",
        "yi"
      ],
      [
        "ku",
        "vela"
      ],
      [
        "ku",
        "buye"
      ],
      [
        "th",
        "enda"
      ],
      [
        "ba",
        "ningi"
      ],
      [
        "le",
        "lo"
      ],
      [
        "en",
        "ya"
      ],
      [
        "en",
        "za"
      ],
      [
        "en",
        "zo"
      ],
      [
        "si",
        "be"
      ],
      [
        "si",
        "ndo"
      ],
      [
        "si",
        "funa"
      ],
      [
        "ma",
        "nga"
      ],
      [
        "thi",
        "ki"
      ],
      [
        "li",
        "sile"
      ],
      [
        "na",
        "lo"
      ],
      [
        "na",
        "yo"
      ],
      [
        "na",
        "so"
      ],
      [
        "uku",
        "yo"
      ],
      [
        "uku",
        "bona"
      ],
      [
        "uku",
        "thola"
      ],
      [
        "nd",
        "ezi"
      ],
      [
        "nd",
        "lovu"
      ],
      [
        "se",
        "lwa"
      ],
      [
        "nga",
        "zo"
      ],
      [
        "oku",
        "nga"
      ],
      [
        "ya",
        "mthetho"
      ],
      [
        "aba",
        "sha"
      ],
      [
        "aba",
        "bili"
      ],
      [
        "aba",
        "suke"
      ],
      [
        "bu",
        "ke"
      ],
      [
        "ngo",
        "zi"
      ],
      [
        "ke",
        "zwe"
      ],
      [
        "za",
        "thu"
      ],
      [
        "yi",
        "li"
      ],
      [
        "yi",
        "ze"
      ],
      [
        "the",
        "le"
      ],
      [
        "the",
        "nga"
      ],
      [
        "bo",
        "nga"
      ],
      [
        "um",
        "phakathi"
      ],
      [
        "ze",
        "mi"
      ],
      [
        "ze",
        "lwa"
      ],
      [
        "ko",
        "M"
      ],
      [
        "ko",
        "mi"
      ],
      [
        "ko",
        "nti"
      ],
      [
        "kho",
        "no"
      ],
      [
        "yo",
        "khetho"
      ],
      [
        "pha",
        "mbi"
      ],
      [
        "khu",
        "za"
      ],
      [
        "khu",
        "lelwe"
      ],
      [
        "nj",
        "we"
      ],
      [
        "no",
        "tho"
      ],
      [
        "ha",
        "nje"
      ],
      [
        "ha",
        "mbisa"
      ],
      [
        "ha",
        "mbisana"
      ],
      [
        "kha",
        "lo"
      ],
      [
        "so",
        "nke"
      ],
      [
        "izi",
        "tshudeni"
      ],
      [
        "hla",
        "ngo"
      ],
      [
        "ama",
        "zwe"
      ],
      [
        "tho",
        "li"
      ],
      [
        "nya",
        "kenye"
      ],
      [
        "nje",
        "nge"
      ],
      [
        "nje",
        "ngama"
      ],
      [
        "kwe",
        "mi"
      ],
      [
        "esi",
        "zo"
      ],
      [
        "sha",
        "ja"
      ],
      [
        "ki",
        "bha"
      ],
      [
        "isi",
        "gameko"
      ],
      [
        "isi",
        "celo"
      ],
      [
        "isi",
        "gwebo"
      ],
      [
        "ci",
        "ko"
      ],
      [
        "ci",
        "ndezi"
      ],
      [
        "wo",
        "Mnyango"
      ],
      [
        "ben",
        "e"
      ],
      [
        "ngen",
        "zeka"
      ],
      [
        "fa",
        "ni"
      ],
      [
        "Ng",
        "isi"
      ],
      [
        "Ng",
        "emuva"
      ],
      [
        "ngoku",
        "hlanga"
      ],
      [
        "mba",
        "ngo"
      ],
      [
        "uthe",
        "la"
      ],
      [
        "phi",
        "sa"
      ],
      [
        "phi",
        "kisa"
      ],
      [
        "noku",
        "zi"
      ],
      [
        "kule",
        "zi"
      ],
      [
        "ndle",
        "ko"
      ],
      [
        "hlo",
        "la"
      ],
      [
        "wu",
        "la"
      ],
      [
        "ca",
        "tion"
      ],
      [
        "in",
        "selelo"
      ],
      [
        "shi",
        "sa"
      ],
      [
        "shi",
        "ye"
      ],
      [
        "bhe",
        "yili"
      ],
      [
        "fi",
        "nye"
      ],
      [
        "imi",
        "zi"
      ],
      [
        "qa",
        "leni"
      ],
      [
        "eku",
        "beni"
      ],
      [
        "qu",
        "ngq"
      ],
      [
        "nja",
        "lo"
      ],
      [
        "xa",
        "zulu"
      ],
      [
        "vi",
        "shini"
      ],
      [
        "umo",
        "ya"
      ],
      [
        "naba",
        "ntu"
      ],
      [
        "ny",
        "wa"
      ],
      [
        "kuba",
        "ntu"
      ],
      [
        "xo",
        "xa"
      ],
      [
        "nq",
        "uma"
      ],
      [
        "SA",
        "P"
      ],
      [
        "SA",
        "BC"
      ],
      [
        "emi",
        "nyakeni"
      ],
      [
        "yisi",
        "thu"
      ],
      [
        "woku",
        "thi"
      ],
      [
        "gi",
        "so"
      ],
      [
        "ase",
        "be"
      ],
      [
        "eM",
        "nyangweni"
      ],
      [
        "pa",
        "per"
      ],
      [
        "jabu",
        "lisa"
      ],
      [
        "fo",
        "lo"
      ],
      [
        "gwa",
        "za"
      ],
      [
        "lungi",
        "swa"
      ],
      [
        "kunga",
        "bi"
      ],
      [
        "nen",
        "kinga"
      ],
      [
        "lli",
        "ng"
      ],
      [
        "ngoLwesi",
        "thathu"
      ],
      [
        "qha",
        "za"
      ],
      [
        "qha",
        "muka"
      ],
      [
        "iN",
        "kantolo"
      ],
      [
        "hambe",
        "la"
      ],
      [
        "uD",
        "kt"
      ],
      [
        "Kho",
        "mishini"
      ],
      [
        "dalu",
        "le"
      ],
      [
        "khum",
        "bula"
      ],
      [
        "Ci",
        "tro"
      ],
      [
        "phaka",
        "mi"
      ],
      [
        "khanka",
        "so"
      ],
      [
        "Sha",
        "yamthetho"
      ],
      [
        "khokh",
        "ela"
      ],
      [
        "lama",
        "Zayoni"
      ],
      [
        "sem",
        "thethweni"
      ],
      [
        "gungu",
        "ndlovu"
      ],
      [
        "hem",
        "bani"
      ],
      [
        "omu",
        "sha"
      ],
      [
        "yimp",
        "oqo"
      ],
      [
        "ncinti",
        "swano"
      ],
      [
        "gem",
        "bula"
      ],
      [
        "News",
        "paper"
      ],
      [
        "Basa",
        "lt"
      ],
      [
        "GEM",
        "S"
      ],
      [
        "gra",
        "m"
      ],
      [
        "poli",
        "tiki"
      ],
      [
        "thiki",
        "thi"
      ],
      [
        "konti",
        "leka"
      ],
      [
        "ngokuhlanga",
        "nyela"
      ],
      [
        "Citro",
        "ën"
      ],
      [
        "Newspaper",
        "s"
      ],
      [
        "1",
        "4"
      ],
      [
        "9",
        "5"
      ],
      [
        "A",
        "B"
      ],
      [
        "A",
        "ya"
      ],
      [
        "B",
        "u"
      ],
      [
        "E",
        "du"
      ],
      [
        "F",
        "an"
      ],
      [
        "G",
        "Q"
      ],
      [
        "I",
        "E"
      ],
      [
        "I",
        "mi"
      ],
      [
        "K",
        "wen"
      ],
      [
        "P",
        "e"
      ],
      [
        "S",
        "H"
      ],
      [
        "T",
        "o"
      ],
      [
        "Y",
        "A"
      ],
      [
        "Y",
        "E"
      ],
      [
        "a",
        "the"
      ],
      [
        "a",
        "ngi"
      ],
      [
        "a",
        "khe"
      ],
      [
        "c",
        "re"
      ],
      [
        "c",
        "abanga"
      ],
      [
        "c",
        "tion"
      ],
      [
        "c",
        "tor"
      ],
      [
        "d",
        "ini"
      ],
      [
        "e",
        "the"
      ],
      [
        "e",
        "yo"
      ],
      [
        "e",
        "pha"
      ],
      [
        "e",
        "thinta"
      ],
      [
        "e",
        "yokuthi"
      ],
      [
        "e",
        "khaya"
      ],
      [
        "g",
        "q"
      ],
      [
        "h",
        "aba"
      ],
      [
        "i",
        "kha"
      ],
      [
        "i",
        "zwe"
      ],
      [
        "i",
        "buya"
      ],
      [
        "i",
        "ntengo"
      ],
      [
        "j",
        "e"
      ],
      [
        "k",
        "m"
      ],
      [
        "o",
        "nga"
      ],
      [
        "o",
        "kwe"
      ],
      [
        "o",
        "hlelweni"
      ],
      [
        "r",
        "um"
      ],
      [
        "s",
        "cre"
      ],
      [
        "t",
        "v"
      ],
      [
        "u",
        "l"
      ],
      [
        "u",
        "p"
      ],
      [
        "u",
        "t"
      ],
      [
        "u",
        "so"
      ],
      [
        "u",
        "phinde"
      ],
      [
        "u",
        "yena"
      ],
      [
        "u",
        "Pa"
      ],
      [
        "u",
        "phenyo"
      ],
      [
        "ku",
        "no"
      ],
      [
        "ku",
        "ndleni"
      ],
      [
        "ku",
        "phinde"
      ],
      [
        "ku",
        "qhubeka"
      ],
      [
        "ku",
        "nesi"
      ],
      [
        "th",
        "umele"
      ],
      [
        "ba",
        "the"
      ],
      [
        "ba",
        "vu"
      ],
      [
        "wa",
        "lo"
      ],
      [
        "wa",
        "be"
      ],
      [
        "wa",
        "ne"
      ],
      [
        "wa",
        "wo"
      ],
      [
        "wa",
        "KwaZulu"
      ],
      [
        "wa",
        "rd"
      ],
      [
        "en",
        "kundleni"
      ],
      [
        "si",
        "mo"
      ],
      [
        "si",
        "fo"
      ],
      [
        "ka",
        "Zwe"
      ],
      [
        "ka",
        "maskandi"
      ],
      [
        "ma",
        "ry"
      ],
      [
        "thi",
        "nte"
      ],
      [
        "li",
        "thini"
      ],
      [
        "lo",
        "hulumeni"
      ],
      [
        "na",
        "ke"
      ],
      [
        "na",
        "kho"
      ],
      [
        "we",
        "zwe"
      ],
      [
        "we",
        "MKP"
      ],
      [
        "we",
        "Theku"
      ],
      [
        "ph",
        "ini"
      ],
      [
        "uku",
        "bheka"
      ],
      [
        "nga",
        "thi"
      ],
      [
        "nga",
        "so"
      ],
      [
        "oku",
        "fanele"
      ],
      [
        "sa",
        "zi"
      ],
      [
        "aba",
        "sa"
      ],
      [
        "bu",
        "yisa"
      ],
      [
        "ye",
        "mali"
      ],
      [
        "ye",
        "Mantshi"
      ],
      [
        "ke",
        "zwa"
      ],
      [
        "za",
        "ni"
      ],
      [
        "za",
        "kwabo"
      ],
      [
        "bo",
        "lo"
      ],
      [
        "pha",
        "thwa"
      ],
      [
        "nj",
        "wa"
      ],
      [
        "kha",
        "ndlu"
      ],
      [
        "so",
        "ka"
      ],
      [
        "so",
        "bu"
      ],
      [
        "izi",
        "ndawo"
      ],
      [
        "hla",
        "nhla"
      ],
      [
        "ama",
        "gama"
      ],
      [
        "em",
        "o"
      ],
      [
        "em",
        "thethweni"
      ],
      [
        "esi",
        "Ngisi"
      ],
      [
        "ki",
        "la"
      ],
      [
        "Ma",
        "shi"
      ],
      [
        "Ma",
        "gi"
      ],
      [
        "isi",
        "balo"
      ],
      [
        "wo",
        "m"
      ],
      [
        "fa",
        "kwe"
      ],
      [
        "uM",
        "buso"
      ],
      [
        "Ng",
        "wen"
      ],
      [
        "mu",
        "ke"
      ],
      [
        "uma",
        "lo"
      ],
      [
        "end",
        "eni"
      ],
      [
        "end",
        "lini"
      ],
      [
        "to",
        "ri"
      ],
      [
        "Si",
        "funa"
      ],
      [
        "phi",
        "le"
      ],
      [
        "di",
        "li"
      ],
      [
        "Ku",
        "fanele"
      ],
      [
        "khathi",
        "ni"
      ],
      [
        "ndo",
        "da"
      ],
      [
        "ti",
        "c"
      ],
      [
        "da",
        "ka"
      ],
      [
        "imi",
        "buzo"
      ],
      [
        "imi",
        "niningwane"
      ],
      [
        "dla",
        "lweni"
      ],
      [
        "de",
        "de"
      ],
      [
        "UM",
        "HO"
      ],
      [
        "bona",
        "kale"
      ],
      [
        "she",
        "lwe"
      ],
      [
        "she",
        "she"
      ],
      [
        "fundi",
        "seni"
      ],
      [
        "co",
        "co"
      ],
      [
        "vi",
        "mba"
      ],
      [
        "zwa",
        "kala"
      ],
      [
        "kuzo",
        "ba"
      ],
      [
        "202",
        "3"
      ],
      [
        "izo",
        "ba"
      ],
      [
        "emi",
        "hlanu"
      ],
      [
        "kwezi",
        "nye"
      ],
      [
        "re",
        "tori"
      ],
      [
        "ndawo",
        "nye"
      ],
      [
        "jo",
        "yi"
      ],
      [
        "jo",
        "vo"
      ],
      [
        "nyu",
        "nyana"
      ],
      [
        "eN",
        "kulu"
      ],
      [
        "sen",
        "za"
      ],
      [
        "enda",
        "wo"
      ],
      [
        "Sa",
        "ssa"
      ],
      [
        "gwa",
        "q"
      ],
      [
        "lungi",
        "sa"
      ],
      [
        "buye",
        "la"
      ],
      [
        "nx",
        "usa"
      ],
      [
        "ngoLwesi",
        "bili"
      ],
      [
        "ngoLwesi",
        "hlanu"
      ],
      [
        "fana",
        "yo"
      ],
      [
        "Ca",
        "r"
      ],
      [
        "zin",
        "suku"
      ],
      [
        "kusa",
        "sa"
      ],
      [
        "sebenzisa",
        "na"
      ],
      [
        "eba",
        "ndleni"
      ],
      [
        "saka",
        "zo"
      ],
      [
        "Uni",
        "te"
      ],
      [
        "osa",
        "ziwayo"
      ],
      [
        "ngoM",
        "sombuluko"
      ],
      [
        "oda",
        "na"
      ],
      [
        "base",
        "khaya"
      ],
      [
        "Oku",
        "nye"
      ],
      [
        "mhla",
        "nje"
      ],
      [
        "Ap",
        "p"
      ],
      [
        "Fu",
        "nda"
      ],
      [
        "jwaye",
        "lekile"
      ],
      [
        "wezoku",
        "Thu"
      ],
      [
        "Bi",
        "lling"
      ],
      [
        "HI",
        "V"
      ],
      [
        "por",
        "ts"
      ],
      [
        "dutshu",
        "lwa"
      ],
      [
        "hluka",
        "ni"
      ],
      [
        "Meyi",
        "wa"
      ],
      [
        "Pri",
        "mary"
      ],
      [
        "izingu",
        "quko"
      ],
      [
        "Ph",
        "ini"
      ],
      [
        "Iso",
        "lezwe"
      ],
      [
        "ungo",
        "se"
      ],
      [
        "thele",
        "vishini"
      ],
      [
        "hanje",
        "lwe"
      ],
      [
        "qungq",
        "uthela"
      ],
      [
        "yisithu",
        "pha"
      ],
      [
        "Edu",
        "cation"
      ],
      [
        "Kwen",
        "zeka"
      ],
      [
        "scre",
        "en"
      ],
      [
        "Magi",
        "c"
      ],
      [
        "Ngwen",
        "ya"
      ],
      [
        "UMHO",
        "LI"
      ],
      [
        "retori",
        "a"
      ],
      [
        "1",
        "6"
      ],
      [
        "3",
        "6"
      ],
      [
        "5",
        "0"
      ],
      [
        "8",
        "0"
      ],
      [
        "A",
        "M"
      ],
      [
        "A",
        "Z"
      ],
      [
        "A",
        "r"
      ],
      [
        "A",
        "ngi"
      ],
      [
        "A",
        "ga"
      ],
      [
        "A",
        "uto"
      ],
      [
        "C",
        "h"
      ],
      [
        "E",
        "zi"
      ],
      [
        "F",
        "e"
      ],
      [
        "F",
        "estival"
      ],
      [
        "G",
        "o"
      ],
      [
        "G",
        "war"
      ],
      [
        "I",
        "C"
      ],
      [
        "L",
        "aba"
      ],
      [
        "L",
        "ezi"
      ],
      [
        "L",
        "eli"
      ],
      [
        "M",
        "khwanazi"
      ],
      [
        "N",
        "t"
      ],
      [
        "N",
        "kantolo"
      ],
      [
        "O",
        "ma"
      ],
      [
        "P",
        "ho"
      ],
      [
        "R",
        "7"
      ],
      [
        "S",
        "ho"
      ],
      [
        "S",
        "UV"
      ],
      [
        "S",
        "cho"
      ],
      [
        "U",
        "Nksz"
      ],
      [
        "U",
        "Masemola"
      ],
      [
        "U",
        "Nkk"
      ],
      [
        "Z",
        "E"
      ],
      [
        "a",
        "hla"
      ],
      [
        "a",
        "benza"
      ],
      [
        "d",
        "tu"
      ],
      [
        "d",
        "lelwa"
      ],
      [
        "d",
        "ume"
      ],
      [
        "e",
        "ng"
      ],
      [
        "e",
        "yoku"
      ],
      [
        "f",
        "e"
      ],
      [
        "f",
        "f"
      ],
      [
        "f",
        "ini"
      ],
      [
        "h",
        "y"
      ],
      [
        "i",
        "la"
      ],
      [
        "i",
        "na"
      ],
      [
        "i",
        "ze"
      ],
      [
        "i",
        "ndi"
      ],
      [
        "i",
        "va"
      ],
      [
        "i",
        "Silo"
      ],
      [
        "k",
        "lo"
      ],
      [
        "l",
        "y"
      ],
      [
        "n",
        "hlobo"
      ],
      [
        "o",
        "ba"
      ],
      [
        "o",
        "thi"
      ],
      [
        "o",
        "dlule"
      ],
      [
        "o",
        "Mnyango"
      ],
      [
        "o",
        "ngase"
      ],
      [
        "r",
        "th"
      ],
      [
        "r",
        "hu"
      ],
      [
        "t",
        "lala"
      ],
      [
        "u",
        "e"
      ],
      [
        "u",
        "bo"
      ],
      [
        "u",
        "thu"
      ],
      [
        "u",
        "te"
      ],
      [
        "u",
        "ch"
      ],
      [
        "u",
        "sizo"
      ],
      [
        "u",
        "shu"
      ],
      [
        "u",
        "daba"
      ],
      [
        "u",
        "thando"
      ],
      [
        "v",
        "umele"
      ],
      [
        "w",
        "uku"
      ],
      [
        "y",
        "wa"
      ],
      [
        "ku",
        "na"
      ],
      [
        "ku",
        "suke"
      ],
      [
        "ku",
        "wona"
      ],
      [
        "ku",
        "ngenzeka"
      ],
      [
        "ng",
        "cindezi"
      ],
      [
        "la",
        "nga"
      ],
      [
        "la",
        "lelwa"
      ],
      [
        "ba",
        "thi"
      ],
      [
        "ba",
        "kwazi"
      ],
      [
        "ba",
        "mbe"
      ],
      [
        "wa",
        "mi"
      ],
      [
        "zi",
        "ka"
      ],
      [
        "si",
        "sa"
      ],
      [
        "si",
        "sekelo"
      ],
      [
        "ka",
        "li"
      ],
      [
        "ka",
        "sh"
      ],
      [
        "ka",
        "ze"
      ],
      [
        "kh",
        "ele"
      ],
      [
        "kh",
        "wama"
      ],
      [
        "ma",
        "ne"
      ],
      [
        "ma",
        "duze"
      ],
      [
        "li",
        "lo"
      ],
      [
        "li",
        "zo"
      ],
      [
        "we",
        "le"
      ],
      [
        "we",
        "thimba"
      ],
      [
        "we",
        "bandla"
      ],
      [
        "ph",
        "eni"
      ],
      [
        "uku",
        "m"
      ],
      [
        "se",
        "t"
      ],
      [
        "se",
        "ngathi"
      ],
      [
        "ni",
        "kwa"
      ],
      [
        "ni",
        "kazi"
      ],
      [
        "lu",
        "zo"
      ],
      [
        "nga",
        "ba"
      ],
      [
        "nga",
        "zi"
      ],
      [
        "be",
        "la"
      ],
      [
        "be",
        "zo"
      ],
      [
        "oku",
        "zo"
      ],
      [
        "sa",
        "bantu"
      ],
      [
        "aba",
        "se"
      ],
      [
        "aba",
        "funa"
      ],
      [
        "aba",
        "holi"
      ],
      [
        "nt",
        "weni"
      ],
      [
        "ngo",
        "Juni"
      ],
      [
        "za",
        "me"
      ],
      [
        "yi",
        "zo"
      ],
      [
        "yi",
        "seni"
      ],
      [
        "zo",
        "bu"
      ],
      [
        "um",
        "lando"
      ],
      [
        "bi",
        "za"
      ],
      [
        "mi",
        "si"
      ],
      [
        "mi",
        "zwa"
      ],
      [
        "mi",
        "sele"
      ],
      [
        "nge",
        "minyaka"
      ],
      [
        "pha",
        "ra"
      ],
      [
        "khu",
        "le"
      ],
      [
        "kwa",
        "thi"
      ],
      [
        "no",
        "Nksz"
      ],
      [
        "so",
        "tho"
      ],
      [
        "izi",
        "khala"
      ],
      [
        "izi",
        "kole"
      ],
      [
        "izi",
        "bonelelo"
      ],
      [
        "hla",
        "hla"
      ],
      [
        "hla",
        "ngene"
      ],
      [
        "em",
        "e"
      ],
      [
        "em",
        "zini"
      ],
      [
        "em",
        "phakathini"
      ],
      [
        "em",
        "gwaq"
      ],
      [
        "ezi",
        "nya"
      ],
      [
        "ngi",
        "sa"
      ],
      [
        "tho",
        "mbe"
      ],
      [
        "nya",
        "thelo"
      ],
      [
        "hu",
        "lani"
      ],
      [
        "hu",
        "zani"
      ],
      [
        "kwe",
        "minyaka"
      ],
      [
        "kwe",
        "Silo"
      ],
      [
        "tha",
        "ka"
      ],
      [
        "khe",
        "the"
      ],
      [
        "esi",
        "nga"
      ],
      [
        "esi",
        "de"
      ],
      [
        "esi",
        "koleni"
      ],
      [
        "mbi",
        "se"
      ],
      [
        "Ma",
        "tlala"
      ],
      [
        "isi",
        "kole"
      ],
      [
        "isi",
        "coco"
      ],
      [
        "ngu",
        "M"
      ],
      [
        "ci",
        "al"
      ],
      [
        "wo",
        "rth"
      ],
      [
        "ben",
        "ze"
      ],
      [
        "thu",
        "lo"
      ],
      [
        "uM",
        "phathiswa"
      ],
      [
        "Ng",
        "co"
      ],
      [
        "pho",
        "yiseni"
      ],
      [
        "mo",
        "nd"
      ],
      [
        "seben",
        "zela"
      ],
      [
        "ndi",
        "le"
      ],
      [
        "to",
        "lo"
      ],
      [
        "di",
        "er"
      ],
      [
        "va",
        "lwa"
      ],
      [
        "va",
        "kash"
      ],
      [
        "kwen",
        "te"
      ],
      [
        "kwen",
        "zile"
      ],
      [
        "Ku",
        "ya"
      ],
      [
        "Ku",
        "bikwa"
      ],
      [
        "ri",
        "l"
      ],
      [
        "ri",
        "ga"
      ],
      [
        "ca",
        "ca"
      ],
      [
        "ca",
        "leni"
      ],
      [
        "in",
        "kampani"
      ],
      [
        "su",
        "sa"
      ],
      [
        "su",
        "kela"
      ],
      [
        "yoku",
        "nga"
      ],
      [
        "mp",
        "i"
      ],
      [
        "ve",
        "lo"
      ],
      [
        "fi",
        "so"
      ],
      [
        "imi",
        "thetho"
      ],
      [
        "te",
        "ji"
      ],
      [
        "te",
        "shini"
      ],
      [
        "qa",
        "shwe"
      ],
      [
        "ga",
        "tsha"
      ],
      [
        "hlu",
        "leka"
      ],
      [
        "izin",
        "kampani"
      ],
      [
        "gci",
        "ze"
      ],
      [
        "st",
        "ri"
      ],
      [
        "nama",
        "phoyisa"
      ],
      [
        "nja",
        "ro"
      ],
      [
        "hlanga",
        "na"
      ],
      [
        "cwa",
        "ni"
      ],
      [
        "loku",
        "bulala"
      ],
      [
        "ngapha",
        "mbili"
      ],
      [
        "ge",
        "benga"
      ],
      [
        "ema",
        "lo"
      ],
      [
        "ema",
        "hhovisi"
      ],
      [
        "kuzo",
        "kwenza"
      ],
      [
        "land",
        "ele"
      ],
      [
        "thola",
        "kale"
      ],
      [
        "umu",
        "fi"
      ],
      [
        "thetho",
        "sisekelo"
      ],
      [
        "eze",
        "politiki"
      ],
      [
        "ndele",
        "ne"
      ],
      [
        "ayi",
        "kho"
      ],
      [
        "or",
        "th"
      ],
      [
        "Ngi",
        "ya"
      ],
      [
        "Le",
        "sotho"
      ],
      [
        "uT",
        "ha"
      ],
      [
        "uT",
        "hulani"
      ],
      [
        "Sa",
        "dtu"
      ],
      [
        "ch",
        "mond"
      ],
      [
        "thanda",
        "na"
      ],
      [
        "obe",
        "ku"
      ],
      [
        "ngom",
        "culo"
      ],
      [
        "ngom",
        "lando"
      ],
      [
        "shaye",
        "la"
      ],
      [
        "ngoLwesi",
        "ne"
      ],
      [
        "Ca",
        "pe"
      ],
      [
        "IS",
        "I"
      ],
      [
        "uMa",
        "zibuko"
      ],
      [
        "zom",
        "phakathi"
      ],
      [
        "isa",
        "ne"
      ],
      [
        "phawu",
        "le"
      ],
      [
        "phen",
        "ya"
      ],
      [
        "Zi",
        "on"
      ],
      [
        "bezi",
        "ndaba"
      ],
      [
        "hloni",
        "pha"
      ],
      [
        "weze",
        "Mfundo"
      ],
      [
        "saka",
        "zweni"
      ],
      [
        "Uni",
        "ver"
      ],
      [
        "kon",
        "zweni"
      ],
      [
        "Hi",
        "gh"
      ],
      [
        "imp",
        "i"
      ],
      [
        "In",
        "sta"
      ],
      [
        "Mp",
        "ungose"
      ],
      [
        "phendu",
        "le"
      ],
      [
        "Ga",
        "ute"
      ],
      [
        "Africa",
        "n"
      ],
      [
        "yoM",
        "thethosisekelo"
      ],
      [
        "Cha",
        "na"
      ],
      [
        "Tha",
        "mi"
      ],
      [
        "Vu",
        "si"
      ],
      [
        "sungu",
        "li"
      ],
      [
        "nend",
        "lela"
      ],
      [
        "por",
        "t"
      ],
      [
        "okwa",
        "manje"
      ],
      [
        "uLo",
        "ndie"
      ],
      [
        "bheki",
        "se"
      ],
      [
        "Ri",
        "chmond"
      ],
      [
        "gqa",
        "misa"
      ],
      [
        "pheshe",
        "ya"
      ],
      [
        "abesi",
        "fazane"
      ],
      [
        "komi",
        "ti"
      ],
      [
        "finye",
        "lele"
      ],
      [
        "SAP",
        "S"
      ],
      [
        "phakami",
        "so"
      ],
      [
        "Fan",
        "nie"
      ],
      [
        "kila",
        "sini"
      ],
      [
        "daka",
        "mizwa"
      ],
      [
        "Aga",
        "sti"
      ],
      [
        "Gwar",
        "ube"
      ],
      [
        "Scho",
        "ol"
      ],
      [
        "ongase",
        "kho"
      ],
      [
        "rhu",
        "leni"
      ],
      [
        "phara",
        "fini"
      ],
      [
        "Ngco",
        "bo"
      ],
      [
        "kwente",
        "ngo"
      ],
      [
        "riga",
        "dier"
      ],
      [
        "Insta",
        "gram"
      ],
      [
        "Gaute",
        "ng"
      ],
      [
        "1",
        "00"
      ],
      [
        "5",
        "00"
      ],
      [
        "A",
        "C"
      ],
      [
        "A",
        "ward"
      ],
      [
        "B",
        "aba"
      ],
      [
        "C",
        "ya"
      ],
      [
        "C",
        "ent"
      ],
      [
        "D",
        "S"
      ],
      [
        "D",
        "e"
      ],
      [
        "D",
        "o"
      ],
      [
        "D",
        "lu"
      ],
      [
        "D",
        "uma"
      ],
      [
        "E",
        "ng"
      ],
      [
        "E",
        "qhuba"
      ],
      [
        "F",
        "a"
      ],
      [
        "H",
        "AN"
      ],
      [
        "I",
        "M"
      ],
      [
        "K",
        "M"
      ],
      [
        "M",
        "the"
      ],
      [
        "M",
        "ini"
      ],
      [
        "N",
        "x"
      ],
      [
        "N",
        "ta"
      ],
      [
        "N",
        "dunankulu"
      ],
      [
        "N",
        "dlunkulu"
      ],
      [
        "N",
        "je"
      ],
      [
        "O",
        "B"
      ],
      [
        "O",
        "munye"
      ],
      [
        "P",
        "retoria"
      ],
      [
        "R",
        "2"
      ],
      [
        "R",
        "S"
      ],
      [
        "R",
        "e"
      ],
      [
        "S",
        "haba"
      ],
      [
        "T",
        "R"
      ],
      [
        "T",
        "ho"
      ],
      [
        "U",
        "be"
      ],
      [
        "U",
        "bu"
      ],
      [
        "U",
        "qhube"
      ],
      [
        "U",
        "hulumeni"
      ],
      [
        "U",
        "Ramaphosa"
      ],
      [
        "U",
        "dalule"
      ],
      [
        "V",
        "ele"
      ],
      [
        "X",
        "o"
      ],
      [
        "a",
        "r"
      ],
      [
        "a",
        "lu"
      ],
      [
        "a",
        "ngama"
      ],
      [
        "a",
        "ngene"
      ],
      [
        "a",
        "qhubeke"
      ],
      [
        "b",
        "ri"
      ],
      [
        "c",
        "on"
      ],
      [
        "d",
        "we"
      ],
      [
        "e",
        "q"
      ],
      [
        "e",
        "thu"
      ],
      [
        "f",
        "or"
      ],
      [
        "g",
        "aba"
      ],
      [
        "g",
        "qo"
      ],
      [
        "h",
        "lisa"
      ],
      [
        "h",
        "umu"
      ],
      [
        "i",
        "ba"
      ],
      [
        "i",
        "to"
      ],
      [
        "i",
        "su"
      ],
      [
        "i",
        "funa"
      ],
      [
        "i",
        "swe"
      ],
      [
        "i",
        "lungu"
      ],
      [
        "i",
        "MKP"
      ],
      [
        "i",
        "Ngonyama"
      ],
      [
        "i",
        "Mbube"
      ],
      [
        "i",
        "qiniso"
      ],
      [
        "i",
        "ndoda"
      ],
      [
        "j",
        "ele"
      ],
      [
        "l",
        "d"
      ],
      [
        "m",
        "enye"
      ],
      [
        "m",
        "fundo"
      ],
      [
        "m",
        "endeni"
      ],
      [
        "n",
        "weni"
      ],
      [
        "n",
        "kinga"
      ],
      [
        "n",
        "hlekelele"
      ],
      [
        "o",
        "the"
      ],
      [
        "o",
        "no"
      ],
      [
        "o",
        "ra"
      ],
      [
        "o",
        "st"
      ],
      [
        "o",
        "koku"
      ],
      [
        "o",
        "bala"
      ],
      [
        "o",
        "masipala"
      ],
      [
        "q",
        "wa"
      ],
      [
        "s",
        "si"
      ],
      [
        "t",
        "weni"
      ],
      [
        "u",
        "J"
      ],
      [
        "u",
        "W"
      ],
      [
        "u",
        "b"
      ],
      [
        "u",
        "li"
      ],
      [
        "u",
        "kwa"
      ],
      [
        "u",
        "nyaka"
      ],
      [
        "u",
        "thole"
      ],
      [
        "u",
        "Ngqongqoshe"
      ],
      [
        "u",
        "phawule"
      ],
      [
        "u",
        "Xo"
      ],
      [
        "v",
        "eni"
      ],
      [
        "v",
        "emba"
      ],
      [
        "x",
        "usa"
      ],
      [
        "y",
        "we"
      ],
      [
        "y",
        "ho"
      ],
      [
        "z",
        "z"
      ],
      [
        "ku",
        "phi"
      ],
      [
        "ku",
        "da"
      ],
      [
        "ku",
        "bhe"
      ],
      [
        "ku",
        "de"
      ],
      [
        "ku",
        "ningi"
      ],
      [
        "ku",
        "khombisa"
      ],
      [
        "ku",
        "gxi"
      ],
      [
        "ng",
        "wini"
      ],
      [
        "th",
        "umela"
      ],
      [
        "la",
        "zi"
      ],
      [
        "la",
        "pha"
      ],
      [
        "ba",
        "ma"
      ],
      [
        "ba",
        "yi"
      ],
      [
        "le",
        "na"
      ],
      [
        "le",
        "so"
      ],
      [
        "le",
        "thu"
      ],
      [
        "zi",
        "be"
      ],
      [
        "zi",
        "ya"
      ],
      [
        "zi",
        "yo"
      ],
      [
        "zi",
        "ngeni"
      ],
      [
        "zi",
        "ngaka"
      ],
      [
        "en",
        "ki"
      ],
      [
        "en",
        "cane"
      ],
      [
        "si",
        "c"
      ],
      [
        "si",
        "gameko"
      ],
      [
        "si",
        "kole"
      ],
      [
        "ka",
        "khe"
      ],
      [
        "ka",
        "Zulu"
      ],
      [
        "ka",
        "hlanu"
      ],
      [
        "ka",
        "ngaka"
      ],
      [
        "ka",
        "Madlanga"
      ],
      [
        "kh",
        "en"
      ],
      [
        "ma",
        "ndla"
      ],
      [
        "ma",
        "qembu"
      ],
      [
        "ma",
        "stende"
      ],
      [
        "li",
        "ya"
      ],
      [
        "li",
        "yo"
      ],
      [
        "li",
        "gh"
      ],
      [
        "lo",
        "dwa"
      ],
      [
        "na",
        "ku"
      ],
      [
        "na",
        "ni"
      ],
      [
        "na",
        "mhlanje"
      ],
      [
        "we",
        "thu"
      ],
      [
        "we",
        "Phasika"
      ],
      [
        "ph",
        "umu"
      ],
      [
        "uku",
        "khu"
      ],
      [
        "uku",
        "khuluma"
      ],
      [
        "uku",
        "bulala"
      ],
      [
        "uku",
        "vikela"
      ],
      [
        "nd",
        "u"
      ],
      [
        "nd",
        "um"
      ],
      [
        "nd",
        "ela"
      ],
      [
        "nd",
        "weni"
      ],
      [
        "se",
        "Thekwini"
      ],
      [
        "sh",
        "1"
      ],
      [
        "nga",
        "bo"
      ],
      [
        "be",
        "li"
      ],
      [
        "be",
        "qembu"
      ],
      [
        "be",
        "bandla"
      ],
      [
        "oku",
        "ningi"
      ],
      [
        "oku",
        "lindeleke"
      ],
      [
        "ya",
        "wo"
      ],
      [
        "aba",
        "zi"
      ],
      [
        "aba",
        "ne"
      ],
      [
        "aba",
        "zalwane"
      ],
      [
        "bu",
        "ze"
      ],
      [
        "bu",
        "yise"
      ],
      [
        "nt",
        "so"
      ],
      [
        "ngo",
        "kwenza"
      ],
      [
        "ngo",
        "suku"
      ],
      [
        "ngo",
        "Mashi"
      ],
      [
        "ye",
        "la"
      ],
      [
        "ye",
        "li"
      ],
      [
        "ye",
        "minyaka"
      ],
      [
        "ke",
        "kho"
      ],
      [
        "yi",
        "ngakho"
      ],
      [
        "zo",
        "M"
      ],
      [
        "zo",
        "lo"
      ],
      [
        "bo",
        "phe"
      ],
      [
        "bo",
        "shiwe"
      ],
      [
        "um",
        "bu"
      ],
      [
        "um",
        "shado"
      ],
      [
        "um",
        "sindo"
      ],
      [
        "um",
        "khankaso"
      ],
      [
        "ze",
        "li"
      ],
      [
        "ze",
        "lwe"
      ],
      [
        "ko",
        "bu"
      ],
      [
        "ko",
        "mbiko"
      ],
      [
        "bi",
        "le"
      ],
      [
        "bi",
        "llion"
      ],
      [
        "mi",
        "na"
      ],
      [
        "kho",
        "lo"
      ],
      [
        "kho",
        "kha"
      ],
      [
        "kho",
        "nya"
      ],
      [
        "kho",
        "mba"
      ],
      [
        "nge",
        "mali"
      ],
      [
        "nge",
        "cala"
      ],
      [
        "pha",
        "m"
      ],
      [
        "khu",
        "ba"
      ],
      [
        "khu",
        "tha"
      ],
      [
        "kwa",
        "zo"
      ],
      [
        "kwa",
        "lesi"
      ],
      [
        "kwa",
        "lokho"
      ],
      [
        "kha",
        "si"
      ],
      [
        "kha",
        "kheni"
      ],
      [
        "so",
        "li"
      ],
      [
        "so",
        "ndo"
      ],
      [
        "izi",
        "ng"
      ],
      [
        "izi",
        "fundo"
      ],
      [
        "izi",
        "kibha"
      ],
      [
        "izi",
        "nyathelo"
      ],
      [
        "hla",
        "ka"
      ],
      [
        "ama",
        "nye"
      ],
      [
        "ama",
        "bolo"
      ],
      [
        "em",
        "p"
      ],
      [
        "em",
        "hlanga"
      ],
      [
        "em",
        "eze"
      ],
      [
        "em",
        "sakazweni"
      ],
      [
        "ezi",
        "nga"
      ],
      [
        "ezi",
        "zo"
      ],
      [
        "ngi",
        "zo"
      ],
      [
        "tho",
        "lwa"
      ],
      [
        "nje",
        "ngo"
      ],
      [
        "kwe",
        "se"
      ],
      [
        "tha",
        "kusa"
      ],
      [
        "khe",
        "lwane"
      ],
      [
        "khe",
        "misi"
      ],
      [
        "esi",
        "Shayamthetho"
      ],
      [
        "nye",
        "lwa"
      ],
      [
        "sha",
        "ne"
      ],
      [
        "Ma",
        "nje"
      ],
      [
        "Ma",
        "jozi"
      ],
      [
        "isi",
        "hlobo"
      ],
      [
        "isi",
        "tatimende"
      ],
      [
        "ngu",
        "Ngqongqoshe"
      ],
      [
        "wo",
        "kholo"
      ],
      [
        "ngen",
        "za"
      ],
      [
        "fa",
        "kwa"
      ],
      [
        "ho",
        "x"
      ],
      [
        "khulu",
        "me"
      ],
      [
        "mu",
        "hla"
      ],
      [
        "qo",
        "tho"
      ],
      [
        "ngoku",
        "ba"
      ],
      [
        "ngoku",
        "zi"
      ],
      [
        "ngoku",
        "semthethweni"
      ],
      [
        "uma",
        "sipala"
      ],
      [
        "mba",
        "ma"
      ],
      [
        "mo",
        "nakalo"
      ],
      [
        "ndi",
        "sa"
      ],
      [
        "to",
        "uch"
      ],
      [
        "Si",
        "mela"
      ],
      [
        "phi",
        "we"
      ],
      [
        "di",
        "nga"
      ],
      [
        "di",
        "di"
      ],
      [
        "nu",
        "wari"
      ],
      [
        "kwen",
        "ziwa"
      ],
      [
        "Ku",
        "le"
      ],
      [
        "Ku",
        "rhuleni"
      ],
      [
        "tsh",
        "eni"
      ],
      [
        "ri",
        "st"
      ],
      [
        "ti",
        "le"
      ],
      [
        "ca",
        "l"
      ],
      [
        "in",
        "fo"
      ],
      [
        "in",
        "ment"
      ],
      [
        "in",
        "konzo"
      ],
      [
        "ta",
        "inment"
      ],
      [
        "su",
        "le"
      ],
      [
        "zoku",
        "ba"
      ],
      [
        "zoku",
        "shaja"
      ],
      [
        "da",
        "le"
      ],
      [
        "da",
        "yiswa"
      ],
      [
        "yoku",
        "khetha"
      ],
      [
        "bhe",
        "kele"
      ],
      [
        "mp",
        "ilo"
      ],
      [
        "imi",
        "sebenzi"
      ],
      [
        "imi",
        "cimbi"
      ],
      [
        "imi",
        "phumela"
      ],
      [
        "dla",
        "me"
      ],
      [
        "du",
        "linde"
      ],
      [
        "bha",
        "le"
      ],
      [
        "bha",
        "nge"
      ],
      [
        "qa",
        "lile"
      ],
      [
        "UM",
        "C"
      ],
      [
        "UM",
        "nuz"
      ],
      [
        "UM",
        "khwanazi"
      ],
      [
        "ra",
        "n"
      ],
      [
        "20",
        "19"
      ],
      [
        "ene",
        "ral"
      ],
      [
        "vu",
        "la"
      ],
      [
        "ja",
        "bula"
      ],
      [
        "ja",
        "ji"
      ],
      [
        "izin",
        "cwadi"
      ],
      [
        "gci",
        "ni"
      ],
      [
        "gci",
        "neni"
      ],
      [
        "st",
        "y"
      ],
      [
        "eku",
        "fundiseni"
      ],
      [
        "hi",
        "ngo"
      ],
      [
        "fundi",
        "swa"
      ],
      [
        "Na",
        "nda"
      ],
      [
        "Na",
        "tional"
      ],
      [
        "co",
        "b"
      ],
      [
        "khi",
        "shwe"
      ],
      [
        "vi",
        "le"
      ],
      [
        "vi",
        "ce"
      ],
      [
        "ema",
        "il"
      ],
      [
        "ema",
        "phoyiseni"
      ],
      [
        "ema",
        "kilasini"
      ],
      [
        "mbo",
        "ni"
      ],
      [
        "mbo",
        "no"
      ],
      [
        "zwa",
        "ka"
      ],
      [
        "nta",
        "mbama"
      ],
      [
        "kwazi",
        "se"
      ],
      [
        "202",
        "2"
      ],
      [
        "gu",
        "la"
      ],
      [
        "gu",
        "nya"
      ],
      [
        "aku",
        "kho"
      ],
      [
        "mbe",
        "la"
      ],
      [
        "umu",
        "zi"
      ],
      [
        "yisi",
        "khathi"
      ],
      [
        "Aba",
        "solwa"
      ],
      [
        "uzo",
        "ba"
      ],
      [
        "phu",
        "za"
      ],
      [
        "woku",
        "bambisana"
      ],
      [
        "ngezi",
        "ndlela"
      ],
      [
        "olu",
        "zayo"
      ],
      [
        "Le",
        "wi"
      ],
      [
        "ji",
        "ka"
      ],
      [
        "wen",
        "a"
      ],
      [
        "enga",
        "ka"
      ],
      [
        "ese",
        "zingeni"
      ],
      [
        "wase",
        "Kurhuleni"
      ],
      [
        "ngqo",
        "ngqoshe"
      ],
      [
        "qe",
        "de"
      ],
      [
        "IN",
        "D"
      ],
      [
        "aka",
        "zange"
      ],
      [
        "siza",
        "kala"
      ],
      [
        "Me",
        "ya"
      ],
      [
        "Me",
        "di"
      ],
      [
        "Me",
        "tro"
      ],
      [
        "bala",
        "le"
      ],
      [
        "usho",
        "nele"
      ],
      [
        "ngemp",
        "ilo"
      ],
      [
        "Mi",
        "na"
      ],
      [
        "No",
        "kho"
      ],
      [
        "No",
        "vemba"
      ],
      [
        "LE",
        "D"
      ],
      [
        "hli",
        "se"
      ],
      [
        "qiniseki",
        "se"
      ],
      [
        "nci",
        "phisa"
      ],
      [
        "mem",
        "ora"
      ],
      [
        "nemi",
        "nye"
      ],
      [
        "phele",
        "ni"
      ],
      [
        "nobu",
        "hle"
      ],
      [
        "pheth",
        "we"
      ],
      [
        "kwenze",
        "ke"
      ],
      [
        "hloni",
        "shwa"
      ],
      [
        "Ja",
        "nuwari"
      ],
      [
        "Ja",
        "cob"
      ],
      [
        "UL",
        "U"
      ],
      [
        "hambe",
        "le"
      ],
      [
        "khokhe",
        "lwe"
      ],
      [
        "ebi",
        "se"
      ],
      [
        "uD",
        "uma"
      ],
      [
        "xha",
        "so"
      ],
      [
        "tshe",
        "lwe"
      ],
      [
        "Hi",
        "ll"
      ],
      [
        "oda",
        "lwe"
      ],
      [
        "yale",
        "lo"
      ],
      [
        "gxe",
        "kwa"
      ],
      [
        "Ci",
        "ty"
      ],
      [
        "dubula",
        "na"
      ],
      [
        "Lu",
        "ndi"
      ],
      [
        "Tha",
        "to"
      ],
      [
        "oso",
        "mabhizinisi"
      ],
      [
        "sungu",
        "lwa"
      ],
      [
        "Kha",
        "ya"
      ],
      [
        "nend",
        "odana"
      ],
      [
        "dutshu",
        "lwe"
      ],
      [
        "phumele",
        "le"
      ],
      [
        "umi",
        "le"
      ],
      [
        "Sta",
        "te"
      ],
      [
        "ceke",
        "ceke"
      ],
      [
        "nqo",
        "ba"
      ],
      [
        "nkosi",
        "ni"
      ],
      [
        "Red",
        "dy"
      ],
      [
        "ikakhulu",
        "kazi"
      ],
      [
        "zim",
        "beni"
      ],
      [
        "enj",
        "ini"
      ],
      [
        "zase",
        "Khaya"
      ],
      [
        "senze",
        "ke"
      ],
      [
        "Gra",
        "de"
      ],
      [
        "Te",
        "am"
      ],
      [
        "ukuqo",
        "kwa"
      ],
      [
        "kohla",
        "kalo"
      ],
      [
        "thuki",
        "swa"
      ],
      [
        "hluku",
        "me"
      ],
      [
        "Hol",
        "worth"
      ],
      [
        "int",
        "ela"
      ],
      [
        "nqa",
        "mu"
      ],
      [
        "koM",
        "phakathi"
      ],
      [
        "hlango",
        "thi"
      ],
      [
        "Aya",
        "nda"
      ],
      [
        "kaZwe",
        "lithini"
      ],
      [
        "dili",
        "za"
      ],
      [
        "Nt",
        "wana"
      ],
      [
        "Oma",
        "cekeceke"
      ],
      [
        "hy",
        "bri"
      ],
      [
        "emgwaq",
        "weni"
      ],
      [
        "cwani",
        "ngo"
      ],
      [
        "Award",
        "s"
      ],
      [
        "Cya",
        "n"
      ],
      [
        "Vele",
        "nkosini"
      ],
      [
        "humu",
        "sha"
      ],
      [
        "uXo",
        "lani"
      ],
      [
        "kugxi",
        "lwe"
      ],
      [
        "ligh",
        "ts"
      ],
      [
        "emhlanga",
        "nweni"
      ],
      [
        "touch",
        "screen"
      ],
      [
        "Simela",
        "ne"
      ],
      [
        "info",
        "tainment"
      ],
      [
        "Lewi",
        "s"
      ],
      [
        "memora",
        "ndum"
      ],
      [
        "Holworth",
        "y"
      ],
      [
        "hybri",
        "d"
      ],
      [
        "\"",
        "."
      ],
      [
        "2",
        "8"
      ],
      [
        "4",
        "5"
      ],
      [
        "7",
        "8"
      ],
      [
        "9",
        "0"
      ],
      [
        ":",
        "\""
      ],
      [
        "A",
        "T"
      ],
      [
        "A",
        "nd"
      ],
      [
        "C",
        "ho"
      ],
      [
        "C",
        "hi"
      ],
      [
        "D",
        "J"
      ],
      [
        "D",
        "a"
      ],
      [
        "D",
        "ube"
      ],
      [
        "D",
        "LA"
      ],
      [
        "E",
        "mp"
      ],
      [
        "E",
        "LA"
      ],
      [
        "E",
        "LI"
      ],
      [
        "G",
        "O"
      ],
      [
        "G",
        "umbi"
      ],
      [
        "I",
        "B"
      ],
      [
        "I",
        "ya"
      ],
      [
        "I",
        "the"
      ],
      [
        "I",
        "LE"
      ],
      [
        "L",
        "AN"
      ],
      [
        "M",
        "swe"
      ],
      [
        "M",
        "pa"
      ],
      [
        "M",
        "balula"
      ],
      [
        "M",
        "elika"
      ],
      [
        "N",
        "to"
      ],
      [
        "N",
        "da"
      ],
      [
        "N",
        "ingizimu"
      ],
      [
        "N",
        "UZ"
      ],
      [
        "N",
        "orth"
      ],
      [
        "O",
        "R"
      ],
      [
        "O",
        "kwa"
      ],
      [
        "O",
        "SH"
      ],
      [
        "P",
        "H"
      ],
      [
        "P",
        "la"
      ],
      [
        "P",
        "oli"
      ],
      [
        "Q",
        "ue"
      ],
      [
        "R",
        "IS"
      ],
      [
        "R",
        "us"
      ],
      [
        "S",
        "I"
      ],
      [
        "S",
        "esi"
      ],
      [
        "S",
        "te"
      ],
      [
        "S",
        "pe"
      ],
      [
        "S",
        "enzo"
      ],
      [
        "U",
        "kuba"
      ],
      [
        "U",
        "Xaba"
      ],
      [
        "V",
        "i"
      ],
      [
        "a",
        "d"
      ],
      [
        "a",
        "lo"
      ],
      [
        "a",
        "thu"
      ],
      [
        "a",
        "kazi"
      ],
      [
        "a",
        "phinde"
      ],
      [
        "a",
        "sebenze"
      ],
      [
        "c",
        "t"
      ],
      [
        "e",
        "V"
      ],
      [
        "e",
        "t"
      ],
      [
        "e",
        "fu"
      ],
      [
        "e",
        "kha"
      ],
      [
        "e",
        "phe"
      ],
      [
        "e",
        "zoku"
      ],
      [
        "e",
        "bha"
      ],
      [
        "e",
        "funa"
      ],
      [
        "e",
        "phakathi"
      ],
      [
        "e",
        "qembu"
      ],
      [
        "e",
        "fanele"
      ],
      [
        "e",
        "duze"
      ],
      [
        "e",
        "Durban"
      ],
      [
        "e",
        "caleni"
      ],
      [
        "e",
        "jele"
      ],
      [
        "f",
        "estival"
      ],
      [
        "g",
        "y"
      ],
      [
        "g",
        "co"
      ],
      [
        "g",
        "qoka"
      ],
      [
        "i",
        "yi"
      ],
      [
        "i",
        "hla"
      ],
      [
        "i",
        "khona"
      ],
      [
        "i",
        "meni"
      ],
      [
        "i",
        "ndaba"
      ],
      [
        "i",
        "Mo"
      ],
      [
        "i",
        "yona"
      ],
      [
        "i",
        "Ca"
      ],
      [
        "i",
        "fika"
      ],
      [
        "i",
        "thenda"
      ],
      [
        "j",
        "uba"
      ],
      [
        "l",
        "la"
      ],
      [
        "l",
        "wini"
      ],
      [
        "m",
        "fi"
      ],
      [
        "m",
        "qoka"
      ],
      [
        "m",
        "nandi"
      ],
      [
        "m",
        "ncintiswano"
      ],
      [
        "m",
        "jovo"
      ],
      [
        "m",
        "sakazo"
      ],
      [
        "n",
        "thi"
      ],
      [
        "n",
        "co"
      ],
      [
        "n",
        "zeka"
      ],
      [
        "n",
        "hlangano"
      ],
      [
        "o",
        "fu"
      ],
      [
        "o",
        "bese"
      ],
      [
        "o",
        "zayo"
      ],
      [
        "o",
        "phethe"
      ],
      [
        "o",
        "yedwa"
      ],
      [
        "o",
        "Klebe"
      ],
      [
        "o",
        "nobuhle"
      ],
      [
        "p",
        "p"
      ],
      [
        "q",
        "h"
      ],
      [
        "q",
        "wini"
      ],
      [
        "q",
        "waba"
      ],
      [
        "r",
        "ro"
      ],
      [
        "s",
        "y"
      ],
      [
        "s",
        "to"
      ],
      [
        "s",
        "pe"
      ],
      [
        "t",
        "ela"
      ],
      [
        "u",
        "ng"
      ],
      [
        "u",
        "ci"
      ],
      [
        "u",
        "qo"
      ],
      [
        "u",
        "du"
      ],
      [
        "u",
        "hlu"
      ],
      [
        "u",
        "kwazi"
      ],
      [
        "u",
        "Le"
      ],
      [
        "u",
        "No"
      ],
      [
        "u",
        "tshele"
      ],
      [
        "u",
        "Li"
      ],
      [
        "u",
        "lwazi"
      ],
      [
        "v",
        "en"
      ],
      [
        "v",
        "uma"
      ],
      [
        "v",
        "umela"
      ],
      [
        "w",
        "n"
      ],
      [
        "x",
        "h"
      ],
      [
        "y",
        "k"
      ],
      [
        "z",
        "abantu"
      ],
      [
        "ku",
        "la"
      ]
    ]
  }
}