{
  "version": "1.0",
  "truncation": null,
  "padding": null,
  "added_tokens": [
    {
      "id": 0,
      "content": "[UNK]",
      "single_word": false,
      "lstrip": false,
      "rstrip": false,
      "normalized": false,
      "special": true
    },
    {
      "id": 1,
      "content": "[PAD]",
      "single_word": false,
      "lstrip": false,
      "rstrip": false,
      "normalized": false,
      "special": true
    }
  ],
  "normalizer": null,
  "pre_tokenizer": {
    "type": "Whitespace"
  },
  "post_processor": null,
  "decoder": null,
  "model": {
    "type": "BPE",
    "dropout": null,
    "unk_token": "[UNK]",
    "continuing_subword_prefix": null,
    "end_of_word_suffix": null,
    "fuse_unk": false,
    "byte_fallback": false,
    "ignore_merges": false,
    "vocab": {
      "[UNK]": 0,
      "[PAD]": 1,
      "!": 2,
      "\"": 3,
      "#": 4,
      "$": 5,
      "%": 6,
      "&": 7,
      "'": 8,
      "(": 9,
      ")": 10,
      "*": 11,
      "+": 12,
      ",": 13,
      "-": 14,
      ".": 15,
      "/": 16,
      "0": 17,
      "1": 18,
      "2": 19,
      "3": 20,
      "4": 21,
      "5": 22,
      "6": 23,
      "7": 24,
      "8": 25,
      "9": 26,
      ":": 27,
      ";": 28,
      "?": 29,
      "@": 30,
      "A": 31,
      "B": 32,
      "C": 33,
      "D": 34,
      "E": 35,
      "F": 36,
      "G": 37,
      "H": 38,
      "I": 39,
      "J": 40,
      "K": 41,
      "L": 42,
      "M": 43,
      "N": 44,
      "O": 45,
      "P": 46,
      "Q": 47,
      "R": 48,
      "S": 49,
      "T": 50,
      "U": 51,
      "V": 52,
      "W": 53,
      "X": 54,
      "Y": 55,
      "Z": 56,
      "[": 57,
      "]": 58,
      "_": 59,
      "a": 60,
      "b": 61,
      "c": 62,
      "d": 63,
      "e": 64,
      "f": 65,
      "g": 66,
      "h": 67,
      "i": 68,
      "j": 69,
      "k": 70,
      "l": 71,
      "m": 72,
      "n": 73,
      "o": 74,
      "p": 75,
      "q": 76,
      "r": 77,
      "s": 78,
      "t": 79,
      "u": 80,
      "v": 81,
      "w": 82,
      "x": 83,
      "y": 84,
      "z": 85,
      "|": 86,
      "·": 87,
      "Ë": 88,
      "á": 89,
      "â": 90,
      "è": 91,
      "é": 92,
      "ê": 93,
      "ë": 94,
      "​": 95,
      "–": 96,
      "‘": 97,
      "’": 98,
      "“": 99,
      "”": 100,
      "•": 101,
      "…": 102,
      "ku": 103,
      "ng": 104,
      "la": 105,
      "th": 106,
      "ba": 107,
      "le": 108,
      "wa": 109,
      "en": 110,
      "zi": 111,
      "si": 112,
      "ka": 113,
      "kh": 114,
      "ma": 115,
      "li": 116,
      "lo": 117,
      "na": 118,
      "thi": 119,
      "se": 120,
      "ph": 121,
      "we": 122,
      "nd": 123,
      "uku": 124,
      "nga": 125,
      "ni": 126,
      "sh": 127,
      "be": 128,
      "ngo": 129,
      "lu": 130,
      "ya": 131,
      "sa": 132,
      "ne": 133,
      "oku": 134,
      "ye": 135,
      "yi": 136,
      "bu": 137,
      "za": 138,
      "em": 139,
      "aba": 140,
      "um": 141,
      "ke": 142,
      "eni": 143,
      "nt": 144,
      "zo": 145,
      "ze": 146,
      "ko": 147,
      "bi": 148,
      "bo": 149,
      "ukuthi": 150,
      "yo": 151,
      "kho": 152,
      "the": 153,
      "ha": 154,
      "no": 155,
      "mi": 156,
      "kwa": 157,
      "ngi": 158,
      "nge": 159,
      "pha": 160,
      "nj": 161,
      "lwa": 162,
      "khu": 163,
      "hla": 164,
      "so": 165,
      "dla": 166,
      "ama": 167,
      "kha": 168,
      "fu": 169,
      "kw": 170,
      "tha": 171,
      "ela": 172,
      "izi": 173,
      "nje": 174,
      "weni": 175,
      "thu": 176,
      "ele": 177,
      "kwe": 178,
      "ezi": 179,
      "Ma": 180,
      "esi": 181,
      "ki": 182,
      "wo": 183,
      "tho": 184,
      "bh": 185,
      "shi": 186,
      "fa": 187,
      "nya": 188,
      "ngu": 189,
      "isi": 190,
      "nye": 191,
      "ci": 192,
      "mbi": 193,
      "sha": 194,
      "mu": 195,
      "hle": 196,
      "nda": 197,
      "sho": 198,
      "qa": 199,
      "di": 200,
      "qo": 201,
      "er": 202,
      "khe": 203,
      "ngen": 204,
      "hu": 205,
      "da": 206,
      "kwi": 207,
      "ngoba": 208,
      "Ng": 209,
      "eli": 210,
      "ben": 211,
      "ngoku": 212,
      "on": 213,
      "nto": 214,
      "ca": 215,
      "khulu": 216,
      "pho": 217,
      "ndo": 218,
      "ho": 219,
      "ta": 220,
      "uma": 221,
      "ntu": 222,
      "de": 223,
      "ti": 224,
      "va": 225,
      "lwe": 226,
      "mba": 227,
      "te": 228,
      "dwa": 229,
      "seben": 230,
      "khona": 231,
      "Si": 232,
      "phe": 233,
      "wu": 234,
      "emi": 235,
      "lela": 236,
      "ri": 237,
      "in": 238,
      "ra": 239,
      "uM": 240,
      "qe": 241,
      "ndi": 242,
      "phi": 243,
      "mo": 244,
      "kwen": 245,
      "zu": 246,
      "me": 247,
      "fi": 248,
      "bhe": 249,
      "uthe": 250,
      "embu": 251,
      "kule": 252,
      "hlo": 253,
      "co": 254,
      "khathi": 255,
      "ini": 256,
      "qembu": 257,
      "Ku": 258,
      "noku": 259,
      "kodwa": 260,
      "su": 261,
      "kusho": 262,
      "mp": 263,
      "ga": 264,
      "hi": 265,
      "sebenzi": 266,
      "ro": 267,
      "to": 268,
      "yoku": 269,
      "20": 270,
      "nu": 271,
      "hlu": 272,
      "nke": 273,
      "dlalo": 274,
      "njengoba": 275,
      "imi": 276,
      "zwe": 277,
      "ngesi": 278,
      "qhu": 279,
      "swa": 280,
      "kathi": 281,
      "bha": 282,
      "Ba": 283,
      "Na": 284,
      "he": 285,
      "gi": 286,
      "lweni": 287,
      "leni": 288,
      "lule": 289,
      "futhi": 290,
      "Uthe": 291,
      "nde": 292,
      "nyaka": 293,
      "du": 294,
      "vu": 295,
      "zini": 296,
      "qala": 297,
      "gci": 298,
      "bona": 299,
      "she": 300,
      "eku": 301,
      "phu": 302,
      "ene": 303,
      "loku": 304,
      "cu": 305,
      "zwa": 306,
      "ngapha": 307,
      "ve": 308,
      "zoku": 309,
      "ena": 310,
      "UM": 311,
      "zin": 312,
      "land": 313,
      "ulu": 314,
      "wesi": 315,
      "gu": 316,
      ",”": 317,
      "go": 318,
      "ja": 319,
      "or": 320,
      "nele": 321,
      "mbe": 322,
      "yisa": 323,
      "bili": 324,
      "xa": 325,
      "abantu": 326,
      "nama": 327,
      "st": 328,
      "vi": 329,
      "kile": 330,
      "funa": 331,
      "ndla": 332,
      "qu": 333,
      "nsi": 334,
      "do": 335,
      "kazi": 336,
      "Kwa": 337,
      "fana": 338,
      "Zulu": 339,
      "phakathi": 340,
      "So": 341,
      "dlali": 342,
      "kwazi": 343,
      "ce": 344,
      "nja": 345,
      "tsh": 346,
      "kakhulu": 347,
      "hlanga": 348,
      "00": 349,
      "lele": 350,
      "kuba": 351,
      "koku": 352,
      "woku": 353,
      "kela": 354,
      "mali": 355,
      "ngama": 356,
      "Pi": 357,
      "khi": 358,
      "ningi": 359,
      "The": 360,
      "qi": 361,
      "pa": 362,
      "nuz": 363,
      "uN": 364,
      "qhube": 365,
      "bula": 366,
      "Lo": 367,
      "yisi": 368,
      "ge": 369,
      "kuleli": 370,
      "Ca": 371,
      ".\"": 372,
      "beni": 373,
      "lokhu": 374,
      "kene": 375,
      "men": 376,
      "re": 377,
      "ese": 378,
      "thola": 379,
      "Chi": 380,
      "ngesikhathi": 381,
      "suku": 382,
      "nezi": 383,
      "nta": 384,
      "fanele": 385,
      "lapho": 386,
      "Sta": 387,
      "202": 388,
      "ubu": 389,
      "ema": 390,
      "mbisa": 391,
      "hlelo": 392,
      "dlule": 393,
      "sen": 394,
      "naba": 395,
      "Mo": 396,
      "Af": 397,
      "ukuze": 398,
      "cala": 399,
      "nzi": 400,
      "Le": 401,
      "uMnuz": 402,
      "kwenza": 403,
      "tes": 404,
      "nti": 405,
      "Su": 406,
      "sele": 407,
      "abe": 408,
      "Ka": 409,
      "kulu": 410,
      "owa": 411,
      ",\"": 412,
      "lisa": 413,
      "dlala": 414,
      "ukuba": 415,
      "izo": 416,
      "Co": 417,
      "dlalweni": 418,
      "soku": 419,
      "Be": 420,
      "ef": 421,
      "seku": 422,
      "rates": 423,
      "mbili": 424,
      "Pirates": 425,
      "ns": 426,
      "yu": 427,
      "emu": 428,
      "cimbi": 429,
      "kulo": 430,
      "umu": 431,
      "izin": 432,
      "qini": 433,
      "enga": 434,
      "thathu": 435,
      "nom": 436,
      "ship": 437,
      "ube": 438,
      "njalo": 439,
      "ty": 440,
      "ndawo": 441,
      "zeka": 442,
      "phoyisa": 443,
      "mele": 444,
      "wase": 445,
      "mpi": 446,
      "Afri": 447,
      "lesi": 448,
      "kuzo": 449,
      "Ngi": 450,
      "wen": 451,
      "gcina": 452,
      "shwa": 453,
      "Chief": 454,
      "ks": 455,
      "Chiefs": 456,
      "kuka": 457,
      "xo": 458,
      "phen": 459,
      "vele": 460,
      "bho": 461,
      "funda": 462,
      "umo": 463,
      "kube": 464,
      "phezu": 465,
      "cwa": 466,
      "swe": 467,
      "emp": 468,
      "phinde": 469,
      "nyango": 470,
      "phum": 471,
      "Pha": 472,
      "UN": 473,
      "emuva": 474,
      "aku": 475,
      "ch": 476,
      "tal": 477,
      "kwini": 478,
      "noma": 479,
      "fundi": 480,
      "mdlalo": 481,
      "uzo": 482,
      "waba": 483,
      "yena": 484,
      "ndle": 485,
      "zela": 486,
      "ntolo": 487,
      "enda": 488,
      "kantolo": 489,
      "ngaba": 490,
      "AN": 491,
      "dlela": 492,
      "Pr": 493,
      "solwa": 494,
      "Ama": 495,
      "ndleni": 496,
      "use": 497,
      "olu": 498,
      "wns": 499,
      "dium": 500,
      "ngenxa": 501,
      "ji": 502,
      "Stadium": 503,
      "Sundo": 504,
      "qeqe": 505,
      "Sundowns": 506,
      "meni": 507,
      "wi": 508,
      "leli": 509,
      "emier": 510,
      "Premier": 511,
      "qhubeka": 512,
      "Aba": 513,
      "wama": 514,
      "kana": 515,
      "Nga": 516,
      "Natal": 517,
      "Ci": 518,
      "them": 519,
      "sela": 520,
      "Thekwini": 521,
      "thuba": 522,
      "buye": 523,
      "SA": 524,
      "al": 525,
      "ngena": 526,
      "lli": 527,
      "phela": 528,
      "tion": 529,
      "KwaZulu": 530,
      "of": 531,
      "enye": 532,
      "hlukene": 533,
      "mbo": 534,
      "tu": 535,
      "zweni": 536,
      "ngayo": 537,
      "Sa": 538,
      "landela": 539,
      "lando": 540,
      "yesi": 541,
      "khaya": 542,
      "ksz": 543,
      "ndaba": 544,
      "lula": 545,
      "kala": 546,
      "ngokuthi": 547,
      "eza": 548,
      "ban": 549,
      "munye": 550,
      "kahle": 551,
      "ngoM": 552,
      "zane": 553,
      "holi": 554,
      "eM": 555,
      "hamba": 556,
      "hlaba": 557,
      "Premiership": 558,
      "kwaba": 559,
      "Bafana": 560,
      "ar": 561,
      "obe": 562,
      "phuzu": 563,
      "shini": 564,
      "No": 565,
      "thetho": 566,
      "LI": 567,
      "Lwesi": 568,
      "cha": 569,
      "sonto": 570,
      "ngum": 571,
      "phele": 572,
      "ndlela": 573,
      "wana": 574,
      "ngakho": 575,
      "Cha": 576,
      "mela": 577,
      "yen": 578,
      "yona": 579,
      "ig": 580,
      "ziwa": 581,
      "Go": 582,
      "khuluma": 583,
      "lle": 584,
      "nen": 585,
      "ngezi": 586,
      "waye": 587,
      "lokho": 588,
      "ndeni": 589,
      "lungu": 590,
      "eya": 591,
      "rd": 592,
      "culo": 593,
      "thole": 594,
      "kwesi": 595,
      "eThekwini": 596,
      "pe": 597,
      "kanje": 598,
      "lingi": 599,
      "veze": 600,
      "Se": 601,
      "engu": 602,
      "bala": 603,
      "ngoma": 604,
      "fika": 605,
      "Um": 606,
      "ase": 607,
      "kele": 608,
      "huma": 609,
      "Li": 610,
      "nyu": 611,
      "ngoLwesi": 612,
      "mende": 613,
      "FC": 614,
      "eN": 615,
      "kwama": 616,
      "Uni": 617,
      "lelwa": 618,
      "yakhe": 619,
      "mpa": 620,
      "thwa": 621,
      "goli": 622,
      "City": 623,
      "kukhona": 624,
      "khala": 625,
      "kwezi": 626,
      "Ga": 627,
      "hli": 628,
      "om": 629,
      "nq": 630,
      "imali": 631,
      "qha": 632,
      "ur": 633,
      "nesi": 634,
      "zama": 635,
      "ezin": 636,
      "uya": 637,
      "es": 638,
      "lezi": 639,
      "besi": 640,
      "ebu": 641,
      "wathi": 642,
      "ayi": 643,
      "gqi": 644,
      "vo": 645,
      "leka": 646,
      "bese": 647,
      "yase": 648,
      "sebenza": 649,
      "qinise": 650,
      "La": 651,
      "nqo": 652,
      "ngeni": 653,
      "lolu": 654,
      "nisi": 655,
      "cane": 656,
      "bazo": 657,
      "ligi": 658,
      "Or": 659,
      "usho": 660,
      "ngweni": 661,
      "Ja": 662,
      "ngeke": 663,
      "Afrika": 664,
      "),": 665,
      "vela": 666,
      "hlanu": 667,
      "kanjalo": 668,
      "moto": 669,
      "Ju": 670,
      "wukuthi": 671,
      "thiwa": 672,
      "jabu": 673,
      "usi": 674,
      "lika": 675,
      "ngizi": 676,
      "shaye": 677,
      "wini": 678,
      "qeqeshi": 679,
      "uMa": 680,
      "shu": 681,
      "ed": 682,
      "kosi": 683,
      "Isi": 684,
      "et": 685,
      "eze": 686,
      "po": 687,
      "nemi": 688,
      "emdlalweni": 689,
      "suka": 690,
      "umuntu": 691,
      "aka": 692,
      "kunga": 693,
      "ngqo": 694,
      "ndele": 695,
      "bezi": 696,
      "thanda": 697,
      "hulu": 698,
      "sesi": 699,
      "ngendlela": 700,
      "nzima": 701,
      "fo": 702,
      "lala": 703,
      "Mi": 704,
      "seni": 705,
      "zen": 706,
      "Ar": 707,
      "Ima": 708,
      "daba": 709,
      "ezo": 710,
      "nqa": 711,
      "ngom": 712,
      "ngaphandle": 713,
      "phansi": 714,
      "veza": 715,
      "hulumeni": 716,
      "ing": 717,
      "ld": 718,
      "manje": 719,
      "phambili": 720,
      "yokuthi": 721,
      "landeli": 722,
      "Image": 723,
      "Kho": 724,
      "isa": 725,
      "melo": 726,
      "endaweni": 727,
      "belo": 728,
      "fazane": 729,
      "okuba": 730,
      "ethi": 731,
      "ize": 732,
      "uB": 733,
      "wakhe": 734,
      "sipa": 735,
      "ngane": 736,
      "ume": 737,
      "yom": 738,
      "qale": 739,
      "usa": 740,
      "fundo": 741,
      "sipala": 742,
      "hlaka": 743,
      "Zi": 744,
      "khombisa": 745,
      "up": 746,
      "kinga": 747,
      "phezulu": 748,
      "sika": 749,
      "Phala": 750,
      "Uma": 751,
      "azo": 752,
      "ts": 753,
      "izinto": 754,
      "Ngo": 755,
      "esa": 756,
      "edlule": 757,
      "mbu": 758,
      "siza": 759,
      "sebenzisa": 760,
      "meli": 761,
      "nka": 762,
      "kufanele": 763,
      "game": 764,
      "culi": 765,
      "kundleni": 766,
      "hlala": 767,
      "wona": 768,
      "engi": 769,
      "twa": 770,
      "abanga": 771,
      "izinisi": 772,
      "muva": 773,
      "uT": 774,
      "thwe": 775,
      "banga": 776,
      "bhekene": 777,
      "Uku": 778,
      "nx": 779,
      "qoka": 780,
      "nokuthi": 781,
      "ent": 782,
      "hambe": 783,
      "ciko": 784,
      "nyama": 785,
      "isikhathi": 786,
      "Lokhu": 787,
      "kusa": 788,
      "thisha": 789,
      "bhizinisi": 790,
      "lakhe": 791,
      "shiya": 792,
      "khetho": 793,
      "uNksz": 794,
      "saka": 795,
      "kulandela": 796,
      "bhu": 797,
      "UK": 798,
      "iqembu": 799,
      "indawo": 800,
      "kisa": 801,
      "ted": 802,
      "lungi": 803,
      "coco": 804,
      "000": 805,
      "To": 806,
      "angu": 807,
      "nisa": 808,
      "amaphoyisa": 809,
      "ngizimu": 810,
      "khum": 811,
      "umsebenzi": 812,
      "bhamu": 813,
      "themba": 814,
      "gameko": 815,
      "into": 816,
      "ngwa": 817,
      "nase": 818,
      "hlangano": 819,
      "Orlando": 820,
      "lase": 821,
      "Wa": 822,
      "laba": 823,
      "zayo": 824,
      "gcine": 825,
      "Di": 826,
      "ingizimu": 827,
      "lindele": 828,
      "buya": 829,
      "thula": 830,
      "kwenze": 831,
      "hloni": 832,
      "19": 833,
      "ngemp": 834,
      "yini": 835,
      "faka": 836,
      "United": 837,
      "gqibelo": 838,
      "IN": 839,
      "LA": 840,
      "kanye": 841,
      "kole": 842,
      "konke": 843,
      "Betwa": 844,
      "Betway": 845,
      "mbisana": 846,
      "rds": 847,
      "eyi": 848,
      "kuya": 849,
      "kumele": 850,
      "nyak": 851,
      "shaya": 852,
      "nqamu": 853,
      "Phalamende": 854,
      "cwe": 855,
      "umdlalo": 856,
      "kwabo": 857,
      "IS": 858,
      "Rama": 859,
      "anga": 860,
      "theni": 861,
      "yama": 862,
      "nezin": 863,
      "LE": 864,
      "sizini": 865,
      "kanti": 866,
      "bhi": 867,
      "Champi": 868,
      "el": 869,
      "mcimbi": 870,
      "xhuma": 871,
      "jo": 872,
      "obu": 873,
      "log": 874,
      "yoM": 875,
      "nqumo": 876,
      "Champion": 877,
      "Po": 878,
      "Ri": 879,
      "asi": 880,
      "xi": 881,
      "sebe": 882,
      "hlale": 883,
      "bhekana": 884,
      "am": 885,
      "phosa": 886,
      "lile": 887,
      "naye": 888,
      "thatha": 889,
      "gebe": 890,
      "Car": 891,
      "llion": 892,
      "dlu": 893,
      "ozo": 894,
      "wonke": 895,
      "US": 896,
      "gwa": 897,
      "enj": 898,
      "shwe": 899,
      "abazo": 900,
      "bisa": 901,
      "ngene": 902,
      "kuphela": 903,
      "thweni": 904,
      "base": 905,
      "wom": 906,
      "ngoMgqibelo": 907,
      "okubalwa": 908,
      "Ramaphosa": 909,
      "Pa": 910,
      "sizo": 911,
      "kwenzeka": 912,
      "suke": 913,
      "chi": 914,
      "bone": 915,
      "khosi": 916,
      "phumela": 917,
      "10": 918,
      "us": 919,
      "ll": 920,
      "buka": 921,
      "balo": 922,
      "hlobo": 923,
      "sukela": 924,
      "gqu": 925,
      "ry": 926,
      "uD": 927,
      "qeda": 928,
      "ngaphambi": 929,
      "Lea": 930,
      "mpani": 931,
      "30": 932,
      "uhlelo": 933,
      "sezi": 934,
      "delwa": 935,
      "Siya": 936,
      "gwe": 937,
      "nkulu": 938,
      "mini": 939,
      "ebusuku": 940,
      "FM": 941,
      "ona": 942,
      "thimba": 943,
      "nobu": 944,
      "era": 945,
      "emidlalweni": 946,
      "ncane": 947,
      "umele": 948,
      "elasonto": 949,
      "hloko": 950,
      "Africa": 951,
      "BA": 952,
      "neni": 953,
      "nabo": 954,
      "imidlalo": 955,
      "eme": 956,
      "zonke": 957,
      "ric": 958,
      "Cup": 959,
      "os": 960,
      "phuma": 961,
      "soma": 962,
      "shint": 963,
      "mbama": 964,
      "kulesi": 965,
      "nqoba": 966,
      "Fa": 967,
      "uba": 968,
      "kuma": 969,
      "ngani": 970,
      "umi": 971,
      "midlalo": 972,
      "ster": 973,
      "ntambama": 974,
      "selelo": 975,
      "boku": 976,
      "ss": 977,
      "abadlali": 978,
      "debe": 979,
      "fike": 980,
      "tshu": 981,
      "awu": 982,
      "sile": 983,
      "fundazwe": 984,
      "ANC": 985,
      "In": 986,
      "icala": 987,
      "ose": 988,
      "ngaphansi": 989,
      "Ko": 990,
      "Ste": 991,
      "xha": 992,
      "ngemuva": 993,
      "lom": 994,
      "hlalo": 995,
      "ngesizini": 996,
      "Bo": 997,
      "ug": 998,
      "yaba": 999,
      "kom": 1000,
      "bheke": 1001,
      "gue": 1002,
      "bhola": 1003,
      "Juni": 1004,
      "xhumana": 1005,
      ").": 1006,
      "ZN": 1007,
      "lise": 1008,
      "cwadi": 1009,
      "League": 1010,
      "eba": 1011,
      "indlela": 1012,
      "emba": 1013,
      "minyaka": 1014,
      "isizini": 1015,
      "dala": 1016,
      "izolo": 1017,
      "enjini": 1018,
      "Sha": 1019,
      "dli": 1020,
      "mvu": 1021,
      "pi": 1022,
      "wum": 1023,
      "xenye": 1024,
      "kwakhe": 1025,
      "amaqembu": 1026,
      "Mamelo": 1027,
      "qhudelwa": 1028,
      "Mamelodi": 1029,
      "KP": 1030,
      "lovu": 1031,
      "thini": 1032,
      "okuyi": 1033,
      "kwazise": 1034,
      "phendu": 1035,
      "inga": 1036,
      "lonke": 1037,
      "nte": 1038,
      "thombe": 1039,
      "ngokuba": 1040,
      "ebe": 1041,
      "ebi": 1042,
      "yanga": 1043,
      "buke": 1044,
      "zom": 1045,
      "koleni": 1046,
      "phathi": 1047,
      "bulala": 1048,
      "HI": 1049,
      "UMa": 1050,
      "iN": 1051,
      "labo": 1052,
      "nandi": 1053,
      "yonke": 1054,
      "Sonto": 1055,
      "ndlu": 1056,
      "yela": 1057,
      "emva": 1058,
      "ngekho": 1059,
      "thathe": 1060,
      "kuyi": 1061,
      "yoMhlaba": 1062,
      "EN": 1063,
      "Mnyango": 1064,
      "baya": 1065,
      "Lu": 1066,
      "ithuba": 1067,
      "ywa": 1068,
      "dlale": 1069,
      "roos": 1070,
      "wuku": 1071,
      "kuze": 1072,
      "bonga": 1073,
      "muntu": 1074,
      "phethe": 1075,
      "sokuthi": 1076,
      "lingisi": 1077,
      "khanka": 1078,
      "dinga": 1079,
      "njani": 1080,
      "oma": 1081,
      "lelwe": 1082,
      "yezi": 1083,
      "zansi": 1084,
      "bheka": 1085,
      "ngaphakathi": 1086,
      "qhubeke": 1087,
      "Dur": 1088,
      "nci": 1089,
      "qenjini": 1090,
      "uK": 1091,
      "ut": 1092,
      "kubo": 1093,
      "leke": 1094,
      "nayo": 1095,
      "2026": 1096,
      "Durban": 1097,
      "Ho": 1098,
      "jwaye": 1099,
      "khipha": 1100,
      "izer": 1101,
      "iya": 1102,
      "bamba": 1103,
      "enzi": 1104,
      "misa": 1105,
      "Kaizer": 1106,
      "HA": 1107,
      "dle": 1108,
      "xe": 1109,
      "thinta": 1110,
      "ndela": 1111,
      "abaningi": 1112,
      "ngeSonto": 1113,
      "ngqoshe": 1114,
      "gebengu": 1115,
      "ck": 1116,
      "eri": 1117,
      "Awa": 1118,
      "uth": 1119,
      "unga": 1120,
      "beku": 1121,
      "umbi": 1122,
      "amaphuzu": 1123,
      "kithi": 1124,
      "wina": 1125,
      "Ra": 1126,
      "mqoka": 1127,
      "tsha": 1128,
      "kubona": 1129,
      "kusukela": 1130,
      "mishini": 1131,
      "onal": 1132,
      "je": 1133,
      "kk": 1134,
      "por": 1135,
      "uSi": 1136,
      "lona": 1137,
      "ngale": 1138,
      "ngabe": 1139,
      "owaye": 1140,
      "FP": 1141,
      "cwele": 1142,
      "Jo": 1143,
      "Tha": 1144,
      "aye": 1145,
      "iM": 1146,
      "ska": 1147,
      "uS": 1148,
      "kuyona": 1149,
      "yise": 1150,
      "ngisho": 1151,
      "zokuxhumana": 1152,
      "12": 1153,
      "azi": 1154,
      "lekile": 1155,
      "zile": 1156,
      "singa": 1157,
      "kaMa": 1158,
      "hlabeni": 1159,
      "tional": 1160,
      "KZN": 1161,
      "QE": 1162,
      "kanga": 1163,
      "kampani": 1164,
      "kanjani": 1165,
      "nawo": 1166,
      "ndu": 1167,
      "abanye": 1168,
      "fakazi": 1169,
      "isinqumo": 1170,
      "phepha": 1171,
      "amalungu": 1172,
      "DA": 1173,
      "ad": 1174,
      "kuyo": 1175,
      "ngxenye": 1176,
      "bakhe": 1177,
      "yizi": 1178,
      "kelele": 1179,
      "Fo": 1180,
      "GA": 1181,
      "onga": 1182,
      "rs": 1183,
      "linga": 1184,
      "million": 1185,
      "esikhathi": 1186,
      "wula": 1187,
      "giji": 1188,
      "2024": 1189,
      "lingisa": 1190,
      "Pro": 1191,
      "abo": 1192,
      "kama": 1193,
      "seka": 1194,
      "ngathi": 1195,
      "beka": 1196,
      "benga": 1197,
      "thando": 1198,
      "tshwa": 1199,
      "skandi": 1200,
      "ZI": 1201,
      "nce": 1202,
      "ngobu": 1203,
      "saba": 1204,
      "boni": 1205,
      "iminyaka": 1206,
      "bulawa": 1207,
      "lindeleke": 1208,
      "KA": 1209,
      "ngomunye": 1210,
      "yale": 1211,
      "sama": 1212,
      "amabili": 1213,
      "Cy": 1214,
      "GE": 1215,
      "Oku": 1216,
      "gcwele": 1217,
      "emhlabeni": 1218,
      "kwayo": 1219,
      "Bay": 1220,
      "UB": 1221,
      "ibi": 1222,
      "klo": 1223,
      "ukwe": 1224,
      "baba": 1225,
      "sizi": 1226,
      "sini": 1227,
      "zobu": 1228,
      "ekubeni": 1229,
      "nabanye": 1230,
      "buyela": 1231,
      "15": 1232,
      "Fi": 1233,
      "con": 1234,
      "hl": 1235,
      "zele": 1236,
      "lwazi": 1237,
      "somabhizinisi": 1238,
      "Ndebe": 1239,
      "nze": 1240,
      "kuwona": 1241,
      "ngalo": 1242,
      "ntwana": 1243,
      "khakha": 1244,
      "ndile": 1245,
      "phenyo": 1246,
      "ezinkundleni": 1247,
      "kusasa": 1248,
      "nyakenye": 1249,
      "Con": 1250,
      "km": 1251,
      "ers": 1252,
      "ekutheni": 1253,
      "gomo": 1254,
      "South": 1255,
      "ngamaphuzu": 1256,
      "ezayo": 1257,
      "yenza": 1258,
      "Eph": 1259,
      "Hla": 1260,
      "Uveze": 1261,
      "reli": 1262,
      "vin": 1263,
      "weze": 1264,
      "ukuzi": 1265,
      "beke": 1266,
      "Isithombe": 1267,
      "Ephreli": 1268,
      ".”": 1269,
      "Dla": 1270,
      "thro": 1271,
      "bazi": 1272,
      "siya": 1273,
      "khwana": 1274,
      "ngabo": 1275,
      "ngonyaka": 1276,
      "noM": 1277,
      "fanayo": 1278,
      "qiniseki": 1279,
      "qhudelwano": 1280,
      "khwanazi": 1281,
      "Nje": 1282,
      "ywe": 1283,
      "yeni": 1284,
      "lima": 1285,
      "nike": 1286,
      "zaba": 1287,
      "ngeli": 1288,
      "son": 1289,
      "lokuthi": 1290,
      "deni": 1291,
      "iChiefs": 1292,
      "unda": 1293,
      "kwemi": 1294,
      "ngenyanga": 1295,
      "tati": 1296,
      "tshela": 1297,
      "mpilo": 1298,
      "Goli": 1299,
      "UZ": 1300,
      "cele": 1301,
      "fe": 1302,
      "ver": 1303,
      "wane": 1304,
      "kami": 1305,
      "zase": 1306,
      "abasa": 1307,
      "abasolwa": 1308,
      "umsolwa": 1309,
      "ngeka": 1310,
      "nji": 1311,
      "lwane": 1312,
      "amathathu": 1313,
      "phethro": 1314,
      "qede": 1315,
      "zulu": 1316,
      "Caf": 1317,
      "engameli": 1318,
      "Polo": 1319,
      "phethroli": 1320,
      "Ye": 1321,
      "mnyama": 1322,
      "uyi": 1323,
      "lema": 1324,
      "khundleni": 1325,
      "amacala": 1326,
      "nyathe": 1327,
      "isicoco": 1328,
      "hlela": 1329,
      "sungu": 1330,
      "gungu": 1331,
      "ville": 1332,
      "tholakala": 1333,
      "Best": 1334,
      "empi": 1335,
      "wamanqamu": 1336,
      "Cardo": 1337,
      "cela": 1338,
      "eqenjini": 1339,
      "siba": 1340,
      "umela": 1341,
      "funi": 1342,
      "thupha": 1343,
      "kwethu": 1344,
      "hola": 1345,
      "cimbini": 1346,
      "shiyaga": 1347,
      "PS": 1348,
      "ali": 1349,
      "and": 1350,
      "tela": 1351,
      "komi": 1352,
      "fake": 1353,
      "bonakala": 1354,
      "Ngiya": 1355,
      "bank": 1356,
      "bezindaba": 1357,
      "Cardoso": 1358,
      "11": 1359,
      "Kha": 1360,
      "Nd": 1361,
      "od": 1362,
      "lezwe": 1363,
      "lutho": 1364,
      "kwane": 1365,
      "vikela": 1366,
      "Par": 1367,
      "an": 1368,
      "pu": 1369,
      "uG": 1370,
      "uZ": 1371,
      "zem": 1372,
      "ngemi": 1373,
      "enkantolo": 1374,
      "khela": 1375,
      "thombo": 1376,
      "hloso": 1377,
      "qhuba": 1378,
      "ord": 1379,
      "Championship": 1380,
      "Ningizimu": 1381,
      "gama": 1382,
      "visi": 1383,
      "kon": 1384,
      "khatha": 1385,
      "nyanga": 1386,
      "khulumela": 1387,
      "bhala": 1388,
      "lulekile": 1389,
      "kokuqala": 1390,
      "wokuqala": 1391,
      "phume": 1392,
      "ngempelasonto": 1393,
      "IFP": 1394,
      "iPirates": 1395,
      "oyi": 1396,
      "langa": 1397,
      "wabo": 1398,
      "wayo": 1399,
      "siwe": 1400,
      "yabo": 1401,
      "abafundi": 1402,
      "Ngesikhathi": 1403,
      "des": 1404,
      "cono": 1405,
      "wenza": 1406,
      "fundazweni": 1407,
      "phumele": 1408,
      "mhla": 1409,
      "nina": 1410,
      "bela": 1411,
      "shana": 1412,
      "qonda": 1413,
      "Ngoku": 1414,
      "Cape": 1415,
      "besifazane": 1416,
      "Hlabisa": 1417,
      "Polokwane": 1418,
      "16": 1419,
      "DJ": 1420,
      "ON": 1421,
      "ePhalamende": 1422,
      "ise": 1423,
      "ibhola": 1424,
      "nwa": 1425,
      "omu": 1426,
      "kuthiwa": 1427,
      "kabi": 1428,
      "ngokwe": 1429,
      "ngoJuni": 1430,
      "zali": 1431,
      "thele": 1432,
      "nginga": 1433,
      "njenge": 1434,
      "tic": 1435,
      "val": 1436,
      "shesha": 1437,
      "Nokho": 1438,
      "qinisekisa": 1439,
      "gijima": 1440,
      "Izi": 1441,
      "eyisi": 1442,
      "lama": 1443,
      "babe": 1444,
      "bebe": 1445,
      "sakhe": 1446,
      "yingxenye": 1447,
      "zabo": 1448,
      "zami": 1449,
      "zakwabo": 1450,
      "abalandeli": 1451,
      "bonke": 1452,
      "solo": 1453,
      "hlangani": 1454,
      "hlanganisa": 1455,
      "chaza": 1456,
      "mbulu": 1457,
      "TS": 1458,
      "phambi": 1459,
      "thuthu": 1460,
      "hleli": 1461,
      "17": 1462,
      "Hlo": 1463,
      "gesi": 1464,
      "qh": 1465,
      "kum": 1466,
      "emcimbini": 1467,
      "umndeni": 1468,
      "muka": 1469,
      "qongqoshe": 1470,
      "Ngqongqoshe": 1471,
      "teshi": 1472,
      "fisa": 1473,
      "200": 1474,
      "izinhlelo": 1475,
      "albhamu": 1476,
      "ngoLwesihlanu": 1477,
      "eter": 1478,
      "hluku": 1479,
      "Ou": 1480,
      "ayisi": 1481,
      "dy": 1482,
      "ir": 1483,
      "ikakhulu": 1484,
      "ngxo": 1485,
      "nazo": 1486,
      "emo": 1487,
      "ntshi": 1488,
      "mina": 1489,
      "som": 1490,
      "khale": 1491,
      "muhla": 1492,
      "dou": 1493,
      "edbank": 1494,
      "ISI": 1495,
      "Kodwa": 1496,
      "14": 1497,
      "Re": 1498,
      "dlula": 1499,
      "okwa": 1500,
      "uveze": 1501,
      "babo": 1502,
      "kale": 1503,
      "sem": 1504,
      "hlelweni": 1505,
      "dingeka": 1506,
      "thembi": 1507,
      "humalo": 1508,
      "komiti": 1509,
      "25": 1510,
      "Vi": 1511,
      "hho": 1512,
      "uzi": 1513,
      "ukwenza": 1514,
      "wari": 1515,
      "seligi": 1516,
      "bele": 1517,
      "ngezin": 1518,
      "hlango": 1519,
      "sombulu": 1520,
      "Nge": 1521,
      "ndondo": 1522,
      "bhekwe": 1523,
      "llen": 1524,
      "hlakalo": 1525,
      "Champions": 1526,
      "Richa": 1527,
      "bokufika": 1528,
      "Mzansi": 1529,
      "tshe": 1530,
      "ws": 1531,
      "kukho": 1532,
      "kundla": 1533,
      "ukunga": 1534,
      "ngiya": 1535,
      "Mashi": 1536,
      "qopha": 1537,
      "onke": 1538,
      "uMnyango": 1539,
      "Nakuba": 1540,
      "ekuseni": 1541,
      "kubalwa": 1542,
      "uNkk": 1543,
      "fundisa": 1544,
      "shintsha": 1545,
      "IM": 1546,
      "Leli": 1547,
      "Pla": 1548,
      "WA": 1549,
      "Wor": 1550,
      "chu": 1551,
      "ute": 1552,
      "kuwo": 1553,
      "nalo": 1554,
      "ngawo": 1555,
      "emeze": 1556,
      "ngele": 1557,
      "ndaweni": 1558,
      "Ngco": 1559,
      "sebenze": 1560,
      "2025": 1561,
      "Gala": 1562,
      ");": 1563,
      "Bu": 1564,
      "HO": 1565,
      "Mfundo": 1566,
      "Th": 1567,
      "Yi": 1568,
      "kuthi": 1569,
      "kulindeleke": 1570,
      "ngcono": 1571,
      "layi": 1572,
      "bani": 1573,
      "bandla": 1574,
      "ziwe": 1575,
      "khele": 1576,
      "sekho": 1577,
      "okuthiwa": 1578,
      "yize": 1579,
      "umculo": 1580,
      "kelwa": 1581,
      "khutha": 1582,
      "dingo": 1583,
      "qokwa": 1584,
      "emibili": 1585,
      "bhedlela": 1586,
      "toli": 1587,
      "gij": 1588,
      "wesifazane": 1589,
      "khiqi": 1590,
      "senda": 1591,
      "neminyaka": 1592,
      "sombuluko": 1593,
      "18": 1594,
      "Hu": 1595,
      "Peter": 1596,
      "Spor": 1597,
      "Yo": 1598,
      "angi": 1599,
      "ekhaya": 1600,
      "lf": 1601,
      "okhe": 1602,
      "xy": 1603,
      "lapha": 1604,
      "lahle": 1605,
      "ence": 1606,
      "phatha": 1607,
      "lwela": 1608,
      "finye": 1609,
      "zwelonke": 1610,
      "swano": 1611,
      "Awards": 1612,
      "addou": 1613,
      "Ouaddou": 1614,
      "Richards": 1615,
      "Gen": 1616,
      "KU": 1617,
      "Mu": 1618,
      "ine": 1619,
      "ms": 1620,
      "nhla": 1621,
      "sch": 1622,
      "zika": 1623,
      "selwa": 1624,
      "khula": 1625,
      "sola": 1626,
      "amagoli": 1627,
      "njengo": 1628,
      "Mar": 1629,
      "benza": 1630,
      "jaho": 1631,
      "tuli": 1632,
      "nyuka": 1633,
      "Gaute": 1634,
      "ezehlukene": 1635,
      "nyakeni": 1636,
      "khankaso": 1637,
      "klomelo": 1638,
      "Year": 1639,
      "llenbo": 1640,
      "Gauteng": 1641,
      "Musi": 1642,
      "dela": 1643,
      "wn": 1644,
      "bafuna": 1645,
      "zisi": 1646,
      "seke": 1647,
      "wezi": 1648,
      "ukusebenza": 1649,
      "thethweni": 1650,
      "ezinye": 1651,
      "dalule": 1652,
      "igh": 1653,
      "Stellenbo": 1654,
      "umbiko": 1655,
      "kamaskandi": 1656,
      "hhovisi": 1657,
      "Galaxy": 1658,
      "sendaweni": 1659,
      "Ro": 1660,
      "Za": 1661,
      "gqa": 1662,
      "im": 1663,
      "othisha": 1664,
      "ru": 1665,
      "tse": 1666,
      "zz": 1667,
      "bam": 1668,
      "bakuleli": 1669,
      "pheli": 1670,
      "yethu": 1671,
      "yinto": 1672,
      "nter": 1673,
      "esikhundleni": 1674,
      "kwiNdebe": 1675,
      "caci": 1676,
      "ndebe": 1677,
      "duze": 1678,
      "vula": 1679,
      "Pitoli": 1680,
      "esti": 1681,
      "jabulisa": 1682,
      "khumbula": 1683,
      "gqugqu": 1684,
      "Stellenbosch": 1685,
      "Em": 1686,
      "HE": 1687,
      "eyo": 1688,
      "keni": 1689,
      "wazi": 1690,
      "enkundleni": 1691,
      "sengathi": 1692,
      "buyi": 1693,
      "emsebenzi": 1694,
      "kohlakalo": 1695,
      "ngisa": 1696,
      "njwa": 1697,
      "dabuka": 1698,
      "pheshe": 1699,
      "joyi": 1700,
      "Mba": 1701,
      "Nkosi": 1702,
      "Sh": 1703,
      "othi": 1704,
      "omunye": 1705,
      "zakhe": 1706,
      "zelwa": 1707,
      "khule": 1708,
      "amane": 1709,
      "izimoto": 1710,
      "hinga": 1711,
      "phakathini": 1712,
      "kokuba": 1713,
      "kokuthi": 1714,
      "wokuthi": 1715,
      "ngoLwesithathu": 1716,
      "bhiki": 1717,
      "njiswa": 1718,
      "estival": 1719,
      "13": 1720,
      "Asi": 1721,
      "BC": 1722,
      "EF": 1723,
      "ezweni": 1724,
      "ekhuluma": 1725,
      "osa": 1726,
      "odlule": 1727,
      "ufuna": 1728,
      "bayi": 1729,
      "kancane": 1730,
      "wezoku": 1731,
      "ngozi": 1732,
      "abasebenzi": 1733,
      "zelwe": 1734,
      "nozi": 1735,
      "kwalokho": 1736,
      "amathuba": 1737,
      "khandlu": 1738,
      "ngenzeka": 1739,
      "rows": 1740,
      "bhali": 1741,
      "zwakala": 1742,
      "qinisa": 1743,
      "Arrows": 1744,
      "Al": 1745,
      "Ne": 1746,
      "We": 1747,
      "asa": 1748,
      "don": 1749,
      "hha": 1750,
      "pp": 1751,
      "ukhetho": 1752,
      "kuse": 1753,
      "ukuthola": 1754,
      "konti": 1755,
      "hambisana": 1756,
      "amanye": 1757,
      "ezimbili": 1758,
      "esikoleni": 1759,
      "muzi": 1760,
      "ril": 1761,
      "hluka": 1762,
      "Abantu": 1763,
      "emsebenzini": 1764,
      "nozinti": 1765,
      "kontileka": 1766,
      "Thu": 1767,
      "gqo": 1768,
      "nyi": 1769,
      "ton": 1770,
      "usu": 1771,
      "zizo": 1772,
      "kamuva": 1773,
      "yami": 1774,
      "ntsha": 1775,
      "khundla": 1776,
      "shisa": 1777,
      "tiki": 1778,
      "emithathu": 1779,
      "doko": 1780,
      "tshele": 1781,
      "khiphe": 1782,
      "nezinye": 1783,
      "Motse": 1784,
      "Ngakho": 1785,
      "yesithathu": 1786,
      "bukeka": 1787,
      "tatimende": 1788,
      "Motsepe": 1789,
      "27": 1790,
      "Broos": 1791,
      "Festival": 1792,
      "Okhulumela": 1793,
      "Ta": 1794,
      "Xo": 1795,
      "cabanga": 1796,
      "ebho": 1797,
      "gq": 1798,
      "mbeni": 1799,
      "thile": 1800,
      "wethu": 1801,
      "bile": 1802,
      "amandla": 1803,
      "fakwa": 1804,
      "cula": 1805,
      "culweni": 1806,
      "hlangana": 1807,
      "2023": 1808,
      "kulumo": 1809,
      "qiniso": 1810,
      "igama": 1811,
      "qhaza": 1812,
      "etro": 1813,
      "Khomishini": 1814,
      "sakazo": 1815,
      "nandisa": 1816,
      "Cyril": 1817,
      "PSL": 1818,
      "emezele": 1819,
      "okhethweni": 1820,
      "DLA": 1821,
      "King": 1822,
      "Khumalo": 1823,
      "Me": 1824,
      "Pho": 1825,
      "ehlukene": 1826,
      "hlwe": 1827,
      "iBafana": 1828,
      "jele": 1829,
      "nkosi": 1830,
      "kuqala": 1831,
      "kusuka": 1832,
      "kaze": 1833,
      "kayo": 1834,
      "phon": 1835,
      "ber": 1836,
      "sakazi": 1837,
      "okufanele": 1838,
      "noN": 1839,
      "dlalela": 1840,
      "shiwe": 1841,
      "mpo": 1842,
      "hlukana": 1843,
      "phutha": 1844,
      "tshenzi": 1845,
      "ngoMsombuluko": 1846,
      "ngoLwesibili": 1847,
      "poli": 1848,
      "khumbu": 1849,
      "emezela": 1850,
      "jwayelekile": 1851,
      "Ch": 1852,
      "FA": 1853,
      "Zuma": 1854,
      "akhe": 1855,
      "gxe": 1856,
      "hlwa": 1857,
      "mera": 1858,
      "nhloko": 1859,
      "ongum": 1860,
      "ter": 1861,
      "kusi": 1862,
      "sikhathi": 1863,
      "lomo": 1864,
      "nathi": 1865,
      "ndweni": 1866,
      "yibona": 1867,
      "zolo": 1868,
      "nonyaka": 1869,
      "hlanhla": 1870,
      "khamera": 1871,
      "elizo": 1872,
      "Sizo": 1873,
      "ndisa": 1874,
      "dutshu": 1875,
      "celo": 1876,
      "ment": 1877,
      "waseM": 1878,
      "UNksz": 1879,
      "Gold": 1880,
      "eNkantolo": 1881,
      "hambela": 1882,
      "ngwane": 1883,
      "nyathelo": 1884,
      "Ngcobo": 1885,
      "EFF": 1886,
      "22": 1887,
      "Emuva": 1888,
      "Imi": 1889,
      "SE": 1890,
      "Te": 1891,
      "eMa": 1892,
      "eMo": 1893,
      "msebenzi": 1894,
      "sena": 1895,
      "lani": 1896,
      "zinga": 1897,
      "kanzima": 1898,
      "man": 1899,
      "namuhla": 1900,
      "nini": 1901,
      "beli": 1902,
      "okunga": 1903,
      "zani": 1904,
      "emphakathini": 1905,
      "emculweni": 1906,
      "abase": 1907,
      "bonge": 1908,
      "khombi": 1909,
      "kwati": 1910,
      "izingane": 1911,
      "nyana": 1912,
      "nyangweni": 1913,
      "mukela": 1914,
      "vala": 1915,
      "inselelo": 1916,
      "phiko": 1917,
      "Com": 1918,
      "ngoMeyi": 1919,
      "politiki": 1920,
      "De": 1921,
      "Ea": 1922,
      "Gro": 1923,
      "Ph": 1924,
      "ction": 1925,
      "ithe": 1926,
      "lla": 1927,
      "ol": 1928,
      "obala": 1929,
      "uthi": 1930,
      "kuso": 1931,
      "lenze": 1932,
      "enkulu": 1933,
      "ziyo": 1934,
      "kaba": 1935,
      "kade": 1936,
      "lombili": 1937,
      "ukuyi": 1938,
      "bezo": 1939,
      "beki": 1940,
      "yeMa": 1941,
      "abaculi": 1942,
      "khukhu": 1943,
      "ezinga": 1944,
      "esifundazweni": 1945,
      "eral": 1946,
      "ndima": 1947,
      "congweni": 1948,
      "Kuthiwa": 1949,
      "tor": 1950,
      "tolo": 1951,
      "nabantu": 1952,
      "akukho": 1953,
      "yalezo": 1954,
      "shiyagalombili": 1955,
      "Play": 1956,
      "Music": 1957,
      "100": 1958,
      "BO": 1959,
      "Esi": 1960,
      "ULI": 1961,
      "Xaba": 1962,
      "dlelwa": 1963,
      "eye": 1964,
      "eyoku": 1965,
      "eGoli": 1966,
      "iSundowns": 1967,
      "nza": 1968,
      "uphenyo": 1969,
      "bambe": 1970,
      "manqamu": 1971,
      "welele": 1972,
      "buko": 1973,
      "abangu": 1974,
      "umqeqeshi": 1975,
      "amaningi": 1976,
      "amanzi": 1977,
      "kweni": 1978,
      "Silo": 1979,
      "Sifuna": 1980,
      "phila": 1981,
      "zuzu": 1982,
      "dolo": 1983,
      "2022": 1984,
      "pheleni": 1985,
      "Sekhukhu": 1986,
      "hlonipha": 1987,
      "ncinti": 1988,
      "Ndlovu": 1989,
      "Sekhukhune": 1990,
      "Da": 1991,
      "Pri": 1992,
      "WE": 1993,
      "awa": 1994,
      "ju": 1995,
      "qwaba": 1996,
      "ul": 1997,
      "ngem": 1998,
      "ndezi": 1999,
      "ndlovu": 2000,
      "yePremiership": 2001,
      "zange": 2002,
      "umphakathi": 2003,
      "bom": 2004,
      "yoni": 2005,
      "khokhela": 2006,
      "amaciko": 2007,
      "thathwa": 2008,
      "eziningi": 2009,
      "ezinta": 2010,
      "isimo": 2011,
      "cindezi": 2012,
      "dayisa": 2013,
      "umalo": 2014,
      "bheki": 2015,
      "uthelezi": 2016,
      "zokuthi": 2017,
      "Kapa": 2018,
      "owamanqamu": 2019,
      "qeqesha": 2020,
      "ziwayo": 2021,
      "vota": 2022,
      "ndulela": 2023,
      "Njengoba": 2024,
      "50": 2025,
      "Angi": 2026,
      "CC": 2027,
      "Sho": 2028,
      "kt": 2029,
      "uRamaphosa": 2030,
      "vuma": 2031,
      "vumela": 2032,
      "wami": 2033,
      "siyi": 2034,
      "kheni": 2035,
      "manga": 2036,
      "liswa": 2037,
      "nabezindaba": 2038,
      "ngomdlalo": 2039,
      "yayo": 2040,
      "okunye": 2041,
      "yedwa": 2042,
      "umcimbi": 2043,
      "umlando": 2044,
      "kepha": 2045,
      "zeke": 2046,
      "bizwa": 2047,
      "bokazi": 2048,
      "boshwa": 2049,
      "kholwa": 2050,
      "kwathi": 2051,
      "lwama": 2052,
      "amazwe": 2053,
      "ezingu": 2054,
      "MaZulu": 2055,
      "ngokushesha": 2056,
      "gabeni": 2057,
      "dudu": 2058,
      "khishwa": 2059,
      "umoya": 2060,
      "yesibili": 2061,
      "ngxoxo": 2062,
      "gijimi": 2063,
      "Ath": 2064,
      "MKP": 2065,
      "Phi": 2066,
      "Zwe": 2067,
      "ezen": 2068,
      "ibe": 2069,
      "imoto": 2070,
      "impilo": 2071,
      "pm": 2072,
      "zemi": 2073,
      "kuye": 2074,
      "ngq": 2075,
      "ngqi": 2076,
      "weto": 2077,
      "ngalolu": 2078,
      "ngizo": 2079,
      "ezindaweni": 2080,
      "holwa": 2081,
      "vaka": 2082,
      "yokuqala": 2083,
      "Soweto": 2084,
      "cwani": 2085,
      "Abanye": 2086,
      "jabule": 2087,
      "Milf": 2088,
      "uBroos": 2089,
      "omazisi": 2090,
      "yeMantshi": 2091,
      "Milford": 2092,
      "21": 2093,
      "Bla": 2094,
      "Ha": 2095,
      "Ntuli": 2096,
      "USA": 2097,
      "Wi": 2098,
      "Yize": 2099,
      "dum": 2100,
      "okokuqala": 2101,
      "qweni": 2102,
      "rug": 2103,
      "tre": 2104,
      "tlala": 2105,
      "bayo": 2106,
      "walo": 2107,
      "enya": 2108,
      "weBetway": 2109,
      "ndisi": 2110,
      "shela": 2111,
      "okuzo": 2112,
      "zathu": 2113,
      "ntweni": 2114,
      "ngela": 2115,
      "njengama": 2116,
      "kwemali": 2117,
      "esinga": 2118,
      "eside": 2119,
      "Siwelele": 2120,
      "eminyakeni": 2121,
      "gilwa": 2122,
      "zinsuku": 2123,
      "lesizwe": 2124,
      "Zimnyama": 2125,
      "ngempela": 2126,
      "40": 2127,
      "MA": 2128,
      "R3": 2129,
      "SHI": 2130,
      "TI": 2131,
      "epha": 2132,
      "igoli": 2133,
      "sweni": 2134,
      "vesi": 2135,
      "xwa": 2136,
      "sindo": 2137,
      "sengi": 2138,
      "yili": 2139,
      "buso": 2140,
      "abazi": 2141,
      "abayi": 2142,
      "ababili": 2143,
      "bika": 2144,
      "mile": 2145,
      "kwaku": 2146,
      "phakami": 2147,
      "iziqu": 2148,
      "thunzi": 2149,
      "shiye": 2150,
      "mufi": 2151,
      "qaleni": 2152,
      "qoqo": 2153,
      "National": 2154,
      "quko": 2155,
      "kwamanye": 2156,
      "mpahla": 2157,
      "omkhulu": 2158,
      "phathiswa": 2159,
      "yelana": 2160,
      "Park": 2161,
      "LO": 2162,
      "dumo": 2163,
      "ethu": 2164,
      "gxi": 2165,
      "sta": 2166,
      "usuku": 2167,
      "xumalo": 2168,
      "thenda": 2169,
      "bane": 2170,
      "war": 2171,
      "wala": 2172,
      "sithi": 2173,
      "khwama": 2174,
      "lizo": 2175,
      "nakho": 2176,
      "thinte": 2177,
      "ndwa": 2178,
      "ukum": 2179,
      "ukudlala": 2180,
      "ngoMashi": 2181,
      "abasha": 2182,
      "bit": 2183,
      "khono": 2184,
      "misele": 2185,
      "kwaze": 2186,
      "izili": 2187,
      "esibhedlela": 2188,
      "nguquko": 2189,
      "hlele": 2190,
      "ngenza": 2191,
      "kwenziwa": 2192,
      "kulezi": 2193,
      "hlulwa": 2194,
      "wesibili": 2195,
      "kuzoba": 2196,
      "Ngapha": 2197,
      "tions": 2198,
      "eyayi": 2199,
      "Orbit": 2200,
      "African": 2201,
      "empilweni": 2202,
      "ikakhulukazi": 2203,
      "World": 2204,
      "Golden": 2205,
      "Inter": 2206,
      "Nedbank": 2207,
      "SI": 2208,
      "ewu": 2209,
      "eNa": 2210,
      "esen": 2211,
      "ePitoli": 2212,
      "vume": 2213,
      "masipala": 2214,
      "liwe": 2215,
      "semba": 2216,
      "weligi": 2217,
      "sase": 2218,
      "umthombo": 2219,
      "thela": 2220,
      "dlanga": 2221,
      "ezihlukene": 2222,
      "Masipala": 2223,
      "esigabeni": 2224,
      "thon": 2225,
      "uMi": 2226,
      "phisa": 2227,
      "hluleka": 2228,
      "wesilisa": 2229,
      "vishini": 2230,
      "khize": 2231,
      "chaze": 2232,
      "xico": 2233,
      "versi": 2234,
      "gungundlovu": 2235,
      "dokotela": 2236,
      "tshenziswa": 2237,
      "Ngaphandle": 2238,
      "CULI": 2239,
      "Of": 2240,
      "Tho": 2241,
      "pt": 2242,
      "uKa": 2243,
      "zima": 2244,
      "kazwelonke": 2245,
      "zalwa": 2246,
      "abakuleli": 2247,
      "billion": 2248,
      "esizo": 2249,
      "esicongweni": 2250,
      "shona": 2251,
      "dana": 2252,
      "inkantolo": 2253,
      "rathon": 2254,
      "hlomu": 2255,
      "sebenzise": 2256,
      "hlungu": 2257,
      "menye": 2258,
      "ubuholi": 2259,
      "xoxa": 2260,
      "sebenzisana": 2261,
      "sakazweni": 2262,
      "gwaqo": 2263,
      "Conf": 2264,
      "thelevishini": 2265,
      "Sports": 2266,
      "Au": 2267,
      "Emi": 2268,
      "Krug": 2269,
      "Lesi": 2270,
      "gaba": 2271,
      "lwini": 2272,
      "mqhudelwano": 2273,
      "mjaho": 2274,
      "per": 2275,
      "uR": 2276,
      "ukwazi": 2277,
      "zuku": 2278,
      "bama": 2279,
      "wam": 2280,
      "zisa": 2281,
      "sihlalo": 2282,
      "thina": 2283,
      "ses": 2284,
      "ngase": 2285,
      "ngawu": 2286,
      "umthetho": 2287,
      "kowamanqamu": 2288,
      "khokhe": 2289,
      "khomishini": 2290,
      "sonke": 2291,
      "khakheni": 2292,
      "eminyaka": 2293,
      "emihlanu": 2294,
      "phini": 2295,
      "Kule": 2296,
      "Kuzo": 2297,
      "UMCULI": 2298,
      "Solezwe": 2299,
      "wokugcina": 2300,
      "abebe": 2301,
      "kulunkulu": 2302,
      "phenya": 2303,
      "wabakhaya": 2304,
      "ngoLwesine": 2305,
      "shayela": 2306,
      "tshudeni": 2307,
      "Founda": 2308,
      "konzo": 2309,
      "Ngeke": 2310,
      "General": 2311,
      "hhayi": 2312,
      "dlelwano": 2313,
      "Metro": 2314,
      "PI": 2315,
      "YE": 2316,
      "Zwane": 2317,
      "ppa": 2318,
      "uLi": 2319,
      "uCardoso": 2320,
      "ngcwa": 2321,
      "bathi": 2322,
      "end": 2323,
      "kaM": 2324,
      "kali": 2325,
      "linye": 2326,
      "linde": 2327,
      "nikwa": 2328,
      "yeBetway": 2329,
      "Marathon": 2330,
      "qophe": 2331,
      "mehlo": 2332,
      "hlongo": 2333,
      "Kulo": 2334,
      "gadli": 2335,
      "gunya": 2336,
      "kubalandeli": 2337,
      "umufi": 2338,
      "Amakhosi": 2339,
      "buyele": 2340,
      "kwesizini": 2341,
      "Universi": 2342,
      "nqobe": 2343,
      "entsha": 2344,
      "kwenzeke": 2345,
      "hlonishwa": 2346,
      "bhida": 2347,
      "umile": 2348,
      "lingana": 2349,
      "wezeMfundo": 2350,
      "limala": 2351,
      "Kruger": 2352,
      "Foundation": 2353,
      "University": 2354,
      "23": 2355,
      "CP": 2356,
      "Mkhwanazi": 2357,
      "UD": 2358,
      "Zo": 2359,
      "gy": 2360,
      "ly": 2361,
      "nywa": 2362,
      "ohlelweni": 2363,
      "uthando": 2364,
      "kuhle": 2365,
      "ley": 2366,
      "lodwa": 2367,
      "national": 2368,
      "ndon": 2369,
      "bethu": 2370,
      "yalo": 2371,
      "okuhle": 2372,
      "yiseni": 2373,
      "buzo": 2374,
      "ababa": 2375,
      "kekho": 2376,
      "njengom": 2377,
      "mbazo": 2378,
      "mola": 2379,
      "gada": 2380,
      "Bar": 2381,
      "Julayi": 2382,
      "QEQE": 2383,
      "khombise": 2384,
      "Black": 2385,
      "QEQESHI": 2386,
      "28": 2387,
      "YA": 2388,
      "nni": 2389,
      "nsela": 2390,
      "ukwa": 2391,
      "zwi": 2392,
      "ngwe": 2393,
      "ende": 2394,
      "ngazo": 2395,
      "nika": 2396,
      "shumi": 2397,
      "sazi": 2398,
      "sasa": 2399,
      "buyisa": 2400,
      "ababe": 2401,
      "abalala": 2402,
      "zezi": 2403,
      "yobu": 2404,
      "khomba": 2405,
      "ther": 2406,
      "hambisa": 2407,
      "hlaya": 2408,
      "Mabhida": 2409,
      "isigameko": 2410,
      "mbile": 2411,
      "mbiko": 2412,
      "dio": 2413,
      "ngokungem": 2414,
      "phoyiseni": 2415,
      "tshwe": 2416,
      "kubantu": 2417,
      "ubufakazi": 2418,
      "AmaZulu": 2419,
      "llies": 2420,
      "Nov": 2421,
      "nenkinga": 2422,
      "eNingizimu": 2423,
      "stern": 2424,
      "Dlamini": 2425,
      "mhlanje": 2426,
      "omusha": 2427,
      "International": 2428,
      "Confed": 2429,
      "ngokungemthetho": 2430,
      "26": 2431,
      "Ezi": 2432,
      "Nxumalo": 2433,
      "TO": 2434,
      "athi": 2435,
      "eqo": 2436,
      "ingoma": 2437,
      "mnandi": 2438,
      "nweni": 2439,
      "othe": 2440,
      "sric": 2441,
      "kuyena": 2442,
      "lande": 2443,
      "encane": 2444,
      "kaphethroli": 2445,
      "semola": 2446,
      "ukula": 2447,
      "ukubona": 2448,
      "ngaso": 2449,
      "ngosuku": 2450,
      "yayi": 2451,
      "neqembu": 2452,
      "yezin": 2453,
      "khungweni": 2454,
      "hlandla": 2455,
      "ezizo": 2456,
      "isithunzi": 2457,
      "dili": 2458,
      "holele": 2459,
      "mont": 2460,
      "gcini": 2461,
      "UMQEQESHI": 2462,
      "jabula": 2463,
      "qungq": 2464,
      "Casric": 2465,
      "Come": 2466,
      "kuzona": 2467,
      "lly": 2468,
      "jwayele": 2469,
      "Novemba": 2470,
      "Bi": 2471,
      "Khu": 2472,
      "ME": 2473,
      "Ube": 2474,
      "ayo": 2475,
      "caba": 2476,
      "ee": 2477,
      "ebhu": 2478,
      "iyi": 2479,
      "ibha": 2480,
      "nco": 2481,
      "nkinga": 2482,
      "qwa": 2483,
      "uL": 2484,
      "uhulumeni": 2485,
      "kuna": 2486,
      "lelo": 2487,
      "lena": 2488,
      "zibuko": 2489,
      "sifundazwe": 2490,
      "sef": 2491,
      "weqembu": 2492,
      "komdlalo": 2493,
      "bolo": 2494,
      "ngelo": 2495,
      "lwaba": 2496,
      "hlamvu": 2497,
      "izikhulu": 2498,
      "ezikoleni": 2499,
      "Magesi": 2500,
      "thoba": 2501,
      "didi": 2502,
      "ngenela": 2503,
      "bene": 2504,
      "mbalwa": 2505,
      "phinda": 2506,
      "dubula": 2507,
      "gcineni": 2508,
      "namanye": 2509,
      "vivin": 2510,
      "bulawe": 2511,
      "Chippa": 2512,
      "senkantolo": 2513,
      "Colle": 2514,
      "ndawonye": 2515,
      "jikelele": 2516,
      "kanani": 2517,
      "SABC": 2518,
      "tur": 2519,
      "lungise": 2520,
      "ozoba": 2521,
      "chitha": 2522,
      "eria": 2523,
      "KAZI": 2524,
      "qinisekise": 2525,
      "phakamiso": 2526,
      "Ad": 2527,
      "AGE": 2528,
      "Bra": 2529,
      "Beku": 2530,
      "CKP": 2531,
      "Eqhuba": 2532,
      "R1": 2533,
      "UV": 2534,
      "dwe": 2535,
      "ea": 2536,
      "gco": 2537,
      "sti": 2538,
      "kuvele": 2539,
      "lethu": 2540,
      "enza": 2541,
      "size": 2542,
      "sigameko": 2543,
      "ukuzo": 2544,
      "ukupha": 2545,
      "ukungena": 2546,
      "ukuqeda": 2547,
      "abayisi": 2548,
      "abazali": 2549,
      "biza": 2550,
      "khonjiswa": 2551,
      "fani": 2552,
      "kwiCaf": 2553,
      "ons": 2554,
      "khulume": 2555,
      "deo": 2556,
      "wesicoco": 2557,
      "Theku": 2558,
      "2021": 2559,
      "Afcon": 2560,
      "wenze": 2561,
      "endawo": 2562,
      "landelayo": 2563,
      "obese": 2564,
      "kungani": 2565,
      "nkampani": 2566,
      "nxuse": 2567,
      "BACKP": 2568,
      "ngokubambisana": 2569,
      "GEM": 2570,
      "PIX": 2571,
      "qungquthe": 2572,
      "AGEPIX": 2573,
      "BACKPAGEPIX": 2574,
      "42": 2575,
      "60": 2576,
      "90": 2577,
      "Ab": 2578,
      "Aya": 2579,
      "Cele": 2580,
      "Gra": 2581,
      "Ti": 2582,
      "UL": 2583,
      "indaba": 2584,
      "jezi": 2585,
      "osomabhizinisi": 2586,
      "rg": 2587,
      "sp": 2588,
      "kuhulumeni": 2589,
      "nakuba": 2590,
      "thikithi": 2591,
      "ukuyo": 2592,
      "yazi": 2593,
      "kelwe": 2594,
      "bophe": 2595,
      "mishana": 2596,
      "izinga": 2597,
      "izinyathelo": 2598,
      "thuze": 2599,
      "Mambazo": 2600,
      "kisi": 2601,
      "tholi": 2602,
      "ngenkathi": 2603,
      "kwiBetway": 2604,
      "eliphezulu": 2605,
      "ngokuzi": 2606,
      "incwadi": 2607,
      "phiwe": 2608,
      "nuwari": 2609,
      "phula": 2610,
      "phupho": 2611,
      "emaphoyiseni": 2612,
      "abesi": 2613,
      "wine": 2614,
      "phelele": 2615,
      "kwamanje": 2616,
      "Januwari": 2617,
      "hambele": 2618,
      "ussef": 2619,
      "Okunye": 2620,
      "zembe": 2621,
      "Ngokusho": 2622,
      "Phoyisa": 2623,
      "Ben": 2624,
      "Gu": 2625,
      "High": 2626,
      "IPirates": 2627,
      "KE": 2628,
      "Omunye": 2629,
      "TH": 2630,
      "ebezi": 2631,
      "ejele": 2632,
      "indebe": 2633,
      "msakazo": 2634,
      "tric": 2635,
      "lana": 2636,
      "ler": 2637,
      "leyo": 2638,
      "zindaba": 2639,
      "seli": 2640,
      "bengi": 2641,
      "ngokwa": 2642,
      "yakamuva": 2643,
      "nes": 2644,
      "yiqembu": 2645,
      "zamo": 2646,
      "zeli": 2647,
      "thethwa": 2648,
      "kwawo": 2649,
      "phazami": 2650,
      "izindaba": 2651,
      "shiswa": 2652,
      "isikole": 2653,
      "isibalo": 2654,
      "qalile": 2655,
      "Ngemuva": 2656,
      "2019": 2657,
      "hlula": 2658,
      "hlukile": 2659,
      "sheshe": 2660,
      "gula": 2661,
      "vile": 2662,
      "nabadlali": 2663,
      "yenze": 2664,
      "qhatha": 2665,
      "sakaza": 2666,
      "lungiswa": 2667,
      "dlunkulu": 2668,
      "gwaqweni": 2669,
      "uDkt": 2670,
      "eration": 2671,
      "Stellies": 2672,
      "hlangothini": 2673,
      "DLALI": 2674,
      "ezintathu": 2675,
      "Athle": 2676,
      "GEMS": 2677,
      "Bhe": 2678,
      "Buthelezi": 2679,
      "Shinga": 2680,
      "TN": 2681,
      "athe": 2682,
      "bwe": 2683,
      "iba": 2684,
      "ithemba": 2685,
      "iqhaza": 2686,
      "mqeqeshi": 2687,
      "ny": 2688,
      "oseku": 2689,
      "leki": 2690,
      "enze": 2691,
      "sim": 2692,
      "sifuna": 2693,
      "wethimba": 2694,
      "ukuqhubeka": 2695,
      "yam": 2696,
      "sayo": 2697,
      "yingakho": 2698,
      "umhlangani": 2699,
      "kowe": 2700,
      "bono": 2701,
      "kwalo": 2702,
      "phawu": 2703,
      "lwakhe": 2704,
      "hlathuze": 2705,
      "thuli": 2706,
      "isicelo": 2707,
      "cishe": 2708,
      "ngenele": 2709,
      "ngenhloso": 2710,
      "dakami": 2711,
      "Sipho": 2712,
      "qephu": 2713,
      "meya": 2714,
      "fiki": 2715,
      "bheyili": 2716,
      "hlola": 2717,
      "gibeli": 2718,
      "asebe": 2719,
      "kwezinye": 2720,
      "qhaka": 2721,
      "qhamuka": 2722,
      "besilisa": 2723,
      "voti": 2724,
      "usizo": 2725,
      "Khomishana": 2726,
      "yomculo": 2727,
      "Ngonyama": 2728,
      "thishanhloko": 2729,
      "gwebo": 2730,
      "umelelo": 2731,
      "ngabomvu": 2732,
      "Petersen": 2733,
      "finyelela": 2734,
      "sekelo": 2735,
      "College": 2736,
      "umhlanganiso": 2737,
      "24": 2738,
      "Egy": 2739,
      "Gal": 2740,
      "Iso": 2741,
      "Ok": 2742,
      "St": 2743,
      "dizili": 2744,
      "gen": 2745,
      "gcwa": 2746,
      "id": 2747,
      "izwe": 2748,
      "kgo": 2749,
      "nwe": 2750,
      "oba": 2751,
      "ssi": 2752,
      "unyaka": 2753,
      "ulwazi": 2754,
      "zempi": 2755,
      "kune": 2756,
      "lam": 2757,
      "sisa": 2758,
      "simo": 2759,
      "siteshi": 2760,
      "kalo": 2761,
      "maqembu": 2762,
      "mayelana": 2763,
      "namhlanje": 2764,
      "weMamelodi": 2765,
      "umkhankaso": 2766,
      "khodi": 2767,
      "phathe": 2768,
      "izindawo": 2769,
      "izikole": 2770,
      "kwele": 2771,
      "Mali": 2772,
      "esiphezulu": 2773,
      "fakwe": 2774,
      "khetha": 2775,
      "caca": 2776,
      "ting": 2777,
      "inkulumo": 2778,
      "fiso": 2779,
      "nokunye": 2780,
      "mpelasonto": 2781,
      "imigomo": 2782,
      "duna": 2783,
      "zokuba": 2784,
      "namaqembu": 2785,
      "KwaMa": 2786,
      "khishwe": 2787,
      "wabadlali": 2788,
      "ngabantu": 2789,
      "SACP": 2790,
      "yesigameko": 2791,
      "eMnyangweni": 2792,
      "kwabantu": 2793,
      "hliziyo": 2794,
      "Lamont": 2795,
      "ngqongqoshe": 2796,
      "Mina": 2797,
      "nxusa": 2798,
      "lungisa": 2799,
      "Town": 2800,
      "Disemba": 2801,
      "bukeli": 2802,
      "bhekane": 2803,
      "kaMasipala": 2804,
      "ngelinye": 2805,
      "Youssef": 2806,
      "phelile": 2807,
      "bhikisho": 2808,
      "cwaningo": 2809,
      "Lamontville": 2810,
      "Aku": 2811,
      "Lezi": 2812,
      "Nksz": 2813,
      "Seku": 2814,
      "cer": 2815,
      "eut": 2816,
      "eGauteng": 2817,
      "eKapa": 2818,
      "fela": 2819,
      "iza": 2820,
      "uNa": 2821,
      "kulokhu": 2822,
      "kubhekwe": 2823,
      "lazi": 2824,
      "waveza": 2825,
      "enja": 2826,
      "ziyi": 2827,
      "sikhwama": 2828,
      "litha": 2829,
      "nakwi": 2830,
      "thia": 2831,
      "wezin": 2832,
      "wepheshe": 2833,
      "nder": 2834,
      "ngazi": 2835,
      "burg": 2836,
      "umba": 2837,
      "njwe": 2838,
      "lwango": 2839,
      "sobala": 2840,
      "thaka": 2841,
      "njelwe": 2842,
      "mbabwe": 2843,
      "phethwe": 2844,
      "ris": 2845,
      "ries": 2846,
      "gic": 2847,
      "vule": 2848,
      "enant": 2849,
      "hlanganweni": 2850,
      "wokuba": 2851,
      "rekhodi": 2852,
      "Cosa": 2853,
      "Comp": 2854,
      "wenzeka": 2855,
      "Phakathi": 2856,
      "Jazz": 2857,
      "shayeli": 2858,
      "Zimbabwe": 2859,
      "uTha": 2860,
      "abazobe": 2861,
      "Panama": 2862,
      "okuyinto": 2863,
      "phendula": 2864,
      "iNingizimu": 2865,
      "uKhu": 2866,
      "kangaka": 2867,
      "tics": 2868,
      "hlangothi": 2869,
      "dutshulwa": 2870,
      "eMoses": 2871,
      "ncintiswano": 2872,
      "Confederation": 2873,
      "dakamizwa": 2874,
      "Egypt": 2875,
      "Isolezwe": 2876,
      "Okthoba": 2877,
      "Big": 2878,
      "ISundowns": 2879,
      "Os": 2880,
      "THI": 2881,
      "Ukusho": 2882,
      "aya": 2883,
      "efanayo": 2884,
      "iligi": 2885,
      "ithimba": 2886,
      "keme": 2887,
      "nthia": 2888,
      "owe": 2889,
      "kuchaza": 2890,
      "layo": 2891,
      "baningi": 2892,
      "wabe": 2893,
      "waKwaZulu": 2894,
      "lone": 2895,
      "ukubhekana": 2896,
      "ngalesi": 2897,
      "luzo": 2898,
      "yile": 2899,
      "butho": 2900,
      "zethu": 2901,
      "yota": 2902,
      "nogada": 2903,
      "phaza": 2904,
      "khuza": 2905,
      "ezifu": 2906,
      "ezithinta": 2907,
      "wood": 2908,
      "isibili": 2909,
      "isibhamu": 2910,
      "cial": 2911,
      "qashwa": 2912,
      "qokwe": 2913,
      "qondo": 2914,
      "ngenye": 2915,
      "benze": 2916,
      "emine": 2917,
      "inqwaba": 2918,
      "uMntwana": 2919,
      "phile": 2920,
      "gadi": 2921,
      "imiphumela": 2922,
      "ekupheleni": 2923,
      "zwaka": 2924,
      "que": 2925,
      "esele": 2926,
      "esezi": 2927,
      "sokuqala": 2928,
      "izinsuku": 2929,
      "Lions": 2930,
      "Top": 2931,
      "Toyota": 2932,
      "phendule": 2933,
      "Award": 2934,
      "Cynthia": 2935,
      "thuthuki": 2936,
      "hlukume": 2937,
      "Yingakho": 2938,
      "Hugo": 2939,
      "joyina": 2940,
      "gqama": 2941,
      "Group": 2942,
      "Phini": 2943,
      "Comedy": 2944,
      "didiye": 2945,
      "zempilo": 2946,
      "eutenant": 2947,
      "500": 2948,
      "ABA": 2949,
      "Cent": 2950,
      "Febhu": 2951,
      "Mkhize": 2952,
      "Mthethwa": 2953,
      "Pre": 2954,
      "USi": 2955,
      "ano": 2956,
      "ebha": 2957,
      "kW": 2958,
      "mkhulu": 2959,
      "mkhakha": 2960,
      "ung": 2961,
      "kuphi": 2962,
      "endi": 2963,
      "enxa": 2964,
      "khwa": 2965,
      "mane": 2966,
      "matric": 2967,
      "loli": 2968,
      "weBafana": 2969,
      "ndlo": 2970,
      "besa": 2971,
      "lungelo": 2972,
      "yawo": 2973,
      "okukhona": 2974,
      "okuningi": 2975,
      "okumele": 2976,
      "bule": 2977,
      "abaholi": 2978,
      "miswa": 2979,
      "khungo": 2980,
      "khansela": 2981,
      "thanga": 2982,
      "izinguquko": 2983,
      "tholwe": 2984,
      "shaywe": 2985,
      "khethe": 2986,
      "Ngema": 2987,
      "elika": 2988,
      "house": 2989,
      "mbangi": 2990,
      "nokuba": 2991,
      "imisebenzi": 2992,
      "lokuqala": 2993,
      "video": 2994,
      "emakhaya": 2995,
      "kulona": 2996,
      "kuzobe": 2997,
      "Phasika": 2998,
      "ndleko": 2999
    },
    "merges": [
      [
        "k",
        "u"
      ],
      [
        "n",
        "g"
      ],
      [
        "l",
        "a"
      ],
      [
        "t",
        "h"
      ],
      [
        "b",
        "a"
      ],
      [
        "l",
        "e"
      ],
      [
        "w",
        "a"
      ],
      [
        "e",
        "n"
      ],
      [
        "z",
        "i"
      ],
      [
        "s",
        "i"
      ],
      [
        "k",
        "a"
      ],
      [
        "k",
        "h"
      ],
      [
        "m",
        "a"
      ],
      [
        "l",
        "i"
      ],
      [
        "l",
        "o"
      ],
      [
        "n",
        "a"
      ],
      [
        "th",
        "i"
      ],
      [
        "s",
        "e"
      ],
      [
        "p",
        "h"
      ],
      [
        "w",
        "e"
      ],
      [
        "n",
        "d"
      ],
      [
        "u",
        "ku"
      ],
      [
        "ng",
        "a"
      ],
      [
        "n",
        "i"
      ],
      [
        "s",
        "h"
      ],
      [
        "b",
        "e"
      ],
      [
        "ng",
        "o"
      ],
      [
        "l",
        "u"
      ],
      [
        "y",
        "a"
      ],
      [
        "s",
        "a"
      ],
      [
        "n",
        "e"
      ],
      [
        "o",
        "ku"
      ],
      [
        "y",
        "e"
      ],
      [
        "y",
        "i"
      ],
      [
        "b",
        "u"
      ],
      [
        "z",
        "a"
      ],
      [
        "e",
        "m"
      ],
      [
        "a",
        "ba"
      ],
      [
        "u",
        "m"
      ],
      [
        "k",
        "e"
      ],
      [
        "en",
        "i"
      ],
      [
        "n",
        "t"
      ],
      [
        "z",
        "o"
      ],
      [
        "z",
        "e"
      ],
      [
        "k",
        "o"
      ],
      [
        "b",
        "i"
      ],
      [
        "b",
        "o"
      ],
      [
        "uku",
        "thi"
      ],
      [
        "y",
        "o"
      ],
      [
        "kh",
        "o"
      ],
      [
        "th",
        "e"
      ],
      [
        "h",
        "a"
      ],
      [
        "n",
        "o"
      ],
      [
        "m",
        "i"
      ],
      [
        "k",
        "wa"
      ],
      [
        "ng",
        "i"
      ],
      [
        "ng",
        "e"
      ],
      [
        "ph",
        "a"
      ],
      [
        "n",
        "j"
      ],
      [
        "l",
        "wa"
      ],
      [
        "kh",
        "u"
      ],
      [
        "h",
        "la"
      ],
      [
        "s",
        "o"
      ],
      [
        "d",
        "la"
      ],
      [
        "a",
        "ma"
      ],
      [
        "kh",
        "a"
      ],
      [
        "f",
        "u"
      ],
      [
        "k",
        "w"
      ],
      [
        "th",
        "a"
      ],
      [
        "e",
        "la"
      ],
      [
        "i",
        "zi"
      ],
      [
        "nj",
        "e"
      ],
      [
        "w",
        "eni"
      ],
      [
        "th",
        "u"
      ],
      [
        "e",
        "le"
      ],
      [
        "k",
        "we"
      ],
      [
        "e",
        "zi"
      ],
      [
        "M",
        "a"
      ],
      [
        "e",
        "si"
      ],
      [
        "k",
        "i"
      ],
      [
        "w",
        "o"
      ],
      [
        "th",
        "o"
      ],
      [
        "b",
        "h"
      ],
      [
        "sh",
        "i"
      ],
      [
        "f",
        "a"
      ],
      [
        "n",
        "ya"
      ],
      [
        "ng",
        "u"
      ],
      [
        "i",
        "si"
      ],
      [
        "n",
        "ye"
      ],
      [
        "c",
        "i"
      ],
      [
        "m",
        "bi"
      ],
      [
        "sh",
        "a"
      ],
      [
        "m",
        "u"
      ],
      [
        "h",
        "le"
      ],
      [
        "nd",
        "a"
      ],
      [
        "sh",
        "o"
      ],
      [
        "q",
        "a"
      ],
      [
        "d",
        "i"
      ],
      [
        "q",
        "o"
      ],
      [
        "e",
        "r"
      ],
      [
        "kh",
        "e"
      ],
      [
        "ng",
        "en"
      ],
      [
        "h",
        "u"
      ],
      [
        "d",
        "a"
      ],
      [
        "kw",
        "i"
      ],
      [
        "ngo",
        "ba"
      ],
      [
        "N",
        "g"
      ],
      [
        "e",
        "li"
      ],
      [
        "b",
        "en"
      ],
      [
        "ngo",
        "ku"
      ],
      [
        "o",
        "n"
      ],
      [
        "nt",
        "o"
      ],
      [
        "c",
        "a"
      ],
      [
        "khu",
        "lu"
      ],
      [
        "ph",
        "o"
      ],
      [
        "nd",
        "o"
      ],
      [
        "h",
        "o"
      ],
      [
        "t",
        "a"
      ],
      [
        "u",
        "ma"
      ],
      [
        "nt",
        "u"
      ],
      [
        "d",
        "e"
      ],
      [
        "t",
        "i"
      ],
      [
        "v",
        "a"
      ],
      [
        "l",
        "we"
      ],
      [
        "m",
        "ba"
      ],
      [
        "t",
        "e"
      ],
      [
        "d",
        "wa"
      ],
      [
        "se",
        "ben"
      ],
      [
        "kho",
        "na"
      ],
      [
        "S",
        "i"
      ],
      [
        "ph",
        "e"
      ],
      [
        "w",
        "u"
      ],
      [
        "em",
        "i"
      ],
      [
        "le",
        "la"
      ],
      [
        "r",
        "i"
      ],
      [
        "i",
        "n"
      ],
      [
        "r",
        "a"
      ],
      [
        "u",
        "M"
      ],
      [
        "q",
        "e"
      ],
      [
        "nd",
        "i"
      ],
      [
        "ph",
        "i"
      ],
      [
        "m",
        "o"
      ],
      [
        "kw",
        "en"
      ],
      [
        "z",
        "u"
      ],
      [
        "m",
        "e"
      ],
      [
        "f",
        "i"
      ],
      [
        "bh",
        "e"
      ],
      [
        "u",
        "the"
      ],
      [
        "em",
        "bu"
      ],
      [
        "ku",
        "le"
      ],
      [
        "h",
        "lo"
      ],
      [
        "c",
        "o"
      ],
      [
        "kha",
        "thi"
      ],
      [
        "i",
        "ni"
      ],
      [
        "q",
        "embu"
      ],
      [
        "K",
        "u"
      ],
      [
        "n",
        "oku"
      ],
      [
        "ko",
        "dwa"
      ],
      [
        "s",
        "u"
      ],
      [
        "ku",
        "sho"
      ],
      [
        "m",
        "p"
      ],
      [
        "g",
        "a"
      ],
      [
        "h",
        "i"
      ],
      [
        "seben",
        "zi"
      ],
      [
        "r",
        "o"
      ],
      [
        "t",
        "o"
      ],
      [
        "y",
        "oku"
      ],
      [
        "2",
        "0"
      ],
      [
        "n",
        "u"
      ],
      [
        "h",
        "lu"
      ],
      [
        "n",
        "ke"
      ],
      [
        "dla",
        "lo"
      ],
      [
        "nje",
        "ngoba"
      ],
      [
        "i",
        "mi"
      ],
      [
        "z",
        "we"
      ],
      [
        "nge",
        "si"
      ],
      [
        "q",
        "hu"
      ],
      [
        "s",
        "wa"
      ],
      [
        "ka",
        "thi"
      ],
      [
        "b",
        "ha"
      ],
      [
        "B",
        "a"
      ],
      [
        "N",
        "a"
      ],
      [
        "h",
        "e"
      ],
      [
        "g",
        "i"
      ],
      [
        "l",
        "weni"
      ],
      [
        "le",
        "ni"
      ],
      [
        "lu",
        "le"
      ],
      [
        "fu",
        "thi"
      ],
      [
        "U",
        "the"
      ],
      [
        "nd",
        "e"
      ],
      [
        "nya",
        "ka"
      ],
      [
        "d",
        "u"
      ],
      [
        "v",
        "u"
      ],
      [
        "zi",
        "ni"
      ],
      [
        "qa",
        "la"
      ],
      [
        "g",
        "ci"
      ],
      [
        "bo",
        "na"
      ],
      [
        "sh",
        "e"
      ],
      [
        "e",
        "ku"
      ],
      [
        "ph",
        "u"
      ],
      [
        "en",
        "e"
      ],
      [
        "lo",
        "ku"
      ],
      [
        "c",
        "u"
      ],
      [
        "z",
        "wa"
      ],
      [
        "nga",
        "pha"
      ],
      [
        "v",
        "e"
      ],
      [
        "z",
        "oku"
      ],
      [
        "en",
        "a"
      ],
      [
        "U",
        "M"
      ],
      [
        "zi",
        "n"
      ],
      [
        "la",
        "nd"
      ],
      [
        "u",
        "lu"
      ],
      [
        "we",
        "si"
      ],
      [
        "g",
        "u"
      ],
      [
        ",",
        "”"
      ],
      [
        "g",
        "o"
      ],
      [
        "j",
        "a"
      ],
      [
        "o",
        "r"
      ],
      [
        "ne",
        "le"
      ],
      [
        "m",
        "be"
      ],
      [
        "yi",
        "sa"
      ],
      [
        "bi",
        "li"
      ],
      [
        "x",
        "a"
      ],
      [
        "aba",
        "ntu"
      ],
      [
        "na",
        "ma"
      ],
      [
        "s",
        "t"
      ],
      [
        "v",
        "i"
      ],
      [
        "ki",
        "le"
      ],
      [
        "fu",
        "na"
      ],
      [
        "nd",
        "la"
      ],
      [
        "q",
        "u"
      ],
      [
        "n",
        "si"
      ],
      [
        "d",
        "o"
      ],
      [
        "ka",
        "zi"
      ],
      [
        "K",
        "wa"
      ],
      [
        "fa",
        "na"
      ],
      [
        "Z",
        "ulu"
      ],
      [
        "pha",
        "kathi"
      ],
      [
        "S",
        "o"
      ],
      [
        "dla",
        "li"
      ],
      [
        "kwa",
        "zi"
      ],
      [
        "c",
        "e"
      ],
      [
        "nj",
        "a"
      ],
      [
        "t",
        "sh"
      ],
      [
        "ka",
        "khulu"
      ],
      [
        "hla",
        "nga"
      ],
      [
        "0",
        "0"
      ],
      [
        "le",
        "le"
      ],
      [
        "ku",
        "ba"
      ],
      [
        "k",
        "oku"
      ],
      [
        "w",
        "oku"
      ],
      [
        "ke",
        "la"
      ],
      [
        "ma",
        "li"
      ],
      [
        "nga",
        "ma"
      ],
      [
        "P",
        "i"
      ],
      [
        "kh",
        "i"
      ],
      [
        "ni",
        "ngi"
      ],
      [
        "T",
        "he"
      ],
      [
        "q",
        "i"
      ],
      [
        "p",
        "a"
      ],
      [
        "nu",
        "z"
      ],
      [
        "u",
        "N"
      ],
      [
        "qhu",
        "be"
      ],
      [
        "bu",
        "la"
      ],
      [
        "L",
        "o"
      ],
      [
        "yi",
        "si"
      ],
      [
        "g",
        "e"
      ],
      [
        "kule",
        "li"
      ],
      [
        "C",
        "a"
      ],
      [
        ".",
        "\""
      ],
      [
        "b",
        "eni"
      ],
      [
        "lo",
        "khu"
      ],
      [
        "k",
        "ene"
      ],
      [
        "m",
        "en"
      ],
      [
        "r",
        "e"
      ],
      [
        "e",
        "se"
      ],
      [
        "tho",
        "la"
      ],
      [
        "C",
        "hi"
      ],
      [
        "ngesi",
        "khathi"
      ],
      [
        "s",
        "uku"
      ],
      [
        "ne",
        "zi"
      ],
      [
        "nt",
        "a"
      ],
      [
        "fa",
        "nele"
      ],
      [
        "la",
        "pho"
      ],
      [
        "S",
        "ta"
      ],
      [
        "20",
        "2"
      ],
      [
        "u",
        "bu"
      ],
      [
        "e",
        "ma"
      ],
      [
        "mbi",
        "sa"
      ],
      [
        "hle",
        "lo"
      ],
      [
        "d",
        "lule"
      ],
      [
        "s",
        "en"
      ],
      [
        "na",
        "ba"
      ],
      [
        "M",
        "o"
      ],
      [
        "A",
        "f"
      ],
      [
        "uku",
        "ze"
      ],
      [
        "ca",
        "la"
      ],
      [
        "n",
        "zi"
      ],
      [
        "L",
        "e"
      ],
      [
        "uM",
        "nuz"
      ],
      [
        "kwen",
        "za"
      ],
      [
        "te",
        "s"
      ],
      [
        "nt",
        "i"
      ],
      [
        "S",
        "u"
      ],
      [
        "se",
        "le"
      ],
      [
        "a",
        "be"
      ],
      [
        "K",
        "a"
      ],
      [
        "ku",
        "lu"
      ],
      [
        "o",
        "wa"
      ],
      [
        ",",
        "\""
      ],
      [
        "li",
        "sa"
      ],
      [
        "dla",
        "la"
      ],
      [
        "uku",
        "ba"
      ],
      [
        "i",
        "zo"
      ],
      [
        "C",
        "o"
      ],
      [
        "dla",
        "lweni"
      ],
      [
        "s",
        "oku"
      ],
      [
        "B",
        "e"
      ],
      [
        "e",
        "f"
      ],
      [
        "se",
        "ku"
      ],
      [
        "ra",
        "tes"
      ],
      [
        "mbi",
        "li"
      ],
      [
        "Pi",
        "rates"
      ],
      [
        "n",
        "s"
      ],
      [
        "y",
        "u"
      ],
      [
        "em",
        "u"
      ],
      [
        "ci",
        "mbi"
      ],
      [
        "ku",
        "lo"
      ],
      [
        "um",
        "u"
      ],
      [
        "izi",
        "n"
      ],
      [
        "q",
        "ini"
      ],
      [
        "e",
        "nga"
      ],
      [
        "tha",
        "thu"
      ],
      [
        "no",
        "m"
      ],
      [
        "shi",
        "p"
      ],
      [
        "u",
        "be"
      ],
      [
        "nja",
        "lo"
      ],
      [
        "t",
        "y"
      ],
      [
        "nda",
        "wo"
      ],
      [
        "ze",
        "ka"
      ],
      [
        "pho",
        "yisa"
      ],
      [
        "m",
        "ele"
      ],
      [
        "wa",
        "se"
      ],
      [
        "mp",
        "i"
      ],
      [
        "Af",
        "ri"
      ],
      [
        "le",
        "si"
      ],
      [
        "ku",
        "zo"
      ],
      [
        "Ng",
        "i"
      ],
      [
        "w",
        "en"
      ],
      [
        "gci",
        "na"
      ],
      [
        "sh",
        "wa"
      ],
      [
        "Chi",
        "ef"
      ],
      [
        "k",
        "s"
      ],
      [
        "Chief",
        "s"
      ],
      [
        "ku",
        "ka"
      ],
      [
        "x",
        "o"
      ],
      [
        "ph",
        "en"
      ],
      [
        "v",
        "ele"
      ],
      [
        "bh",
        "o"
      ],
      [
        "fu",
        "nda"
      ],
      [
        "um",
        "o"
      ],
      [
        "ku",
        "be"
      ],
      [
        "phe",
        "zu"
      ],
      [
        "c",
        "wa"
      ],
      [
        "s",
        "we"
      ],
      [
        "em",
        "p"
      ],
      [
        "phi",
        "nde"
      ],
      [
        "nya",
        "ngo"
      ],
      [
        "ph",
        "um"
      ],
      [
        "P",
        "ha"
      ],
      [
        "U",
        "N"
      ],
      [
        "emu",
        "va"
      ],
      [
        "a",
        "ku"
      ],
      [
        "c",
        "h"
      ],
      [
        "ta",
        "l"
      ],
      [
        "kwi",
        "ni"
      ],
      [
        "no",
        "ma"
      ],
      [
        "fu",
        "ndi"
      ],
      [
        "m",
        "dlalo"
      ],
      [
        "u",
        "zo"
      ],
      [
        "wa",
        "ba"
      ],
      [
        "y",
        "ena"
      ],
      [
        "nd",
        "le"
      ],
      [
        "ze",
        "la"
      ],
      [
        "nto",
        "lo"
      ],
      [
        "en",
        "da"
      ],
      [
        "ka",
        "ntolo"
      ],
      [
        "nga",
        "ba"
      ],
      [
        "A",
        "N"
      ],
      [
        "d",
        "lela"
      ],
      [
        "P",
        "r"
      ],
      [
        "so",
        "lwa"
      ],
      [
        "A",
        "ma"
      ],
      [
        "nd",
        "leni"
      ],
      [
        "u",
        "se"
      ],
      [
        "o",
        "lu"
      ],
      [
        "w",
        "ns"
      ],
      [
        "di",
        "um"
      ],
      [
        "ngen",
        "xa"
      ],
      [
        "j",
        "i"
      ],
      [
        "Sta",
        "dium"
      ],
      [
        "Su",
        "ndo"
      ],
      [
        "qe",
        "qe"
      ],
      [
        "Sundo",
        "wns"
      ],
      [
        "m",
        "eni"
      ],
      [
        "w",
        "i"
      ],
      [
        "le",
        "li"
      ],
      [
        "emi",
        "er"
      ],
      [
        "Pr",
        "emier"
      ],
      [
        "qhube",
        "ka"
      ],
      [
        "A",
        "ba"
      ],
      [
        "wa",
        "ma"
      ],
      [
        "ka",
        "na"
      ],
      [
        "Ng",
        "a"
      ],
      [
        "Na",
        "tal"
      ],
      [
        "C",
        "i"
      ],
      [
        "th",
        "em"
      ],
      [
        "se",
        "la"
      ],
      [
        "The",
        "kwini"
      ],
      [
        "thu",
        "ba"
      ],
      [
        "bu",
        "ye"
      ],
      [
        "S",
        "A"
      ],
      [
        "a",
        "l"
      ],
      [
        "ngen",
        "a"
      ],
      [
        "l",
        "li"
      ],
      [
        "ph",
        "ela"
      ],
      [
        "ti",
        "on"
      ],
      [
        "Kwa",
        "Zulu"
      ],
      [
        "o",
        "f"
      ],
      [
        "en",
        "ye"
      ],
      [
        "hlu",
        "kene"
      ],
      [
        "m",
        "bo"
      ],
      [
        "t",
        "u"
      ],
      [
        "z",
        "weni"
      ],
      [
        "nga",
        "yo"
      ],
      [
        "S",
        "a"
      ],
      [
        "land",
        "ela"
      ],
      [
        "la",
        "ndo"
      ],
      [
        "ye",
        "si"
      ],
      [
        "kha",
        "ya"
      ],
      [
        "ks",
        "z"
      ],
      [
        "nd",
        "aba"
      ],
      [
        "lu",
        "la"
      ],
      [
        "ka",
        "la"
      ],
      [
        "ngoku",
        "thi"
      ],
      [
        "e",
        "za"
      ],
      [
        "ba",
        "n"
      ],
      [
        "mu",
        "nye"
      ],
      [
        "ka",
        "hle"
      ],
      [
        "ngo",
        "M"
      ],
      [
        "za",
        "ne"
      ],
      [
        "ho",
        "li"
      ],
      [
        "e",
        "M"
      ],
      [
        "ha",
        "mba"
      ],
      [
        "hla",
        "ba"
      ],
      [
        "Premier",
        "ship"
      ],
      [
        "kwa",
        "ba"
      ],
      [
        "Ba",
        "fana"
      ],
      [
        "a",
        "r"
      ],
      [
        "o",
        "be"
      ],
      [
        "phu",
        "zu"
      ],
      [
        "shi",
        "ni"
      ],
      [
        "N",
        "o"
      ],
      [
        "the",
        "tho"
      ],
      [
        "L",
        "I"
      ],
      [
        "L",
        "wesi"
      ],
      [
        "c",
        "ha"
      ],
      [
        "so",
        "nto"
      ],
      [
        "ng",
        "um"
      ],
      [
        "ph",
        "ele"
      ],
      [
        "nd",
        "lela"
      ],
      [
        "wa",
        "na"
      ],
      [
        "nga",
        "kho"
      ],
      [
        "C",
        "ha"
      ],
      [
        "m",
        "ela"
      ],
      [
        "y",
        "en"
      ],
      [
        "yo",
        "na"
      ],
      [
        "i",
        "g"
      ],
      [
        "zi",
        "wa"
      ],
      [
        "G",
        "o"
      ],
      [
        "khulu",
        "ma"
      ],
      [
        "l",
        "le"
      ],
      [
        "n",
        "en"
      ],
      [
        "nge",
        "zi"
      ],
      [
        "wa",
        "ye"
      ],
      [
        "lo",
        "kho"
      ],
      [
        "nd",
        "eni"
      ],
      [
        "lu",
        "ngu"
      ],
      [
        "e",
        "ya"
      ],
      [
        "r",
        "d"
      ],
      [
        "cu",
        "lo"
      ],
      [
        "tho",
        "le"
      ],
      [
        "kwe",
        "si"
      ],
      [
        "e",
        "Thekwini"
      ],
      [
        "p",
        "e"
      ],
      [
        "ka",
        "nje"
      ],
      [
        "li",
        "ngi"
      ],
      [
        "ve",
        "ze"
      ],
      [
        "S",
        "e"
      ],
      [
        "e",
        "ngu"
      ],
      [
        "ba",
        "la"
      ],
      [
        "ngo",
        "ma"
      ],
      [
        "fi",
        "ka"
      ],
      [
        "U",
        "m"
      ],
      [
        "a",
        "se"
      ],
      [
        "ke",
        "le"
      ],
      [
        "hu",
        "ma"
      ],
      [
        "L",
        "i"
      ],
      [
        "n",
        "yu"
      ],
      [
        "ngo",
        "Lwesi"
      ],
      [
        "men",
        "de"
      ],
      [
        "F",
        "C"
      ],
      [
        "e",
        "N"
      ],
      [
        "kwa",
        "ma"
      ],
      [
        "U",
        "ni"
      ],
      [
        "le",
        "lwa"
      ],
      [
        "ya",
        "khe"
      ],
      [
        "mp",
        "a"
      ],
      [
        "th",
        "wa"
      ],
      [
        "go",
        "li"
      ],
      [
        "Ci",
        "ty"
      ],
      [
        "ku",
        "khona"
      ],
      [
        "kha",
        "la"
      ],
      [
        "kwe",
        "zi"
      ],
      [
        "G",
        "a"
      ],
      [
        "h",
        "li"
      ],
      [
        "o",
        "m"
      ],
      [
        "n",
        "q"
      ],
      [
        "i",
        "mali"
      ],
      [
        "q",
        "ha"
      ],
      [
        "u",
        "r"
      ],
      [
        "ne",
        "si"
      ],
      [
        "za",
        "ma"
      ],
      [
        "ezi",
        "n"
      ],
      [
        "u",
        "ya"
      ],
      [
        "e",
        "s"
      ],
      [
        "le",
        "zi"
      ],
      [
        "be",
        "si"
      ],
      [
        "e",
        "bu"
      ],
      [
        "wa",
        "thi"
      ],
      [
        "a",
        "yi"
      ],
      [
        "g",
        "qi"
      ],
      [
        "v",
        "o"
      ],
      [
        "le",
        "ka"
      ],
      [
        "be",
        "se"
      ],
      [
        "ya",
        "se"
      ],
      [
        "seben",
        "za"
      ],
      [
        "qini",
        "se"
      ],
      [
        "L",
        "a"
      ],
      [
        "n",
        "qo"
      ],
      [
        "ng",
        "eni"
      ],
      [
        "lo",
        "lu"
      ],
      [
        "ni",
        "si"
      ],
      [
        "ca",
        "ne"
      ],
      [
        "ba",
        "zo"
      ],
      [
        "li",
        "gi"
      ],
      [
        "O",
        "r"
      ],
      [
        "u",
        "sho"
      ],
      [
        "ng",
        "weni"
      ],
      [
        "J",
        "a"
      ],
      [
        "nge",
        "ke"
      ],
      [
        "Afri",
        "ka"
      ],
      [
        ")",
        ","
      ],
      [
        "v",
        "ela"
      ],
      [
        "hla",
        "nu"
      ],
      [
        "ka",
        "njalo"
      ],
      [
        "mo",
        "to"
      ],
      [
        "J",
        "u"
      ],
      [
        "w",
        "ukuthi"
      ],
      [
        "thi",
        "wa"
      ],
      [
        "ja",
        "bu"
      ],
      [
        "u",
        "si"
      ],
      [
        "li",
        "ka"
      ],
      [
        "ngi",
        "zi"
      ],
      [
        "sha",
        "ye"
      ],
      [
        "w",
        "ini"
      ],
      [
        "qeqe",
        "shi"
      ],
      [
        "u",
        "Ma"
      ],
      [
        "sh",
        "u"
      ],
      [
        "e",
        "d"
      ],
      [
        "ko",
        "si"
      ],
      [
        "I",
        "si"
      ],
      [
        "e",
        "t"
      ],
      [
        "e",
        "ze"
      ],
      [
        "p",
        "o"
      ],
      [
        "ne",
        "mi"
      ],
      [
        "em",
        "dlalweni"
      ],
      [
        "su",
        "ka"
      ],
      [
        "umu",
        "ntu"
      ],
      [
        "a",
        "ka"
      ],
      [
        "ku",
        "nga"
      ],
      [
        "ng",
        "qo"
      ],
      [
        "nd",
        "ele"
      ],
      [
        "be",
        "zi"
      ],
      [
        "tha",
        "nda"
      ],
      [
        "hu",
        "lu"
      ],
      [
        "se",
        "si"
      ],
      [
        "ngen",
        "dlela"
      ],
      [
        "nzi",
        "ma"
      ],
      [
        "f",
        "o"
      ],
      [
        "la",
        "la"
      ],
      [
        "M",
        "i"
      ],
      [
        "s",
        "eni"
      ],
      [
        "z",
        "en"
      ],
      [
        "A",
        "r"
      ],
      [
        "I",
        "ma"
      ],
      [
        "d",
        "aba"
      ],
      [
        "e",
        "zo"
      ],
      [
        "n",
        "qa"
      ],
      [
        "ngo",
        "m"
      ],
      [
        "ngapha",
        "ndle"
      ],
      [
        "pha",
        "nsi"
      ],
      [
        "ve",
        "za"
      ],
      [
        "hulu",
        "meni"
      ],
      [
        "i",
        "ng"
      ],
      [
        "l",
        "d"
      ],
      [
        "ma",
        "nje"
      ],
      [
        "pha",
        "mbili"
      ],
      [
        "yoku",
        "thi"
      ],
      [
        "land",
        "eli"
      ],
      [
        "Ima",
        "ge"
      ],
      [
        "K",
        "ho"
      ],
      [
        "i",
        "sa"
      ],
      [
        "me",
        "lo"
      ],
      [
        "enda",
        "weni"
      ],
      [
        "be",
        "lo"
      ],
      [
        "fa",
        "zane"
      ],
      [
        "oku",
        "ba"
      ],
      [
        "e",
        "thi"
      ],
      [
        "i",
        "ze"
      ],
      [
        "u",
        "B"
      ],
      [
        "wa",
        "khe"
      ],
      [
        "si",
        "pa"
      ],
      [
        "nga",
        "ne"
      ],
      [
        "um",
        "e"
      ],
      [
        "yo",
        "m"
      ],
      [
        "qa",
        "le"
      ],
      [
        "u",
        "sa"
      ],
      [
        "fu",
        "ndo"
      ],
      [
        "sipa",
        "la"
      ],
      [
        "hla",
        "ka"
      ],
      [
        "Z",
        "i"
      ],
      [
        "kho",
        "mbisa"
      ],
      [
        "u",
        "p"
      ],
      [
        "ki",
        "nga"
      ],
      [
        "phezu",
        "lu"
      ],
      [
        "si",
        "ka"
      ],
      [
        "Pha",
        "la"
      ],
      [
        "U",
        "ma"
      ],
      [
        "a",
        "zo"
      ],
      [
        "t",
        "s"
      ],
      [
        "izi",
        "nto"
      ],
      [
        "Ng",
        "o"
      ],
      [
        "e",
        "sa"
      ],
      [
        "e",
        "dlule"
      ],
      [
        "m",
        "bu"
      ],
      [
        "si",
        "za"
      ],
      [
        "sebenzi",
        "sa"
      ],
      [
        "m",
        "eli"
      ],
      [
        "n",
        "ka"
      ],
      [
        "ku",
        "fanele"
      ],
      [
        "ga",
        "me"
      ],
      [
        "cu",
        "li"
      ],
      [
        "ku",
        "ndleni"
      ],
      [
        "hla",
        "la"
      ],
      [
        "wo",
        "na"
      ],
      [
        "e",
        "ngi"
      ],
      [
        "t",
        "wa"
      ],
      [
        "aba",
        "nga"
      ],
      [
        "izi",
        "nisi"
      ],
      [
        "mu",
        "va"
      ],
      [
        "u",
        "T"
      ],
      [
        "th",
        "we"
      ],
      [
        "ba",
        "nga"
      ],
      [
        "bhe",
        "kene"
      ],
      [
        "U",
        "ku"
      ],
      [
        "n",
        "x"
      ],
      [
        "qo",
        "ka"
      ],
      [
        "noku",
        "thi"
      ],
      [
        "en",
        "t"
      ],
      [
        "ha",
        "mbe"
      ],
      [
        "ci",
        "ko"
      ],
      [
        "nya",
        "ma"
      ],
      [
        "isi",
        "khathi"
      ],
      [
        "Lo",
        "khu"
      ],
      [
        "ku",
        "sa"
      ],
      [
        "thi",
        "sha"
      ],
      [
        "bh",
        "izinisi"
      ],
      [
        "la",
        "khe"
      ],
      [
        "shi",
        "ya"
      ],
      [
        "khe",
        "tho"
      ],
      [
        "uN",
        "ksz"
      ],
      [
        "sa",
        "ka"
      ],
      [
        "ku",
        "landela"
      ],
      [
        "bh",
        "u"
      ],
      [
        "U",
        "K"
      ],
      [
        "i",
        "qembu"
      ],
      [
        "i",
        "ndawo"
      ],
      [
        "ki",
        "sa"
      ],
      [
        "te",
        "d"
      ],
      [
        "lu",
        "ngi"
      ],
      [
        "co",
        "co"
      ],
      [
        "00",
        "0"
      ],
      [
        "T",
        "o"
      ],
      [
        "a",
        "ngu"
      ],
      [
        "ni",
        "sa"
      ],
      [
        "ama",
        "phoyisa"
      ],
      [
        "ngizi",
        "mu"
      ],
      [
        "kh",
        "um"
      ],
      [
        "um",
        "sebenzi"
      ],
      [
        "bha",
        "mu"
      ],
      [
        "them",
        "ba"
      ],
      [
        "game",
        "ko"
      ],
      [
        "i",
        "nto"
      ],
      [
        "ng",
        "wa"
      ],
      [
        "na",
        "se"
      ],
      [
        "hlanga",
        "no"
      ],
      [
        "Or",
        "lando"
      ],
      [
        "la",
        "se"
      ],
      [
        "W",
        "a"
      ],
      [
        "la",
        "ba"
      ],
      [
        "za",
        "yo"
      ],
      [
        "gci",
        "ne"
      ],
      [
        "D",
        "i"
      ],
      [
        "i",
        "ngizimu"
      ],
      [
        "li",
        "ndele"
      ],
      [
        "bu",
        "ya"
      ],
      [
        "thu",
        "la"
      ],
      [
        "kwen",
        "ze"
      ],
      [
        "hlo",
        "ni"
      ],
      [
        "1",
        "9"
      ],
      [
        "ng",
        "emp"
      ],
      [
        "yi",
        "ni"
      ],
      [
        "fa",
        "ka"
      ],
      [
        "Uni",
        "ted"
      ],
      [
        "gqi",
        "belo"
      ],
      [
        "I",
        "N"
      ],
      [
        "L",
        "A"
      ],
      [
        "ka",
        "nye"
      ],
      [
        "ko",
        "le"
      ],
      [
        "ko",
        "nke"
      ],
      [
        "Be",
        "twa"
      ],
      [
        "Betwa",
        "y"
      ],
      [
        "mbisa",
        "na"
      ],
      [
        "rd",
        "s"
      ],
      [
        "e",
        "yi"
      ],
      [
        "ku",
        "ya"
      ],
      [
        "ku",
        "mele"
      ],
      [
        "nya",
        "k"
      ],
      [
        "sha",
        "ya"
      ],
      [
        "nqa",
        "mu"
      ],
      [
        "Phala",
        "mende"
      ],
      [
        "c",
        "we"
      ],
      [
        "um",
        "dlalo"
      ],
      [
        "kwa",
        "bo"
      ],
      [
        "I",
        "S"
      ],
      [
        "R",
        "ama"
      ],
      [
        "a",
        "nga"
      ],
      [
        "th",
        "eni"
      ],
      [
        "ya",
        "ma"
      ],
      [
        "ne",
        "zin"
      ],
      [
        "L",
        "E"
      ],
      [
        "si",
        "zini"
      ],
      [
        "ka",
        "nti"
      ],
      [
        "bh",
        "i"
      ],
      [
        "Cha",
        "mpi"
      ],
      [
        "e",
        "l"
      ],
      [
        "m",
        "cimbi"
      ],
      [
        "x",
        "huma"
      ],
      [
        "j",
        "o"
      ],
      [
        "o",
        "bu"
      ],
      [
        "lo",
        "g"
      ],
      [
        "yo",
        "M"
      ],
      [
        "nq",
        "umo"
      ],
      [
        "Champi",
        "on"
      ],
      [
        "P",
        "o"
      ],
      [
        "R",
        "i"
      ],
      [
        "a",
        "si"
      ],
      [
        "x",
        "i"
      ],
      [
        "se",
        "be"
      ],
      [
        "hla",
        "le"
      ],
      [
        "bhe",
        "kana"
      ],
      [
        "a",
        "m"
      ],
      [
        "pho",
        "sa"
      ],
      [
        "li",
        "le"
      ],
      [
        "na",
        "ye"
      ],
      [
        "tha",
        "tha"
      ],
      [
        "ge",
        "be"
      ],
      [
        "Ca",
        "r"
      ],
      [
        "lli",
        "on"
      ],
      [
        "d",
        "lu"
      ],
      [
        "o",
        "zo"
      ],
      [
        "wo",
        "nke"
      ],
      [
        "U",
        "S"
      ],
      [
        "g",
        "wa"
      ],
      [
        "en",
        "j"
      ],
      [
        "sh",
        "we"
      ],
      [
        "aba",
        "zo"
      ],
      [
        "bi",
        "sa"
      ],
      [
        "ngen",
        "e"
      ],
      [
        "ku",
        "phela"
      ],
      [
        "th",
        "weni"
      ],
      [
        "ba",
        "se"
      ],
      [
        "wo",
        "m"
      ],
      [
        "ngoM",
        "gqibelo"
      ],
      [
        "okuba",
        "lwa"
      ],
      [
        "Rama",
        "phosa"
      ],
      [
        "P",
        "a"
      ],
      [
        "si",
        "zo"
      ],
      [
        "kwen",
        "zeka"
      ],
      [
        "su",
        "ke"
      ],
      [
        "c",
        "hi"
      ],
      [
        "bo",
        "ne"
      ],
      [
        "kho",
        "si"
      ],
      [
        "phum",
        "ela"
      ],
      [
        "1",
        "0"
      ],
      [
        "u",
        "s"
      ],
      [
        "l",
        "l"
      ],
      [
        "bu",
        "ka"
      ],
      [
        "ba",
        "lo"
      ],
      [
        "hlo",
        "bo"
      ],
      [
        "su",
        "kela"
      ],
      [
        "g",
        "qu"
      ],
      [
        "r",
        "y"
      ],
      [
        "u",
        "D"
      ],
      [
        "qe",
        "da"
      ],
      [
        "ngapha",
        "mbi"
      ],
      [
        "Le",
        "a"
      ],
      [
        "mpa",
        "ni"
      ],
      [
        "3",
        "0"
      ],
      [
        "u",
        "hlelo"
      ],
      [
        "se",
        "zi"
      ],
      [
        "de",
        "lwa"
      ],
      [
        "Si",
        "ya"
      ],
      [
        "g",
        "we"
      ],
      [
        "n",
        "kulu"
      ],
      [
        "mi",
        "ni"
      ],
      [
        "ebu",
        "suku"
      ],
      [
        "F",
        "M"
      ],
      [
        "o",
        "na"
      ],
      [
        "thi",
        "mba"
      ],
      [
        "no",
        "bu"
      ],
      [
        "er",
        "a"
      ],
      [
        "emi",
        "dlalweni"
      ],
      [
        "n",
        "cane"
      ],
      [
        "um",
        "ele"
      ],
      [
        "ela",
        "sonto"
      ],
      [
        "hlo",
        "ko"
      ],
      [
        "Afri",
        "ca"
      ],
      [
        "B",
        "A"
      ],
      [
        "n",
        "eni"
      ],
      [
        "na",
        "bo"
      ],
      [
        "imi",
        "dlalo"
      ],
      [
        "em",
        "e"
      ],
      [
        "zo",
        "nke"
      ],
      [
        "ri",
        "c"
      ],
      [
        "C",
        "up"
      ],
      [
        "o",
        "s"
      ],
      [
        "ph",
        "uma"
      ],
      [
        "so",
        "ma"
      ],
      [
        "shi",
        "nt"
      ],
      [
        "mba",
        "ma"
      ],
      [
        "kule",
        "si"
      ],
      [
        "nqo",
        "ba"
      ],
      [
        "F",
        "a"
      ],
      [
        "u",
        "ba"
      ],
      [
        "ku",
        "ma"
      ],
      [
        "nga",
        "ni"
      ],
      [
        "um",
        "i"
      ],
      [
        "mi",
        "dlalo"
      ],
      [
        "st",
        "er"
      ],
      [
        "nta",
        "mbama"
      ],
      [
        "sele",
        "lo"
      ],
      [
        "b",
        "oku"
      ],
      [
        "s",
        "s"
      ],
      [
        "aba",
        "dlali"
      ],
      [
        "de",
        "be"
      ],
      [
        "fi",
        "ke"
      ],
      [
        "tsh",
        "u"
      ],
      [
        "a",
        "wu"
      ],
      [
        "si",
        "le"
      ],
      [
        "funda",
        "zwe"
      ],
      [
        "AN",
        "C"
      ],
      [
        "I",
        "n"
      ],
      [
        "i",
        "cala"
      ],
      [
        "o",
        "se"
      ],
      [
        "ngapha",
        "nsi"
      ],
      [
        "K",
        "o"
      ],
      [
        "S",
        "te"
      ],
      [
        "x",
        "ha"
      ],
      [
        "ng",
        "emuva"
      ],
      [
        "lo",
        "m"
      ],
      [
        "hla",
        "lo"
      ],
      [
        "ngesi",
        "zini"
      ],
      [
        "B",
        "o"
      ],
      [
        "u",
        "g"
      ],
      [
        "ya",
        "ba"
      ],
      [
        "ko",
        "m"
      ],
      [
        "bhe",
        "ke"
      ],
      [
        "gu",
        "e"
      ],
      [
        "bho",
        "la"
      ],
      [
        "Ju",
        "ni"
      ],
      [
        "xhuma",
        "na"
      ],
      [
        ")",
        "."
      ],
      [
        "Z",
        "N"
      ],
      [
        "li",
        "se"
      ],
      [
        "cwa",
        "di"
      ],
      [
        "Lea",
        "gue"
      ],
      [
        "e",
        "ba"
      ],
      [
        "i",
        "ndlela"
      ],
      [
        "em",
        "ba"
      ],
      [
        "mi",
        "nyaka"
      ],
      [
        "isi",
        "zini"
      ],
      [
        "da",
        "la"
      ],
      [
        "izo",
        "lo"
      ],
      [
        "enj",
        "ini"
      ],
      [
        "S",
        "ha"
      ],
      [
        "d",
        "li"
      ],
      [
        "m",
        "vu"
      ],
      [
        "p",
        "i"
      ],
      [
        "w",
        "um"
      ],
      [
        "x",
        "enye"
      ],
      [
        "kwa",
        "khe"
      ],
      [
        "ama",
        "qembu"
      ],
      [
        "Ma",
        "melo"
      ],
      [
        "qhu",
        "delwa"
      ],
      [
        "Mamelo",
        "di"
      ],
      [
        "K",
        "P"
      ],
      [
        "lo",
        "vu"
      ],
      [
        "thi",
        "ni"
      ],
      [
        "oku",
        "yi"
      ],
      [
        "kwazi",
        "se"
      ],
      [
        "phen",
        "du"
      ],
      [
        "i",
        "nga"
      ],
      [
        "lo",
        "nke"
      ],
      [
        "nt",
        "e"
      ],
      [
        "tho",
        "mbe"
      ],
      [
        "ngoku",
        "ba"
      ],
      [
        "e",
        "be"
      ],
      [
        "e",
        "bi"
      ],
      [
        "ya",
        "nga"
      ],
      [
        "bu",
        "ke"
      ],
      [
        "zo",
        "m"
      ],
      [
        "ko",
        "leni"
      ],
      [
        "pha",
        "thi"
      ],
      [
        "bula",
        "la"
      ],
      [
        "H",
        "I"
      ],
      [
        "U",
        "Ma"
      ],
      [
        "i",
        "N"
      ],
      [
        "la",
        "bo"
      ],
      [
        "na",
        "ndi"
      ],
      [
        "yo",
        "nke"
      ],
      [
        "So",
        "nto"
      ],
      [
        "nd",
        "lu"
      ],
      [
        "ye",
        "la"
      ],
      [
        "em",
        "va"
      ],
      [
        "nge",
        "kho"
      ],
      [
        "tha",
        "the"
      ],
      [
        "ku",
        "yi"
      ],
      [
        "yoM",
        "hlaba"
      ],
      [
        "E",
        "N"
      ],
      [
        "M",
        "nyango"
      ],
      [
        "ba",
        "ya"
      ],
      [
        "L",
        "u"
      ],
      [
        "i",
        "thuba"
      ],
      [
        "y",
        "wa"
      ],
      [
        "dla",
        "le"
      ],
      [
        "ro",
        "os"
      ],
      [
        "w",
        "uku"
      ],
      [
        "ku",
        "ze"
      ],
      [
        "bo",
        "nga"
      ],
      [
        "mu",
        "ntu"
      ],
      [
        "phe",
        "the"
      ],
      [
        "soku",
        "thi"
      ],
      [
        "lingi",
        "si"
      ],
      [
        "kha",
        "nka"
      ],
      [
        "di",
        "nga"
      ],
      [
        "nja",
        "ni"
      ],
      [
        "o",
        "ma"
      ],
      [
        "le",
        "lwe"
      ],
      [
        "ye",
        "zi"
      ],
      [
        "za",
        "nsi"
      ],
      [
        "bhe",
        "ka"
      ],
      [
        "ngapha",
        "kathi"
      ],
      [
        "qhube",
        "ke"
      ],
      [
        "D",
        "ur"
      ],
      [
        "n",
        "ci"
      ],
      [
        "q",
        "enjini"
      ],
      [
        "u",
        "K"
      ],
      [
        "u",
        "t"
      ],
      [
        "ku",
        "bo"
      ],
      [
        "le",
        "ke"
      ],
      [
        "na",
        "yo"
      ],
      [
        "202",
        "6"
      ],
      [
        "Dur",
        "ban"
      ],
      [
        "H",
        "o"
      ],
      [
        "j",
        "waye"
      ],
      [
        "khi",
        "pha"
      ],
      [
        "ize",
        "r"
      ],
      [
        "i",
        "ya"
      ],
      [
        "ba",
        "mba"
      ],
      [
        "en",
        "zi"
      ],
      [
        "mi",
        "sa"
      ],
      [
        "Ka",
        "izer"
      ],
      [
        "H",
        "A"
      ],
      [
        "d",
        "le"
      ],
      [
        "x",
        "e"
      ],
      [
        "thi",
        "nta"
      ],
      [
        "nd",
        "ela"
      ],
      [
        "aba",
        "ningi"
      ],
      [
        "nge",
        "Sonto"
      ],
      [
        "ngqo",
        "she"
      ],
      [
        "gebe",
        "ngu"
      ],
      [
        "c",
        "k"
      ],
      [
        "er",
        "i"
      ],
      [
        "A",
        "wa"
      ],
      [
        "u",
        "th"
      ],
      [
        "u",
        "nga"
      ],
      [
        "be",
        "ku"
      ],
      [
        "um",
        "bi"
      ],
      [
        "ama",
        "phuzu"
      ],
      [
        "ki",
        "thi"
      ],
      [
        "wi",
        "na"
      ],
      [
        "R",
        "a"
      ],
      [
        "m",
        "qoka"
      ],
      [
        "t",
        "sha"
      ],
      [
        "ku",
        "bona"
      ],
      [
        "ku",
        "sukela"
      ],
      [
        "mi",
        "shini"
      ],
      [
        "ona",
        "l"
      ],
      [
        "j",
        "e"
      ],
      [
        "k",
        "k"
      ],
      [
        "p",
        "or"
      ],
      [
        "u",
        "Si"
      ],
      [
        "lo",
        "na"
      ],
      [
        "nga",
        "le"
      ],
      [
        "nga",
        "be"
      ],
      [
        "owa",
        "ye"
      ],
      [
        "F",
        "P"
      ],
      [
        "cwe",
        "le"
      ],
      [
        "J",
        "o"
      ],
      [
        "T",
        "ha"
      ],
      [
        "a",
        "ye"
      ],
      [
        "i",
        "M"
      ],
      [
        "s",
        "ka"
      ],
      [
        "u",
        "S"
      ],
      [
        "ku",
        "yona"
      ],
      [
        "yi",
        "se"
      ],
      [
        "ngi",
        "sho"
      ],
      [
        "zoku",
        "xhumana"
      ],
      [
        "1",
        "2"
      ],
      [
        "a",
        "zi"
      ],
      [
        "le",
        "kile"
      ],
      [
        "zi",
        "le"
      ],
      [
        "si",
        "nga"
      ],
      [
        "ka",
        "Ma"
      ],
      [
        "hla",
        "beni"
      ],
      [
        "ti",
        "onal"
      ],
      [
        "K",
        "ZN"
      ],
      [
        "Q",
        "E"
      ],
      [
        "ka",
        "nga"
      ],
      [
        "ka",
        "mpani"
      ],
      [
        "ka",
        "njani"
      ],
      [
        "na",
        "wo"
      ],
      [
        "nd",
        "u"
      ],
      [
        "aba",
        "nye"
      ],
      [
        "fa",
        "kazi"
      ],
      [
        "isi",
        "nqumo"
      ],
      [
        "phe",
        "pha"
      ],
      [
        "ama",
        "lungu"
      ],
      [
        "D",
        "A"
      ],
      [
        "a",
        "d"
      ],
      [
        "ku",
        "yo"
      ],
      [
        "ng",
        "xenye"
      ],
      [
        "ba",
        "khe"
      ],
      [
        "yi",
        "zi"
      ],
      [
        "ke",
        "lele"
      ],
      [
        "F",
        "o"
      ],
      [
        "G",
        "A"
      ],
      [
        "o",
        "nga"
      ],
      [
        "r",
        "s"
      ],
      [
        "li",
        "nga"
      ],
      [
        "mi",
        "llion"
      ],
      [
        "esi",
        "khathi"
      ],
      [
        "wu",
        "la"
      ],
      [
        "gi",
        "ji"
      ],
      [
        "202",
        "4"
      ],
      [
        "lingi",
        "sa"
      ],
      [
        "P",
        "ro"
      ],
      [
        "a",
        "bo"
      ],
      [
        "ka",
        "ma"
      ],
      [
        "se",
        "ka"
      ],
      [
        "nga",
        "thi"
      ],
      [
        "be",
        "ka"
      ],
      [
        "be",
        "nga"
      ],
      [
        "tha",
        "ndo"
      ],
      [
        "tsh",
        "wa"
      ],
      [
        "ska",
        "ndi"
      ],
      [
        "Z",
        "I"
      ],
      [
        "n",
        "ce"
      ],
      [
        "ngo",
        "bu"
      ],
      [
        "sa",
        "ba"
      ],
      [
        "bo",
        "ni"
      ],
      [
        "imi",
        "nyaka"
      ],
      [
        "bula",
        "wa"
      ],
      [
        "lindele",
        "ke"
      ],
      [
        "K",
        "A"
      ],
      [
        "ngo",
        "munye"
      ],
      [
        "ya",
        "le"
      ],
      [
        "sa",
        "ma"
      ],
      [
        "ama",
        "bili"
      ],
      [
        "C",
        "y"
      ],
      [
        "G",
        "E"
      ],
      [
        "O",
        "ku"
      ],
      [
        "g",
        "cwele"
      ],
      [
        "em",
        "hlabeni"
      ],
      [
        "kwa",
        "yo"
      ],
      [
        "Ba",
        "y"
      ],
      [
        "U",
        "B"
      ],
      [
        "i",
        "bi"
      ],
      [
        "k",
        "lo"
      ],
      [
        "u",
        "kwe"
      ],
      [
        "ba",
        "ba"
      ],
      [
        "si",
        "zi"
      ],
      [
        "si",
        "ni"
      ],
      [
        "zo",
        "bu"
      ],
      [
        "eku",
        "beni"
      ],
      [
        "naba",
        "nye"
      ],
      [
        "buye",
        "la"
      ],
      [
        "1",
        "5"
      ],
      [
        "F",
        "i"
      ],
      [
        "c",
        "on"
      ],
      [
        "h",
        "l"
      ],
      [
        "ze",
        "le"
      ],
      [
        "lwa",
        "zi"
      ],
      [
        "soma",
        "bhizinisi"
      ],
      [
        "N",
        "debe"
      ],
      [
        "n",
        "ze"
      ],
      [
        "ku",
        "wona"
      ],
      [
        "nga",
        "lo"
      ],
      [
        "nt",
        "wana"
      ],
      [
        "kha",
        "kha"
      ],
      [
        "ndi",
        "le"
      ],
      [
        "phen",
        "yo"
      ],
      [
        "ezin",
        "kundleni"
      ],
      [
        "kusa",
        "sa"
      ],
      [
        "nyak",
        "enye"
      ],
      [
        "C",
        "on"
      ],
      [
        "k",
        "m"
      ],
      [
        "er",
        "s"
      ],
      [
        "eku",
        "theni"
      ],
      [
        "go",
        "mo"
      ],
      [
        "So",
        "uth"
      ],
      [
        "ngama",
        "phuzu"
      ],
      [
        "eza",
        "yo"
      ],
      [
        "yen",
        "za"
      ],
      [
        "E",
        "ph"
      ],
      [
        "H",
        "la"
      ],
      [
        "U",
        "veze"
      ],
      [
        "r",
        "eli"
      ],
      [
        "v",
        "in"
      ],
      [
        "we",
        "ze"
      ],
      [
        "uku",
        "zi"
      ],
      [
        "be",
        "ke"
      ],
      [
        "Isi",
        "thombe"
      ],
      [
        "Eph",
        "reli"
      ],
      [
        ".",
        "”"
      ],
      [
        "D",
        "la"
      ],
      [
        "th",
        "ro"
      ],
      [
        "ba",
        "zi"
      ],
      [
        "si",
        "ya"
      ],
      [
        "kh",
        "wana"
      ],
      [
        "nga",
        "bo"
      ],
      [
        "ngo",
        "nyaka"
      ],
      [
        "no",
        "M"
      ],
      [
        "fana",
        "yo"
      ],
      [
        "qinise",
        "ki"
      ],
      [
        "qhudelwa",
        "no"
      ],
      [
        "khwana",
        "zi"
      ],
      [
        "N",
        "je"
      ],
      [
        "y",
        "we"
      ],
      [
        "y",
        "eni"
      ],
      [
        "li",
        "ma"
      ],
      [
        "ni",
        "ke"
      ],
      [
        "za",
        "ba"
      ],
      [
        "nge",
        "li"
      ],
      [
        "so",
        "n"
      ],
      [
        "loku",
        "thi"
      ],
      [
        "d",
        "eni"
      ],
      [
        "i",
        "Chiefs"
      ],
      [
        "u",
        "nda"
      ],
      [
        "kwe",
        "mi"
      ],
      [
        "ngen",
        "yanga"
      ],
      [
        "ta",
        "ti"
      ],
      [
        "tsh",
        "ela"
      ],
      [
        "mpi",
        "lo"
      ],
      [
        "Go",
        "li"
      ],
      [
        "U",
        "Z"
      ],
      [
        "c",
        "ele"
      ],
      [
        "f",
        "e"
      ],
      [
        "v",
        "er"
      ],
      [
        "wa",
        "ne"
      ],
      [
        "ka",
        "mi"
      ],
      [
        "za",
        "se"
      ],
      [
        "aba",
        "sa"
      ],
      [
        "aba",
        "solwa"
      ],
      [
        "um",
        "solwa"
      ],
      [
        "nge",
        "ka"
      ],
      [
        "nj",
        "i"
      ],
      [
        "lwa",
        "ne"
      ],
      [
        "ama",
        "thathu"
      ],
      [
        "phe",
        "thro"
      ],
      [
        "qe",
        "de"
      ],
      [
        "zu",
        "lu"
      ],
      [
        "Ca",
        "f"
      ],
      [
        "enga",
        "meli"
      ],
      [
        "Po",
        "lo"
      ],
      [
        "phethro",
        "li"
      ],
      [
        "Y",
        "e"
      ],
      [
        "m",
        "nyama"
      ],
      [
        "u",
        "yi"
      ],
      [
        "le",
        "ma"
      ],
      [
        "khu",
        "ndleni"
      ],
      [
        "ama",
        "cala"
      ],
      [
        "nya",
        "the"
      ],
      [
        "isi",
        "coco"
      ],
      [
        "hle",
        "la"
      ],
      [
        "su",
        "ngu"
      ],
      [
        "gu",
        "ngu"
      ],
      [
        "vi",
        "lle"
      ],
      [
        "thola",
        "kala"
      ],
      [
        "Be",
        "st"
      ],
      [
        "emp",
        "i"
      ],
      [
        "wama",
        "nqamu"
      ],
      [
        "Car",
        "do"
      ],
      [
        "c",
        "ela"
      ],
      [
        "e",
        "qenjini"
      ],
      [
        "si",
        "ba"
      ],
      [
        "um",
        "ela"
      ],
      [
        "fu",
        "ni"
      ],
      [
        "thu",
        "pha"
      ],
      [
        "kwe",
        "thu"
      ],
      [
        "ho",
        "la"
      ],
      [
        "cimbi",
        "ni"
      ],
      [
        "shiya",
        "ga"
      ],
      [
        "P",
        "S"
      ],
      [
        "a",
        "li"
      ],
      [
        "a",
        "nd"
      ],
      [
        "t",
        "ela"
      ],
      [
        "ko",
        "mi"
      ],
      [
        "fa",
        "ke"
      ],
      [
        "bona",
        "kala"
      ],
      [
        "Ngi",
        "ya"
      ],
      [
        "ban",
        "k"
      ],
      [
        "bezi",
        "ndaba"
      ],
      [
        "Cardo",
        "so"
      ],
      [
        "1",
        "1"
      ],
      [
        "K",
        "ha"
      ],
      [
        "N",
        "d"
      ],
      [
        "o",
        "d"
      ],
      [
        "le",
        "zwe"
      ],
      [
        "lu",
        "tho"
      ],
      [
        "kwa",
        "ne"
      ],
      [
        "vi",
        "kela"
      ],
      [
        "P",
        "ar"
      ],
      [
        "a",
        "n"
      ],
      [
        "p",
        "u"
      ],
      [
        "u",
        "G"
      ],
      [
        "u",
        "Z"
      ],
      [
        "z",
        "em"
      ],
      [
        "ng",
        "emi"
      ],
      [
        "en",
        "kantolo"
      ],
      [
        "kh",
        "ela"
      ],
      [
        "tho",
        "mbo"
      ],
      [
        "hlo",
        "so"
      ],
      [
        "qhu",
        "ba"
      ],
      [
        "or",
        "d"
      ],
      [
        "Champion",
        "ship"
      ],
      [
        "N",
        "ingizimu"
      ],
      [
        "g",
        "ama"
      ],
      [
        "v",
        "isi"
      ],
      [
        "ko",
        "n"
      ],
      [
        "kha",
        "tha"
      ],
      [
        "nya",
        "nga"
      ],
      [
        "khulu",
        "mela"
      ],
      [
        "bha",
        "la"
      ],
      [
        "lule",
        "kile"
      ],
      [
        "koku",
        "qala"
      ],
      [
        "woku",
        "qala"
      ],
      [
        "phum",
        "e"
      ],
      [
        "ngemp",
        "elasonto"
      ],
      [
        "I",
        "FP"
      ],
      [
        "i",
        "Pirates"
      ],
      [
        "o",
        "yi"
      ],
      [
        "la",
        "nga"
      ],
      [
        "wa",
        "bo"
      ],
      [
        "wa",
        "yo"
      ],
      [
        "si",
        "we"
      ],
      [
        "ya",
        "bo"
      ],
      [
        "aba",
        "fundi"
      ],
      [
        "Ng",
        "esikhathi"
      ],
      [
        "de",
        "s"
      ],
      [
        "co",
        "no"
      ],
      [
        "wen",
        "za"
      ],
      [
        "funda",
        "zweni"
      ],
      [
        "phum",
        "ele"
      ],
      [
        "m",
        "hla"
      ],
      [
        "ni",
        "na"
      ],
      [
        "be",
        "la"
      ],
      [
        "sha",
        "na"
      ],
      [
        "qo",
        "nda"
      ],
      [
        "Ng",
        "oku"
      ],
      [
        "Ca",
        "pe"
      ],
      [
        "besi",
        "fazane"
      ],
      [
        "Hla",
        "bisa"
      ],
      [
        "Polo",
        "kwane"
      ],
      [
        "1",
        "6"
      ],
      [
        "D",
        "J"
      ],
      [
        "O",
        "N"
      ],
      [
        "e",
        "Phalamende"
      ],
      [
        "i",
        "se"
      ],
      [
        "i",
        "bhola"
      ],
      [
        "n",
        "wa"
      ],
      [
        "o",
        "mu"
      ],
      [
        "ku",
        "thiwa"
      ],
      [
        "ka",
        "bi"
      ],
      [
        "ngo",
        "kwe"
      ],
      [
        "ngo",
        "Juni"
      ],
      [
        "za",
        "li"
      ],
      [
        "the",
        "le"
      ],
      [
        "ngi",
        "nga"
      ],
      [
        "nje",
        "nge"
      ],
      [
        "ti",
        "c"
      ],
      [
        "va",
        "l"
      ],
      [
        "she",
        "sha"
      ],
      [
        "No",
        "kho"
      ],
      [
        "qinise",
        "kisa"
      ],
      [
        "giji",
        "ma"
      ],
      [
        "I",
        "zi"
      ],
      [
        "e",
        "yisi"
      ],
      [
        "la",
        "ma"
      ],
      [
        "ba",
        "be"
      ],
      [
        "be",
        "be"
      ],
      [
        "sa",
        "khe"
      ],
      [
        "yi",
        "ngxenye"
      ],
      [
        "za",
        "bo"
      ],
      [
        "za",
        "mi"
      ],
      [
        "za",
        "kwabo"
      ],
      [
        "aba",
        "landeli"
      ],
      [
        "bo",
        "nke"
      ],
      [
        "so",
        "lo"
      ],
      [
        "hlanga",
        "ni"
      ],
      [
        "hlanga",
        "nisa"
      ],
      [
        "cha",
        "za"
      ],
      [
        "mbu",
        "lu"
      ],
      [
        "T",
        "S"
      ],
      [
        "pha",
        "mbi"
      ],
      [
        "thu",
        "thu"
      ],
      [
        "hle",
        "li"
      ],
      [
        "1",
        "7"
      ],
      [
        "H",
        "lo"
      ],
      [
        "g",
        "esi"
      ],
      [
        "q",
        "h"
      ],
      [
        "ku",
        "m"
      ],
      [
        "em",
        "cimbini"
      ],
      [
        "um",
        "ndeni"
      ],
      [
        "mu",
        "ka"
      ],
      [
        "qo",
        "ngqoshe"
      ],
      [
        "Ng",
        "qongqoshe"
      ],
      [
        "te",
        "shi"
      ],
      [
        "fi",
        "sa"
      ],
      [
        "20",
        "0"
      ],
      [
        "izin",
        "hlelo"
      ],
      [
        "al",
        "bhamu"
      ],
      [
        "ngoLwesi",
        "hlanu"
      ],
      [
        "et",
        "er"
      ],
      [
        "hl",
        "uku"
      ],
      [
        "O",
        "u"
      ],
      [
        "a",
        "yisi"
      ],
      [
        "d",
        "y"
      ],
      [
        "i",
        "r"
      ],
      [
        "i",
        "kakhulu"
      ],
      [
        "ng",
        "xo"
      ],
      [
        "na",
        "zo"
      ],
      [
        "em",
        "o"
      ],
      [
        "nt",
        "shi"
      ],
      [
        "mi",
        "na"
      ],
      [
        "so",
        "m"
      ],
      [
        "kha",
        "le"
      ],
      [
        "mu",
        "hla"
      ],
      [
        "do",
        "u"
      ],
      [
        "ed",
        "bank"
      ],
      [
        "IS",
        "I"
      ],
      [
        "Ko",
        "dwa"
      ],
      [
        "1",
        "4"
      ],
      [
        "R",
        "e"
      ],
      [
        "d",
        "lula"
      ],
      [
        "o",
        "kwa"
      ],
      [
        "u",
        "veze"
      ],
      [
        "ba",
        "bo"
      ],
      [
        "ka",
        "le"
      ],
      [
        "se",
        "m"
      ],
      [
        "hle",
        "lweni"
      ],
      [
        "di",
        "ngeka"
      ],
      [
        "them",
        "bi"
      ],
      [
        "huma",
        "lo"
      ],
      [
        "komi",
        "ti"
      ],
      [
        "2",
        "5"
      ],
      [
        "V",
        "i"
      ],
      [
        "h",
        "ho"
      ],
      [
        "u",
        "zi"
      ],
      [
        "u",
        "kwenza"
      ],
      [
        "wa",
        "ri"
      ],
      [
        "se",
        "ligi"
      ],
      [
        "be",
        "le"
      ],
      [
        "nge",
        "zin"
      ],
      [
        "hla",
        "ngo"
      ],
      [
        "so",
        "mbulu"
      ],
      [
        "Ng",
        "e"
      ],
      [
        "ndo",
        "ndo"
      ],
      [
        "bhe",
        "kwe"
      ],
      [
        "lle",
        "n"
      ],
      [
        "hlaka",
        "lo"
      ],
      [
        "Champion",
        "s"
      ],
      [
        "Ri",
        "cha"
      ],
      [
        "boku",
        "fika"
      ],
      [
        "M",
        "zansi"
      ],
      [
        "t",
        "she"
      ],
      [
        "w",
        "s"
      ],
      [
        "ku",
        "kho"
      ],
      [
        "ku",
        "ndla"
      ],
      [
        "uku",
        "nga"
      ],
      [
        "ngi",
        "ya"
      ],
      [
        "Ma",
        "shi"
      ],
      [
        "qo",
        "pha"
      ],
      [
        "on",
        "ke"
      ],
      [
        "uM",
        "nyango"
      ],
      [
        "Na",
        "kuba"
      ],
      [
        "eku",
        "seni"
      ],
      [
        "kuba",
        "lwa"
      ],
      [
        "uN",
        "kk"
      ],
      [
        "fundi",
        "sa"
      ],
      [
        "shint",
        "sha"
      ],
      [
        "I",
        "M"
      ],
      [
        "L",
        "eli"
      ],
      [
        "P",
        "la"
      ],
      [
        "W",
        "A"
      ],
      [
        "W",
        "or"
      ],
      [
        "c",
        "hu"
      ],
      [
        "u",
        "te"
      ],
      [
        "ku",
        "wo"
      ],
      [
        "na",
        "lo"
      ],
      [
        "nga",
        "wo"
      ],
      [
        "em",
        "eze"
      ],
      [
        "nge",
        "le"
      ],
      [
        "nda",
        "weni"
      ],
      [
        "Ng",
        "co"
      ],
      [
        "seben",
        "ze"
      ],
      [
        "202",
        "5"
      ],
      [
        "Ga",
        "la"
      ],
      [
        ")",
        ";"
      ],
      [
        "B",
        "u"
      ],
      [
        "H",
        "O"
      ],
      [
        "M",
        "fundo"
      ],
      [
        "T",
        "h"
      ],
      [
        "Y",
        "i"
      ],
      [
        "ku",
        "thi"
      ],
      [
        "ku",
        "lindeleke"
      ],
      [
        "ng",
        "cono"
      ],
      [
        "la",
        "yi"
      ],
      [
        "ba",
        "ni"
      ],
      [
        "ba",
        "ndla"
      ],
      [
        "zi",
        "we"
      ],
      [
        "kh",
        "ele"
      ],
      [
        "se",
        "kho"
      ],
      [
        "oku",
        "thiwa"
      ],
      [
        "yi",
        "ze"
      ],
      [
        "um",
        "culo"
      ],
      [
        "ke",
        "lwa"
      ],
      [
        "khu",
        "tha"
      ],
      [
        "di",
        "ngo"
      ],
      [
        "qo",
        "kwa"
      ],
      [
        "emi",
        "bili"
      ],
      [
        "bhe",
        "dlela"
      ],
      [
        "to",
        "li"
      ],
      [
        "gi",
        "j"
      ],
      [
        "wesi",
        "fazane"
      ],
      [
        "khi",
        "qi"
      ],
      [
        "sen",
        "da"
      ],
      [
        "nemi",
        "nyaka"
      ],
      [
        "sombulu",
        "ko"
      ],
      [
        "1",
        "8"
      ],
      [
        "H",
        "u"
      ],
      [
        "P",
        "eter"
      ],
      [
        "S",
        "por"
      ],
      [
        "Y",
        "o"
      ],
      [
        "a",
        "ngi"
      ],
      [
        "e",
        "khaya"
      ],
      [
        "l",
        "f"
      ],
      [
        "o",
        "khe"
      ],
      [
        "x",
        "y"
      ],
      [
        "la",
        "pha"
      ],
      [
        "la",
        "hle"
      ],
      [
        "en",
        "ce"
      ],
      [
        "pha",
        "tha"
      ],
      [
        "lwe",
        "la"
      ],
      [
        "fi",
        "nye"
      ],
      [
        "zwe",
        "lonke"
      ],
      [
        "swa",
        "no"
      ],
      [
        "Awa",
        "rds"
      ],
      [
        "ad",
        "dou"
      ],
      [
        "Ou",
        "addou"
      ],
      [
        "Richa",
        "rds"
      ],
      [
        "G",
        "en"
      ],
      [
        "K",
        "U"
      ],
      [
        "M",
        "u"
      ],
      [
        "i",
        "ne"
      ],
      [
        "m",
        "s"
      ],
      [
        "n",
        "hla"
      ],
      [
        "s",
        "ch"
      ],
      [
        "zi",
        "ka"
      ],
      [
        "se",
        "lwa"
      ],
      [
        "khu",
        "la"
      ],
      [
        "so",
        "la"
      ],
      [
        "ama",
        "goli"
      ],
      [
        "nje",
        "ngo"
      ],
      [
        "Ma",
        "r"
      ],
      [
        "ben",
        "za"
      ],
      [
        "ja",
        "ho"
      ],
      [
        "tu",
        "li"
      ],
      [
        "nyu",
        "ka"
      ],
      [
        "Ga",
        "ute"
      ],
      [
        "eze",
        "hlukene"
      ],
      [
        "nyak",
        "eni"
      ],
      [
        "khanka",
        "so"
      ],
      [
        "klo",
        "melo"
      ],
      [
        "Ye",
        "ar"
      ],
      [
        "llen",
        "bo"
      ],
      [
        "Gaute",
        "ng"
      ],
      [
        "M",
        "usi"
      ],
      [
        "d",
        "ela"
      ],
      [
        "w",
        "n"
      ],
      [
        "ba",
        "funa"
      ],
      [
        "zi",
        "si"
      ],
      [
        "se",
        "ke"
      ],
      [
        "we",
        "zi"
      ],
      [
        "uku",
        "sebenza"
      ],
      [
        "the",
        "thweni"
      ],
      [
        "ezi",
        "nye"
      ],
      [
        "da",
        "lule"
      ],
      [
        "ig",
        "h"
      ],
      [
        "Ste",
        "llenbo"
      ],
      [
        "umbi",
        "ko"
      ],
      [
        "kama",
        "skandi"
      ],
      [
        "hho",
        "visi"
      ],
      [
        "Gala",
        "xy"
      ],
      [
        "senda",
        "weni"
      ],
      [
        "R",
        "o"
      ],
      [
        "Z",
        "a"
      ],
      [
        "g",
        "qa"
      ],
      [
        "i",
        "m"
      ],
      [
        "o",
        "thisha"
      ],
      [
        "r",
        "u"
      ],
      [
        "t",
        "se"
      ],
      [
        "z",
        "z"
      ],
      [
        "ba",
        "m"
      ],
      [
        "ba",
        "kuleli"
      ],
      [
        "ph",
        "eli"
      ],
      [
        "ye",
        "thu"
      ],
      [
        "yi",
        "nto"
      ],
      [
        "nt",
        "er"
      ],
      [
        "esi",
        "khundleni"
      ],
      [
        "kwi",
        "Ndebe"
      ],
      [
        "ca",
        "ci"
      ],
      [
        "nde",
        "be"
      ],
      [
        "du",
        "ze"
      ],
      [
        "vu",
        "la"
      ],
      [
        "Pi",
        "toli"
      ],
      [
        "es",
        "ti"
      ],
      [
        "jabu",
        "lisa"
      ],
      [
        "khum",
        "bula"
      ],
      [
        "gqu",
        "gqu"
      ],
      [
        "Stellenbo",
        "sch"
      ],
      [
        "E",
        "m"
      ],
      [
        "H",
        "E"
      ],
      [
        "e",
        "yo"
      ],
      [
        "k",
        "eni"
      ],
      [
        "wa",
        "zi"
      ],
      [
        "en",
        "kundleni"
      ],
      [
        "se",
        "ngathi"
      ],
      [
        "bu",
        "yi"
      ],
      [
        "em",
        "sebenzi"
      ],
      [
        "ko",
        "hlakalo"
      ],
      [
        "ngi",
        "sa"
      ],
      [
        "nj",
        "wa"
      ],
      [
        "da",
        "buka"
      ],
      [
        "phe",
        "she"
      ],
      [
        "jo",
        "yi"
      ],
      [
        "M",
        "ba"
      ],
      [
        "N",
        "kosi"
      ],
      [
        "S",
        "h"
      ],
      [
        "o",
        "thi"
      ],
      [
        "o",
        "munye"
      ],
      [
        "za",
        "khe"
      ],
      [
        "ze",
        "lwa"
      ],
      [
        "khu",
        "le"
      ],
      [
        "ama",
        "ne"
      ],
      [
        "izi",
        "moto"
      ],
      [
        "hi",
        "nga"
      ],
      [
        "phakathi",
        "ni"
      ],
      [
        "koku",
        "ba"
      ],
      [
        "koku",
        "thi"
      ],
      [
        "woku",
        "thi"
      ],
      [
        "ngoLwesi",
        "thathu"
      ],
      [
        "bhi",
        "ki"
      ],
      [
        "nji",
        "swa"
      ],
      [
        "esti",
        "val"
      ],
      [
        "1",
        "3"
      ],
      [
        "A",
        "si"
      ],
      [
        "B",
        "C"
      ],
      [
        "E",
        "F"
      ],
      [
        "e",
        "zweni"
      ],
      [
        "e",
        "khuluma"
      ],
      [
        "o",
        "sa"
      ],
      [
        "o",
        "dlule"
      ],
      [
        "u",
        "funa"
      ],
      [
        "ba",
        "yi"
      ],
      [
        "ka",
        "ncane"
      ],
      [
        "we",
        "zoku"
      ],
      [
        "ngo",
        "zi"
      ],
      [
        "aba",
        "sebenzi"
      ],
      [
        "ze",
        "lwe"
      ],
      [
        "no",
        "zi"
      ],
      [
        "kwa",
        "lokho"
      ],
      [
        "ama",
        "thuba"
      ],
      [
        "kha",
        "ndlu"
      ],
      [
        "ngen",
        "zeka"
      ],
      [
        "ro",
        "ws"
      ],
      [
        "bha",
        "li"
      ],
      [
        "zwa",
        "kala"
      ],
      [
        "qini",
        "sa"
      ],
      [
        "Ar",
        "rows"
      ],
      [
        "A",
        "l"
      ],
      [
        "N",
        "e"
      ],
      [
        "W",
        "e"
      ],
      [
        "a",
        "sa"
      ],
      [
        "d",
        "on"
      ],
      [
        "h",
        "ha"
      ],
      [
        "p",
        "p"
      ],
      [
        "u",
        "khetho"
      ],
      [
        "ku",
        "se"
      ],
      [
        "uku",
        "thola"
      ],
      [
        "ko",
        "nti"
      ],
      [
        "ha",
        "mbisana"
      ],
      [
        "ama",
        "nye"
      ],
      [
        "ezi",
        "mbili"
      ],
      [
        "esi",
        "koleni"
      ],
      [
        "mu",
        "zi"
      ],
      [
        "ri",
        "l"
      ],
      [
        "hlu",
        "ka"
      ],
      [
        "Aba",
        "ntu"
      ],
      [
        "emsebenzi",
        "ni"
      ],
      [
        "nozi",
        "nti"
      ],
      [
        "konti",
        "leka"
      ],
      [
        "T",
        "hu"
      ],
      [
        "g",
        "qo"
      ],
      [
        "n",
        "yi"
      ],
      [
        "t",
        "on"
      ],
      [
        "u",
        "su"
      ],
      [
        "zi",
        "zo"
      ],
      [
        "ka",
        "muva"
      ],
      [
        "ya",
        "mi"
      ],
      [
        "nt",
        "sha"
      ],
      [
        "khu",
        "ndla"
      ],
      [
        "shi",
        "sa"
      ],
      [
        "ti",
        "ki"
      ],
      [
        "emi",
        "thathu"
      ],
      [
        "do",
        "ko"
      ],
      [
        "tsh",
        "ele"
      ],
      [
        "khi",
        "phe"
      ],
      [
        "nezi",
        "nye"
      ],
      [
        "Mo",
        "tse"
      ],
      [
        "Nga",
        "kho"
      ],
      [
        "yesi",
        "thathu"
      ],
      [
        "buke",
        "ka"
      ],
      [
        "tati",
        "mende"
      ],
      [
        "Motse",
        "pe"
      ],
      [
        "2",
        "7"
      ],
      [
        "B",
        "roos"
      ],
      [
        "F",
        "estival"
      ],
      [
        "O",
        "khulumela"
      ],
      [
        "T",
        "a"
      ],
      [
        "X",
        "o"
      ],
      [
        "c",
        "abanga"
      ],
      [
        "e",
        "bho"
      ],
      [
        "g",
        "q"
      ],
      [
        "m",
        "beni"
      ],
      [
        "thi",
        "le"
      ],
      [
        "we",
        "thu"
      ],
      [
        "bi",
        "le"
      ],
      [
        "ama",
        "ndla"
      ],
      [
        "fa",
        "kwa"
      ],
      [
        "cu",
        "la"
      ],
      [
        "cu",
        "lweni"
      ],
      [
        "hlanga",
        "na"
      ],
      [
        "202",
        "3"
      ],
      [
        "kulu",
        "mo"
      ],
      [
        "qini",
        "so"
      ],
      [
        "ig",
        "ama"
      ],
      [
        "qha",
        "za"
      ],
      [
        "et",
        "ro"
      ],
      [
        "Kho",
        "mishini"
      ],
      [
        "saka",
        "zo"
      ],
      [
        "nandi",
        "sa"
      ],
      [
        "Cy",
        "ril"
      ],
      [
        "PS",
        "L"
      ],
      [
        "emeze",
        "le"
      ],
      [
        "okhe",
        "thweni"
      ],
      [
        "D",
        "LA"
      ],
      [
        "K",
        "ing"
      ],
      [
        "K",
        "humalo"
      ],
      [
        "M",
        "e"
      ],
      [
        "P",
        "ho"
      ],
      [
        "e",
        "hlukene"
      ],
      [
        "h",
        "lwe"
      ],
      [
        "i",
        "Bafana"
      ],
      [
        "j",
        "ele"
      ],
      [
        "n",
        "kosi"
      ],
      [
        "ku",
        "qala"
      ],
      [
        "ku",
        "suka"
      ],
      [
        "ka",
        "ze"
      ],
      [
        "ka",
        "yo"
      ],
      [
        "ph",
        "on"
      ],
      [
        "be",
        "r"
      ],
      [
        "sa",
        "kazi"
      ],
      [
        "oku",
        "fanele"
      ],
      [
        "no",
        "N"
      ],
      [
        "dla",
        "lela"
      ],
      [
        "shi",
        "we"
      ],
      [
        "mp",
        "o"
      ],
      [
        "hlu",
        "kana"
      ],
      [
        "phu",
        "tha"
      ],
      [
        "tsh",
        "enzi"
      ],
      [
        "ngoM",
        "sombuluko"
      ],
      [
        "ngoLwesi",
        "bili"
      ],
      [
        "po",
        "li"
      ],
      [
        "khum",
        "bu"
      ],
      [
        "eme",
        "zela"
      ],
      [
        "jwaye",
        "lekile"
      ],
      [
        "C",
        "h"
      ],
      [
        "F",
        "A"
      ],
      [
        "Z",
        "uma"
      ],
      [
        "a",
        "khe"
      ],
      [
        "g",
        "xe"
      ],
      [
        "h",
        "lwa"
      ],
      [
        "m",
        "era"
      ],
      [
        "n",
        "hloko"
      ],
      [
        "o",
        "ngum"
      ],
      [
        "t",
        "er"
      ],
      [
        "ku",
        "si"
      ],
      [
        "si",
        "khathi"
      ],
      [
        "lo",
        "mo"
      ],
      [
        "na",
        "thi"
      ],
      [
        "nd",
        "weni"
      ],
      [
        "yi",
        "bona"
      ],
      [
        "zo",
        "lo"
      ],
      [
        "no",
        "nyaka"
      ],
      [
        "hla",
        "nhla"
      ],
      [
        "kha",
        "mera"
      ],
      [
        "eli",
        "zo"
      ],
      [
        "Si",
        "zo"
      ],
      [
        "ndi",
        "sa"
      ],
      [
        "du",
        "tshu"
      ],
      [
        "ce",
        "lo"
      ],
      [
        "men",
        "t"
      ],
      [
        "wase",
        "M"
      ],
      [
        "UN",
        "ksz"
      ],
      [
        "Go",
        "ld"
      ],
      [
        "eN",
        "kantolo"
      ],
      [
        "hambe",
        "la"
      ],
      [
        "ngwa",
        "ne"
      ],
      [
        "nyathe",
        "lo"
      ],
      [
        "Ngco",
        "bo"
      ],
      [
        "EF",
        "F"
      ],
      [
        "2",
        "2"
      ],
      [
        "E",
        "muva"
      ],
      [
        "I",
        "mi"
      ],
      [
        "S",
        "E"
      ],
      [
        "T",
        "e"
      ],
      [
        "e",
        "Ma"
      ],
      [
        "e",
        "Mo"
      ],
      [
        "m",
        "sebenzi"
      ],
      [
        "s",
        "ena"
      ],
      [
        "la",
        "ni"
      ],
      [
        "zi",
        "nga"
      ],
      [
        "ka",
        "nzima"
      ],
      [
        "ma",
        "n"
      ],
      [
        "na",
        "muhla"
      ],
      [
        "ni",
        "ni"
      ],
      [
        "be",
        "li"
      ],
      [
        "oku",
        "nga"
      ],
      [
        "za",
        "ni"
      ],
      [
        "em",
        "phakathini"
      ],
      [
        "em",
        "culweni"
      ],
      [
        "aba",
        "se"
      ],
      [
        "bo",
        "nge"
      ],
      [
        "kho",
        "mbi"
      ],
      [
        "kwa",
        "ti"
      ],
      [
        "izi",
        "ngane"
      ],
      [
        "nya",
        "na"
      ],
      [
        "nya",
        "ngweni"
      ],
      [
        "mu",
        "kela"
      ],
      [
        "va",
        "la"
      ],
      [
        "in",
        "selelo"
      ],
      [
        "phi",
        "ko"
      ],
      [
        "Co",
        "m"
      ],
      [
        "ngoM",
        "eyi"
      ],
      [
        "poli",
        "tiki"
      ],
      [
        "D",
        "e"
      ],
      [
        "E",
        "a"
      ],
      [
        "G",
        "ro"
      ],
      [
        "P",
        "h"
      ],
      [
        "c",
        "tion"
      ],
      [
        "i",
        "the"
      ],
      [
        "l",
        "la"
      ],
      [
        "o",
        "l"
      ],
      [
        "o",
        "bala"
      ],
      [
        "u",
        "thi"
      ],
      [
        "ku",
        "so"
      ],
      [
        "le",
        "nze"
      ],
      [
        "en",
        "kulu"
      ],
      [
        "zi",
        "yo"
      ],
      [
        "ka",
        "ba"
      ],
      [
        "ka",
        "de"
      ],
      [
        "lo",
        "mbili"
      ],
      [
        "uku",
        "yi"
      ],
      [
        "be",
        "zo"
      ],
      [
        "be",
        "ki"
      ],
      [
        "ye",
        "Ma"
      ],
      [
        "aba",
        "culi"
      ],
      [
        "khu",
        "khu"
      ],
      [
        "ezi",
        "nga"
      ],
      [
        "esi",
        "fundazweni"
      ],
      [
        "er",
        "al"
      ],
      [
        "ndi",
        "ma"
      ],
      [
        "co",
        "ngweni"
      ],
      [
        "Ku",
        "thiwa"
      ],
      [
        "to",
        "r"
      ],
      [
        "to",
        "lo"
      ],
      [
        "naba",
        "ntu"
      ],
      [
        "aku",
        "kho"
      ],
      [
        "yale",
        "zo"
      ],
      [
        "shiyaga",
        "lombili"
      ],
      [
        "Pla",
        "y"
      ],
      [
        "Musi",
        "c"
      ],
      [
        "1",
        "00"
      ],
      [
        "B",
        "O"
      ],
      [
        "E",
        "si"
      ],
      [
        "U",
        "LI"
      ],
      [
        "X",
        "aba"
      ],
      [
        "d",
        "lelwa"
      ],
      [
        "e",
        "ye"
      ],
      [
        "e",
        "yoku"
      ],
      [
        "e",
        "Goli"
      ],
      [
        "i",
        "Sundowns"
      ],
      [
        "n",
        "za"
      ],
      [
        "u",
        "phenyo"
      ],
      [
        "ba",
        "mbe"
      ],
      [
        "ma",
        "nqamu"
      ],
      [
        "we",
        "lele"
      ],
      [
        "bu",
        "ko"
      ],
      [
        "aba",
        "ngu"
      ],
      [
        "um",
        "qeqeshi"
      ],
      [
        "ama",
        "ningi"
      ],
      [
        "ama",
        "nzi"
      ],
      [
        "kw",
        "eni"
      ],
      [
        "Si",
        "lo"
      ],
      [
        "Si",
        "funa"
      ],
      [
        "phi",
        "la"
      ],
      [
        "zu",
        "zu"
      ],
      [
        "do",
        "lo"
      ],
      [
        "202",
        "2"
      ],
      [
        "phele",
        "ni"
      ],
      [
        "Se",
        "khukhu"
      ],
      [
        "hloni",
        "pha"
      ],
      [
        "nci",
        "nti"
      ],
      [
        "Nd",
        "lovu"
      ],
      [
        "Sekhukhu",
        "ne"
      ],
      [
        "D",
        "a"
      ],
      [
        "P",
        "ri"
      ],
      [
        "W",
        "E"
      ],
      [
        "a",
        "wa"
      ],
      [
        "j",
        "u"
      ],
      [
        "q",
        "waba"
      ],
      [
        "u",
        "l"
      ],
      [
        "ng",
        "em"
      ],
      [
        "nd",
        "ezi"
      ],
      [
        "nd",
        "lovu"
      ],
      [
        "ye",
        "Premiership"
      ],
      [
        "za",
        "nge"
      ],
      [
        "um",
        "phakathi"
      ],
      [
        "bo",
        "m"
      ],
      [
        "yo",
        "ni"
      ],
      [
        "kho",
        "khela"
      ],
      [
        "ama",
        "ciko"
      ],
      [
        "tha",
        "thwa"
      ],
      [
        "ezi",
        "ningi"
      ],
      [
        "ezi",
        "nta"
      ],
      [
        "isi",
        "mo"
      ],
      [
        "ci",
        "ndezi"
      ],
      [
        "da",
        "yisa"
      ],
      [
        "uma",
        "lo"
      ],
      [
        "bhe",
        "ki"
      ],
      [
        "uthe",
        "lezi"
      ],
      [
        "zoku",
        "thi"
      ],
      [
        "Ka",
        "pa"
      ],
      [
        "owa",
        "manqamu"
      ],
      [
        "qeqe",
        "sha"
      ],
      [
        "ziwa",
        "yo"
      ],
      [
        "vo",
        "ta"
      ],
      [
        "ndu",
        "lela"
      ],
      [
        "Nje",
        "ngoba"
      ],
      [
        "5",
        "0"
      ],
      [
        "A",
        "ngi"
      ],
      [
        "C",
        "C"
      ],
      [
        "S",
        "ho"
      ],
      [
        "k",
        "t"
      ],
      [
        "u",
        "Ramaphosa"
      ],
      [
        "v",
        "uma"
      ],
      [
        "v",
        "umela"
      ],
      [
        "wa",
        "mi"
      ],
      [
        "si",
        "yi"
      ],
      [
        "kh",
        "eni"
      ],
      [
        "ma",
        "nga"
      ],
      [
        "li",
        "swa"
      ],
      [
        "na",
        "bezindaba"
      ],
      [
        "ngo",
        "mdlalo"
      ],
      [
        "ya",
        "yo"
      ],
      [
        "oku",
        "nye"
      ],
      [
        "ye",
        "dwa"
      ],
      [
        "um",
        "cimbi"
      ],
      [
        "um",
        "lando"
      ],
      [
        "ke",
        "pha"
      ],
      [
        "ze",
        "ke"
      ],
      [
        "bi",
        "zwa"
      ],
      [
        "bo",
        "kazi"
      ],
      [
        "bo",
        "shwa"
      ],
      [
        "kho",
        "lwa"
      ],
      [
        "kwa",
        "thi"
      ],
      [
        "lwa",
        "ma"
      ],
      [
        "ama",
        "zwe"
      ],
      [
        "ezi",
        "ngu"
      ],
      [
        "Ma",
        "Zulu"
      ],
      [
        "ngoku",
        "shesha"
      ],
      [
        "ga",
        "beni"
      ],
      [
        "du",
        "du"
      ],
      [
        "khi",
        "shwa"
      ],
      [
        "umo",
        "ya"
      ],
      [
        "yesi",
        "bili"
      ],
      [
        "ngxo",
        "xo"
      ],
      [
        "gij",
        "imi"
      ],
      [
        "A",
        "th"
      ],
      [
        "M",
        "KP"
      ],
      [
        "P",
        "hi"
      ],
      [
        "Z",
        "we"
      ],
      [
        "e",
        "zen"
      ],
      [
        "i",
        "be"
      ],
      [
        "i",
        "moto"
      ],
      [
        "i",
        "mpilo"
      ],
      [
        "p",
        "m"
      ],
      [
        "z",
        "emi"
      ],
      [
        "ku",
        "ye"
      ],
      [
        "ng",
        "q"
      ],
      [
        "ng",
        "qi"
      ],
      [
        "we",
        "to"
      ],
      [
        "nga",
        "lolu"
      ],
      [
        "ngi",
        "zo"
      ],
      [
        "ezi",
        "ndaweni"
      ],
      [
        "ho",
        "lwa"
      ],
      [
        "va",
        "ka"
      ],
      [
        "yoku",
        "qala"
      ],
      [
        "So",
        "weto"
      ],
      [
        "cwa",
        "ni"
      ],
      [
        "Aba",
        "nye"
      ],
      [
        "jabu",
        "le"
      ],
      [
        "Mi",
        "lf"
      ],
      [
        "uB",
        "roos"
      ],
      [
        "oma",
        "zisi"
      ],
      [
        "yeMa",
        "ntshi"
      ],
      [
        "Milf",
        "ord"
      ],
      [
        "2",
        "1"
      ],
      [
        "B",
        "la"
      ],
      [
        "H",
        "a"
      ],
      [
        "N",
        "tuli"
      ],
      [
        "U",
        "SA"
      ],
      [
        "W",
        "i"
      ],
      [
        "Y",
        "ize"
      ],
      [
        "d",
        "um"
      ],
      [
        "o",
        "kokuqala"
      ],
      [
        "q",
        "weni"
      ],
      [
        "r",
        "ug"
      ],
      [
        "t",
        "re"
      ],
      [
        "t",
        "lala"
      ],
      [
        "ba",
        "yo"
      ],
      [
        "wa",
        "lo"
      ],
      [
        "en",
        "ya"
      ],
      [
        "we",
        "Betway"
      ],
      [
        "nd",
        "isi"
      ],
      [
        "sh",
        "ela"
      ],
      [
        "oku",
        "zo"
      ],
      [
        "za",
        "thu"
      ],
      [
        "nt",
        "weni"
      ],
      [
        "nge",
        "la"
      ],
      [
        "nje",
        "ngama"
      ],
      [
        "kwe",
        "mali"
      ],
      [
        "esi",
        "nga"
      ],
      [
        "esi",
        "de"
      ],
      [
        "Si",
        "welele"
      ],
      [
        "emi",
        "nyakeni"
      ],
      [
        "gi",
        "lwa"
      ],
      [
        "zin",
        "suku"
      ],
      [
        "lesi",
        "zwe"
      ],
      [
        "Zi",
        "mnyama"
      ],
      [
        "ngemp",
        "ela"
      ],
      [
        "4",
        "0"
      ],
      [
        "M",
        "A"
      ],
      [
        "R",
        "3"
      ],
      [
        "S",
        "HI"
      ],
      [
        "T",
        "I"
      ],
      [
        "e",
        "pha"
      ],
      [
        "i",
        "goli"
      ],
      [
        "s",
        "weni"
      ],
      [
        "v",
        "esi"
      ],
      [
        "x",
        "wa"
      ],
      [
        "si",
        "ndo"
      ],
      [
        "se",
        "ngi"
      ],
      [
        "yi",
        "li"
      ],
      [
        "bu",
        "so"
      ],
      [
        "aba",
        "zi"
      ],
      [
        "aba",
        "yi"
      ],
      [
        "aba",
        "bili"
      ],
      [
        "bi",
        "ka"
      ],
      [
        "mi",
        "le"
      ],
      [
        "kwa",
        "ku"
      ],
      [
        "pha",
        "kami"
      ],
      [
        "izi",
        "qu"
      ],
      [
        "thu",
        "nzi"
      ],
      [
        "shi",
        "ye"
      ],
      [
        "mu",
        "fi"
      ],
      [
        "qa",
        "leni"
      ],
      [
        "qo",
        "qo"
      ],
      [
        "Na",
        "tional"
      ],
      [
        "qu",
        "ko"
      ],
      [
        "kwama",
        "nye"
      ],
      [
        "mpa",
        "hla"
      ],
      [
        "om",
        "khulu"
      ],
      [
        "phathi",
        "swa"
      ],
      [
        "yela",
        "na"
      ],
      [
        "Par",
        "k"
      ],
      [
        "L",
        "O"
      ],
      [
        "d",
        "umo"
      ],
      [
        "e",
        "thu"
      ],
      [
        "g",
        "xi"
      ],
      [
        "s",
        "ta"
      ],
      [
        "u",
        "suku"
      ],
      [
        "x",
        "umalo"
      ],
      [
        "th",
        "enda"
      ],
      [
        "ba",
        "ne"
      ],
      [
        "wa",
        "r"
      ],
      [
        "wa",
        "la"
      ],
      [
        "si",
        "thi"
      ],
      [
        "kh",
        "wama"
      ],
      [
        "li",
        "zo"
      ],
      [
        "na",
        "kho"
      ],
      [
        "thi",
        "nte"
      ],
      [
        "nd",
        "wa"
      ],
      [
        "uku",
        "m"
      ],
      [
        "uku",
        "dlala"
      ],
      [
        "ngo",
        "Mashi"
      ],
      [
        "aba",
        "sha"
      ],
      [
        "bi",
        "t"
      ],
      [
        "kho",
        "no"
      ],
      [
        "mi",
        "sele"
      ],
      [
        "kwa",
        "ze"
      ],
      [
        "izi",
        "li"
      ],
      [
        "esi",
        "bhedlela"
      ],
      [
        "ngu",
        "quko"
      ],
      [
        "hle",
        "le"
      ],
      [
        "ngen",
        "za"
      ],
      [
        "kwen",
        "ziwa"
      ],
      [
        "kule",
        "zi"
      ],
      [
        "hlu",
        "lwa"
      ],
      [
        "wesi",
        "bili"
      ],
      [
        "kuzo",
        "ba"
      ],
      [
        "Nga",
        "pha"
      ],
      [
        "tion",
        "s"
      ],
      [
        "eya",
        "yi"
      ],
      [
        "Or",
        "bit"
      ],
      [
        "Africa",
        "n"
      ],
      [
        "empi",
        "lweni"
      ],
      [
        "ikakhulu",
        "kazi"
      ],
      [
        "Wor",
        "ld"
      ],
      [
        "Gold",
        "en"
      ],
      [
        "I",
        "nter"
      ],
      [
        "N",
        "edbank"
      ],
      [
        "S",
        "I"
      ],
      [
        "e",
        "wu"
      ],
      [
        "e",
        "Na"
      ],
      [
        "e",
        "sen"
      ],
      [
        "e",
        "Pitoli"
      ],
      [
        "v",
        "ume"
      ],
      [
        "ma",
        "sipala"
      ],
      [
        "li",
        "we"
      ],
      [
        "se",
        "mba"
      ],
      [
        "we",
        "ligi"
      ],
      [
        "sa",
        "se"
      ],
      [
        "um",
        "thombo"
      ],
      [
        "the",
        "la"
      ],
      [
        "dla",
        "nga"
      ],
      [
        "ezi",
        "hlukene"
      ],
      [
        "Ma",
        "sipala"
      ],
      [
        "esi",
        "gabeni"
      ],
      [
        "tho",
        "n"
      ],
      [
        "uM",
        "i"
      ],
      [
        "phi",
        "sa"
      ],
      [
        "hlu",
        "leka"
      ],
      [
        "wesi",
        "lisa"
      ],
      [
        "vi",
        "shini"
      ],
      [
        "khi",
        "ze"
      ],
      [
        "cha",
        "ze"
      ],
      [
        "xi",
        "co"
      ],
      [
        "ver",
        "si"
      ],
      [
        "gungu",
        "ndlovu"
      ],
      [
        "doko",
        "tela"
      ],
      [
        "tshenzi",
        "swa"
      ],
      [
        "Ngapha",
        "ndle"
      ],
      [
        "C",
        "ULI"
      ],
      [
        "O",
        "f"
      ],
      [
        "T",
        "ho"
      ],
      [
        "p",
        "t"
      ],
      [
        "u",
        "Ka"
      ],
      [
        "zi",
        "ma"
      ],
      [
        "ka",
        "zwelonke"
      ],
      [
        "za",
        "lwa"
      ],
      [
        "aba",
        "kuleli"
      ],
      [
        "bi",
        "llion"
      ],
      [
        "esi",
        "zo"
      ],
      [
        "esi",
        "congweni"
      ],
      [
        "sho",
        "na"
      ],
      [
        "da",
        "na"
      ],
      [
        "in",
        "kantolo"
      ],
      [
        "ra",
        "thon"
      ],
      [
        "hlo",
        "mu"
      ],
      [
        "sebenzi",
        "se"
      ],
      [
        "hlu",
        "ngu"
      ],
      [
        "men",
        "ye"
      ],
      [
        "ubu",
        "holi"
      ],
      [
        "xo",
        "xa"
      ],
      [
        "sebenzisa",
        "na"
      ],
      [
        "saka",
        "zweni"
      ],
      [
        "gwa",
        "qo"
      ],
      [
        "Con",
        "f"
      ],
      [
        "thele",
        "vishini"
      ],
      [
        "Spor",
        "ts"
      ],
      [
        "A",
        "u"
      ],
      [
        "E",
        "mi"
      ],
      [
        "K",
        "rug"
      ],
      [
        "L",
        "esi"
      ],
      [
        "g",
        "aba"
      ],
      [
        "l",
        "wini"
      ],
      [
        "m",
        "qhudelwano"
      ],
      [
        "m",
        "jaho"
      ],
      [
        "p",
        "er"
      ],
      [
        "u",
        "R"
      ],
      [
        "u",
        "kwazi"
      ],
      [
        "z",
        "uku"
      ],
      [
        "ba",
        "ma"
      ],
      [
        "wa",
        "m"
      ],
      [
        "zi",
        "sa"
      ],
      [
        "si",
        "hlalo"
      ],
      [
        "thi",
        "na"
      ],
      [
        "se",
        "s"
      ],
      [
        "nga",
        "se"
      ],
      [
        "nga",
        "wu"
      ],
      [
        "um",
        "thetho"
      ],
      [
        "ko",
        "wamanqamu"
      ],
      [
        "kho",
        "khe"
      ],
      [
        "kho",
        "mishini"
      ],
      [
        "so",
        "nke"
      ],
      [
        "kha",
        "kheni"
      ],
      [
        "emi",
        "nyaka"
      ],
      [
        "emi",
        "hlanu"
      ],
      [
        "phi",
        "ni"
      ],
      [
        "Ku",
        "le"
      ],
      [
        "Ku",
        "zo"
      ],
      [
        "UM",
        "CULI"
      ],
      [
        "So",
        "lezwe"
      ],
      [
        "woku",
        "gcina"
      ],
      [
        "abe",
        "be"
      ],
      [
        "kulu",
        "nkulu"
      ],
      [
        "phen",
        "ya"
      ],
      [
        "waba",
        "khaya"
      ],
      [
        "ngoLwesi",
        "ne"
      ],
      [
        "shaye",
        "la"
      ],
      [
        "tshu",
        "deni"
      ],
      [
        "Fo",
        "unda"
      ],
      [
        "kon",
        "zo"
      ],
      [
        "Nge",
        "ke"
      ],
      [
        "Gen",
        "eral"
      ],
      [
        "hha",
        "yi"
      ],
      [
        "dlelwa",
        "no"
      ],
      [
        "M",
        "etro"
      ],
      [
        "P",
        "I"
      ],
      [
        "Y",
        "E"
      ],
      [
        "Z",
        "wane"
      ],
      [
        "p",
        "pa"
      ],
      [
        "u",
        "Li"
      ],
      [
        "u",
        "Cardoso"
      ],
      [
        "ng",
        "cwa"
      ],
      [
        "ba",
        "thi"
      ],
      [
        "en",
        "d"
      ],
      [
        "ka",
        "M"
      ],
      [
        "ka",
        "li"
      ],
      [
        "li",
        "nye"
      ],
      [
        "li",
        "nde"
      ],
      [
        "ni",
        "kwa"
      ],
      [
        "ye",
        "Betway"
      ],
      [
        "Ma",
        "rathon"
      ],
      [
        "qo",
        "phe"
      ],
      [
        "me",
        "hlo"
      ],
      [
        "hlo",
        "ngo"
      ],
      [
        "Ku",
        "lo"
      ],
      [
        "ga",
        "dli"
      ],
      [
        "gu",
        "nya"
      ],
      [
        "kuba",
        "landeli"
      ],
      [
        "umu",
        "fi"
      ],
      [
        "Ama",
        "khosi"
      ],
      [
        "buye",
        "le"
      ],
      [
        "kwesi",
        "zini"
      ],
      [
        "Uni",
        "versi"
      ],
      [
        "nqo",
        "be"
      ],
      [
        "ent",
        "sha"
      ],
      [
        "kwenze",
        "ke"
      ],
      [
        "hloni",
        "shwa"
      ],
      [
        "bhi",
        "da"
      ],
      [
        "umi",
        "le"
      ],
      [
        "linga",
        "na"
      ],
      [
        "weze",
        "Mfundo"
      ],
      [
        "lima",
        "la"
      ],
      [
        "Krug",
        "er"
      ],
      [
        "Founda",
        "tion"
      ],
      [
        "Universi",
        "ty"
      ],
      [
        "2",
        "3"
      ],
      [
        "C",
        "P"
      ],
      [
        "M",
        "khwanazi"
      ],
      [
        "U",
        "D"
      ],
      [
        "Z",
        "o"
      ],
      [
        "g",
        "y"
      ],
      [
        "l",
        "y"
      ],
      [
        "n",
        "ywa"
      ],
      [
        "o",
        "hlelweni"
      ],
      [
        "u",
        "thando"
      ],
      [
        "ku",
        "hle"
      ],
      [
        "le",
        "y"
      ],
      [
        "lo",
        "dwa"
      ],
      [
        "na",
        "tional"
      ],
      [
        "nd",
        "on"
      ],
      [
        "be",
        "thu"
      ],
      [
        "ya",
        "lo"
      ],
      [
        "oku",
        "hle"
      ],
      [
        "yi",
        "seni"
      ],
      [
        "bu",
        "zo"
      ],
      [
        "aba",
        "ba"
      ],
      [
        "ke",
        "kho"
      ],
      [
        "nje",
        "ngom"
      ],
      [
        "mba",
        "zo"
      ],
      [
        "mo",
        "la"
      ],
      [
        "ga",
        "da"
      ],
      [
        "Ba",
        "r"
      ],
      [
        "Ju",
        "layi"
      ],
      [
        "QE",
        "QE"
      ],
      [
        "khombi",
        "se"
      ],
      [
        "Bla",
        "ck"
      ],
      [
        "QEQE",
        "SHI"
      ],
      [
        "2",
        "8"
      ],
      [
        "Y",
        "A"
      ],
      [
        "n",
        "ni"
      ],
      [
        "n",
        "sela"
      ],
      [
        "u",
        "kwa"
      ],
      [
        "z",
        "wi"
      ],
      [
        "ng",
        "we"
      ],
      [
        "en",
        "de"
      ],
      [
        "nga",
        "zo"
      ],
      [
        "ni",
        "ka"
      ],
      [
        "sh",
        "umi"
      ],
      [
        "sa",
        "zi"
      ],
      [
        "sa",
        "sa"
      ],
      [
        "bu",
        "yisa"
      ],
      [
        "aba",
        "be"
      ],
      [
        "aba",
        "lala"
      ],
      [
        "ze",
        "zi"
      ],
      [
        "yo",
        "bu"
      ],
      [
        "kho",
        "mba"
      ],
      [
        "the",
        "r"
      ],
      [
        "ha",
        "mbisa"
      ],
      [
        "hla",
        "ya"
      ],
      [
        "Ma",
        "bhida"
      ],
      [
        "isi",
        "gameko"
      ],
      [
        "mbi",
        "le"
      ],
      [
        "mbi",
        "ko"
      ],
      [
        "di",
        "o"
      ],
      [
        "ngoku",
        "ngem"
      ],
      [
        "pho",
        "yiseni"
      ],
      [
        "tsh",
        "we"
      ],
      [
        "kuba",
        "ntu"
      ],
      [
        "ubu",
        "fakazi"
      ],
      [
        "Ama",
        "Zulu"
      ],
      [
        "lli",
        "es"
      ],
      [
        "No",
        "v"
      ],
      [
        "nen",
        "kinga"
      ],
      [
        "eN",
        "ingizimu"
      ],
      [
        "ster",
        "n"
      ],
      [
        "Dla",
        "mini"
      ],
      [
        "mhla",
        "nje"
      ],
      [
        "omu",
        "sha"
      ],
      [
        "Inter",
        "national"
      ],
      [
        "Conf",
        "ed"
      ],
      [
        "ngokungem",
        "thetho"
      ],
      [
        "2",
        "6"
      ],
      [
        "E",
        "zi"
      ],
      [
        "N",
        "xumalo"
      ],
      [
        "T",
        "O"
      ],
      [
        "a",
        "thi"
      ],
      [
        "e",
        "qo"
      ],
      [
        "i",
        "ngoma"
      ],
      [
        "m",
        "nandi"
      ],
      [
        "n",
        "weni"
      ],
      [
        "o",
        "the"
      ],
      [
        "s",
        "ric"
      ],
      [
        "ku",
        "yena"
      ],
      [
        "la",
        "nde"
      ],
      [
        "en",
        "cane"
      ],
      [
        "ka",
        "phethroli"
      ],
      [
        "se",
        "mola"
      ],
      [
        "uku",
        "la"
      ],
      [
        "uku",
        "bona"
      ],
      [
        "nga",
        "so"
      ],
      [
        "ngo",
        "suku"
      ],
      [
        "ya",
        "yi"
      ],
      [
        "ne",
        "qembu"
      ],
      [
        "ye",
        "zin"
      ],
      [
        "khu",
        "ngweni"
      ],
      [
        "hla",
        "ndla"
      ],
      [
        "ezi",
        "zo"
      ],
      [
        "isi",
        "thunzi"
      ],
      [
        "di",
        "li"
      ],
      [
        "ho",
        "lele"
      ],
      [
        "mo",
        "nt"
      ],
      [
        "gci",
        "ni"
      ],
      [
        "UM",
        "QEQESHI"
      ],
      [
        "ja",
        "bula"
      ],
      [
        "qu",
        "ngq"
      ],
      [
        "Ca",
        "sric"
      ],
      [
        "Co",
        "me"
      ],
      [
        "kuzo",
        "na"
      ],
      [
        "ll",
        "y"
      ],
      [
        "jwaye",
        "le"
      ],
      [
        "Nov",
        "emba"
      ],
      [
        "B",
        "i"
      ],
      [
        "K",
        "hu"
      ],
      [
        "M",
        "E"
      ],
      [
        "U",
        "be"
      ],
      [
        "a",
        "yo"
      ],
      [
        "c",
        "aba"
      ],
      [
        "e",
        "e"
      ],
      [
        "e",
        "bhu"
      ],
      [
        "i",
        "yi"
      ],
      [
        "i",
        "bha"
      ],
      [
        "n",
        "co"
      ],
      [
        "n",
        "kinga"
      ],
      [
        "q",
        "wa"
      ],
      [
        "u",
        "L"
      ],
      [
        "u",
        "hulumeni"
      ],
      [
        "ku",
        "na"
      ],
      [
        "le",
        "lo"
      ],
      [
        "le",
        "na"
      ],
      [
        "zi",
        "buko"
      ],
      [
        "si",
        "fundazwe"
      ],
      [
        "se",
        "f"
      ],
      [
        "we",
        "qembu"
      ],
      [
        "ko",
        "mdlalo"
      ],
      [
        "bo",
        "lo"
      ],
      [
        "nge",
        "lo"
      ],
      [
        "lwa",
        "ba"
      ],
      [
        "hla",
        "mvu"
      ],
      [
        "izi",
        "khulu"
      ],
      [
        "ezi",
        "koleni"
      ],
      [
        "Ma",
        "gesi"
      ],
      [
        "tho",
        "ba"
      ],
      [
        "di",
        "di"
      ],
      [
        "ngen",
        "ela"
      ],
      [
        "ben",
        "e"
      ],
      [
        "mba",
        "lwa"
      ],
      [
        "phi",
        "nda"
      ],
      [
        "du",
        "bula"
      ],
      [
        "gci",
        "neni"
      ],
      [
        "nama",
        "nye"
      ],
      [
        "vi",
        "vin"
      ],
      [
        "bula",
        "we"
      ],
      [
        "Chi",
        "ppa"
      ],
      [
        "sen",
        "kantolo"
      ],
      [
        "Co",
        "lle"
      ],
      [
        "ndawo",
        "nye"
      ],
      [
        "ji",
        "kelele"
      ],
      [
        "kana",
        "ni"
      ],
      [
        "SA",
        "BC"
      ],
      [
        "tu",
        "r"
      ],
      [
        "lungi",
        "se"
      ],
      [
        "ozo",
        "ba"
      ],
      [
        "chi",
        "tha"
      ],
      [
        "eri",
        "a"
      ],
      [
        "KA",
        "ZI"
      ],
      [
        "qiniseki",
        "se"
      ],
      [
        "phakami",
        "so"
      ],
      [
        "A",
        "d"
      ],
      [
        "A",
        "GE"
      ],
      [
        "B",
        "ra"
      ],
      [
        "B",
        "eku"
      ],
      [
        "C",
        "KP"
      ],
      [
        "E",
        "qhuba"
      ],
      [
        "R",
        "1"
      ],
      [
        "U",
        "V"
      ],
      [
        "d",
        "we"
      ],
      [
        "e",
        "a"
      ],
      [
        "g",
        "co"
      ],
      [
        "s",
        "ti"
      ],
      [
        "ku",
        "vele"
      ],
      [
        "le",
        "thu"
      ],
      [
        "en",
        "za"
      ],
      [
        "si",
        "ze"
      ],
      [
        "si",
        "gameko"
      ],
      [
        "uku",
        "zo"
      ],
      [
        "uku",
        "pha"
      ],
      [
        "uku",
        "ngena"
      ],
      [
        "uku",
        "qeda"
      ],
      [
        "aba",
        "yisi"
      ],
      [
        "aba",
        "zali"
      ],
      [
        "bi",
        "za"
      ],
      [
        "kho",
        "njiswa"
      ],
      [
        "fa",
        "ni"
      ],
      [
        "kwi",
        "Caf"
      ],
      [
        "on",
        "s"
      ],
      [
        "khulu",
        "me"
      ],
      [
        "de",
        "o"
      ],
      [
        "wesi",
        "coco"
      ],
      [
        "The",
        "ku"
      ],
      [
        "202",
        "1"
      ],
      [
        "Af",
        "con"
      ],
      [
        "wen",
        "ze"
      ],
      [
        "enda",
        "wo"
      ],
      [
        "landela",
        "yo"
      ],
      [
        "obe",
        "se"
      ],
      [
        "kunga",
        "ni"
      ],
      [
        "nka",
        "mpani"
      ],
      [
        "nx",
        "use"
      ],
      [
        "BA",
        "CKP"
      ],
      [
        "ngokuba",
        "mbisana"
      ],
      [
        "GE",
        "M"
      ],
      [
        "PI",
        "X"
      ],
      [
        "qungq",
        "uthe"
      ],
      [
        "AGE",
        "PIX"
      ],
      [
        "BACKP",
        "AGEPIX"
      ],
      [
        "4",
        "2"
      ],
      [
        "6",
        "0"
      ],
      [
        "9",
        "0"
      ],
      [
        "A",
        "b"
      ],
      [
        "A",
        "ya"
      ],
      [
        "C",
        "ele"
      ],
      [
        "G",
        "ra"
      ],
      [
        "T",
        "i"
      ],
      [
        "U",
        "L"
      ],
      [
        "i",
        "ndaba"
      ],
      [
        "j",
        "ezi"
      ],
      [
        "o",
        "somabhizinisi"
      ],
      [
        "r",
        "g"
      ],
      [
        "s",
        "p"
      ],
      [
        "ku",
        "hulumeni"
      ],
      [
        "na",
        "kuba"
      ],
      [
        "thi",
        "kithi"
      ],
      [
        "uku",
        "yo"
      ],
      [
        "ya",
        "zi"
      ],
      [
        "ke",
        "lwe"
      ],
      [
        "bo",
        "phe"
      ],
      [
        "mi",
        "shana"
      ],
      [
        "izi",
        "nga"
      ],
      [
        "izi",
        "nyathelo"
      ],
      [
        "thu",
        "ze"
      ],
      [
        "Ma",
        "mbazo"
      ],
      [
        "ki",
        "si"
      ],
      [
        "tho",
        "li"
      ],
      [
        "ngen",
        "kathi"
      ],
      [
        "kwi",
        "Betway"
      ],
      [
        "eli",
        "phezulu"
      ],
      [
        "ngoku",
        "zi"
      ],
      [
        "in",
        "cwadi"
      ],
      [
        "phi",
        "we"
      ],
      [
        "nu",
        "wari"
      ],
      [
        "phu",
        "la"
      ],
      [
        "phu",
        "pho"
      ],
      [
        "ema",
        "phoyiseni"
      ],
      [
        "abe",
        "si"
      ],
      [
        "wi",
        "ne"
      ],
      [
        "phele",
        "le"
      ],
      [
        "kwama",
        "nje"
      ],
      [
        "Ja",
        "nuwari"
      ],
      [
        "hambe",
        "le"
      ],
      [
        "us",
        "sef"
      ],
      [
        "Oku",
        "nye"
      ],
      [
        "zem",
        "be"
      ],
      [
        "Ngoku",
        "sho"
      ],
      [
        "Pho",
        "yisa"
      ],
      [
        "B",
        "en"
      ],
      [
        "G",
        "u"
      ],
      [
        "H",
        "igh"
      ],
      [
        "I",
        "Pirates"
      ],
      [
        "K",
        "E"
      ],
      [
        "O",
        "munye"
      ],
      [
        "T",
        "H"
      ],
      [
        "e",
        "bezi"
      ],
      [
        "e",
        "jele"
      ],
      [
        "i",
        "ndebe"
      ],
      [
        "m",
        "sakazo"
      ],
      [
        "t",
        "ric"
      ],
      [
        "la",
        "na"
      ],
      [
        "le",
        "r"
      ],
      [
        "le",
        "yo"
      ],
      [
        "zi",
        "ndaba"
      ],
      [
        "se",
        "li"
      ],
      [
        "be",
        "ngi"
      ],
      [
        "ngo",
        "kwa"
      ],
      [
        "ya",
        "kamuva"
      ],
      [
        "ne",
        "s"
      ],
      [
        "yi",
        "qembu"
      ],
      [
        "za",
        "mo"
      ],
      [
        "ze",
        "li"
      ],
      [
        "the",
        "thwa"
      ],
      [
        "kwa",
        "wo"
      ],
      [
        "pha",
        "zami"
      ],
      [
        "izi",
        "ndaba"
      ],
      [
        "shi",
        "swa"
      ],
      [
        "isi",
        "kole"
      ],
      [
        "isi",
        "balo"
      ],
      [
        "qa",
        "lile"
      ],
      [
        "Ng",
        "emuva"
      ],
      [
        "20",
        "19"
      ],
      [
        "hlu",
        "la"
      ],
      [
        "hlu",
        "kile"
      ],
      [
        "she",
        "she"
      ],
      [
        "gu",
        "la"
      ],
      [
        "vi",
        "le"
      ],
      [
        "naba",
        "dlali"
      ],
      [
        "yen",
        "ze"
      ],
      [
        "qha",
        "tha"
      ],
      [
        "saka",
        "za"
      ],
      [
        "lungi",
        "swa"
      ],
      [
        "dlu",
        "nkulu"
      ],
      [
        "gwa",
        "qweni"
      ],
      [
        "uD",
        "kt"
      ],
      [
        "era",
        "tion"
      ],
      [
        "Ste",
        "llies"
      ],
      [
        "hlango",
        "thini"
      ],
      [
        "DLA",
        "LI"
      ],
      [
        "ezinta",
        "thu"
      ],
      [
        "Ath",
        "le"
      ],
      [
        "GEM",
        "S"
      ],
      [
        "B",
        "he"
      ],
      [
        "B",
        "uthelezi"
      ],
      [
        "S",
        "hinga"
      ],
      [
        "T",
        "N"
      ],
      [
        "a",
        "the"
      ],
      [
        "b",
        "we"
      ],
      [
        "i",
        "ba"
      ],
      [
        "i",
        "themba"
      ],
      [
        "i",
        "qhaza"
      ],
      [
        "m",
        "qeqeshi"
      ],
      [
        "n",
        "y"
      ],
      [
        "o",
        "seku"
      ],
      [
        "le",
        "ki"
      ],
      [
        "en",
        "ze"
      ],
      [
        "si",
        "m"
      ],
      [
        "si",
        "funa"
      ],
      [
        "we",
        "thimba"
      ],
      [
        "uku",
        "qhubeka"
      ],
      [
        "ya",
        "m"
      ],
      [
        "sa",
        "yo"
      ],
      [
        "yi",
        "ngakho"
      ],
      [
        "um",
        "hlangani"
      ],
      [
        "ko",
        "we"
      ],
      [
        "bo",
        "no"
      ],
      [
        "kwa",
        "lo"
      ],
      [
        "pha",
        "wu"
      ],
      [
        "lwa",
        "khe"
      ],
      [
        "hla",
        "thuze"
      ],
      [
        "thu",
        "li"
      ],
      [
        "isi",
        "celo"
      ],
      [
        "ci",
        "she"
      ],
      [
        "ngen",
        "ele"
      ],
      [
        "ngen",
        "hloso"
      ],
      [
        "da",
        "kami"
      ],
      [
        "Si",
        "pho"
      ],
      [
        "qe",
        "phu"
      ],
      [
        "me",
        "ya"
      ],
      [
        "fi",
        "ki"
      ],
      [
        "bhe",
        "yili"
      ],
      [
        "hlo",
        "la"
      ],
      [
        "gi",
        "beli"
      ],
      [
        "ase",
        "be"
      ],
      [
        "kwezi",
        "nye"
      ],
      [
        "qha",
        "ka"
      ],
      [
        "qha",
        "muka"
      ],
      [
        "besi",
        "lisa"
      ],
      [
        "vo",
        "ti"
      ],
      [
        "usi",
        "zo"
      ],
      [
        "Kho",
        "mishana"
      ],
      [
        "yom",
        "culo"
      ],
      [
        "Ngo",
        "nyama"
      ],
      [
        "thisha",
        "nhloko"
      ],
      [
        "gwe",
        "bo"
      ],
      [
        "umele",
        "lo"
      ],
      [
        "ngabo",
        "mvu"
      ],
      [
        "Peter",
        "sen"
      ],
      [
        "finye",
        "lela"
      ],
      [
        "seke",
        "lo"
      ],
      [
        "Colle",
        "ge"
      ],
      [
        "umhlangani",
        "so"
      ],
      [
        "2",
        "4"
      ],
      [
        "E",
        "gy"
      ],
      [
        "G",
        "al"
      ],
      [
        "I",
        "so"
      ],
      [
        "O",
        "k"
      ],
      [
        "S",
        "t"
      ],
      [
        "d",
        "izili"
      ],
      [
        "g",
        "en"
      ],
      [
        "g",
        "cwa"
      ],
      [
        "i",
        "d"
      ],
      [
        "i",
        "zwe"
      ],
      [
        "k",
        "go"
      ],
      [
        "n",
        "we"
      ],
      [
        "o",
        "ba"
      ],
      [
        "s",
        "si"
      ],
      [
        "u",
        "nyaka"
      ],
      [
        "u",
        "lwazi"
      ],
      [
        "z",
        "empi"
      ],
      [
        "ku",
        "ne"
      ],
      [
        "la",
        "m"
      ],
      [
        "si",
        "sa"
      ],
      [
        "si",
        "mo"
      ],
      [
        "si",
        "teshi"
      ],
      [
        "ka",
        "lo"
      ],
      [
        "ma",
        "qembu"
      ],
      [
        "ma",
        "yelana"
      ],
      [
        "na",
        "mhlanje"
      ],
      [
        "we",
        "Mamelodi"
      ],
      [
        "um",
        "khankaso"
      ],
      [
        "kho",
        "di"
      ],
      [
        "pha",
        "the"
      ],
      [
        "izi",
        "ndawo"
      ],
      [
        "izi",
        "kole"
      ],
      [
        "kwe",
        "le"
      ],
      [
        "Ma",
        "li"
      ],
      [
        "esi",
        "phezulu"
      ],
      [
        "fa",
        "kwe"
      ],
      [
        "khe",
        "tha"
      ],
      [
        "ca",
        "ca"
      ],
      [
        "ti",
        "ng"
      ],
      [
        "in",
        "kulumo"
      ],
      [
        "fi",
        "so"
      ],
      [
        "noku",
        "nye"
      ],
      [
        "mp",
        "elasonto"
      ],
      [
        "imi",
        "gomo"
      ],
      [
        "du",
        "na"
      ],
      [
        "zoku",
        "ba"
      ],
      [
        "nama",
        "qembu"
      ],
      [
        "Kwa",
        "Ma"
      ],
      [
        "khi",
        "shwe"
      ],
      [
        "waba",
        "dlali"
      ],
      [
        "ngaba",
        "ntu"
      ],
      [
        "SA",
        "CP"
      ],
      [
        "yesi",
        "gameko"
      ],
      [
        "eM",
        "nyangweni"
      ],
      [
        "kwaba",
        "ntu"
      ],
      [
        "hli",
        "ziyo"
      ],
      [
        "La",
        "mont"
      ],
      [
        "ngqo",
        "ngqoshe"
      ],
      [
        "Mi",
        "na"
      ],
      [
        "nx",
        "usa"
      ],
      [
        "lungi",
        "sa"
      ],
      [
        "To",
        "wn"
      ],
      [
        "Di",
        "semba"
      ],
      [
        "buke",
        "li"
      ],
      [
        "bheka",
        "ne"
      ],
      [
        "kaMa",
        "sipala"
      ],
      [
        "ngeli",
        "nye"
      ],
      [
        "Yo",
        "ussef"
      ],
      [
        "pheli",
        "le"
      ],
      [
        "bhiki",
        "sho"
      ],
      [
        "cwani",
        "ngo"
      ],
      [
        "Lamont",
        "ville"
      ],
      [
        "A",
        "ku"
      ],
      [
        "L",
        "ezi"
      ],
      [
        "N",
        "ksz"
      ],
      [
        "S",
        "eku"
      ],
      [
        "c",
        "er"
      ],
      [
        "e",
        "ut"
      ],
      [
        "e",
        "Gauteng"
      ],
      [
        "e",
        "Kapa"
      ],
      [
        "f",
        "ela"
      ],
      [
        "i",
        "za"
      ],
      [
        "u",
        "Na"
      ],
      [
        "ku",
        "lokhu"
      ],
      [
        "ku",
        "bhekwe"
      ],
      [
        "la",
        "zi"
      ],
      [
        "wa",
        "veza"
      ],
      [
        "en",
        "ja"
      ],
      [
        "zi",
        "yi"
      ],
      [
        "si",
        "khwama"
      ],
      [
        "li",
        "tha"
      ],
      [
        "na",
        "kwi"
      ],
      [
        "thi",
        "a"
      ],
      [
        "we",
        "zin"
      ],
      [
        "we",
        "pheshe"
      ],
      [
        "nd",
        "er"
      ],
      [
        "nga",
        "zi"
      ],
      [
        "bu",
        "rg"
      ],
      [
        "um",
        "ba"
      ],
      [
        "nj",
        "we"
      ],
      [
        "lwa",
        "ngo"
      ],
      [
        "so",
        "bala"
      ],
      [
        "tha",
        "ka"
      ],
      [
        "nje",
        "lwe"
      ],
      [
        "mba",
        "bwe"
      ],
      [
        "phe",
        "thwe"
      ],
      [
        "ri",
        "s"
      ],
      [
        "ri",
        "es"
      ],
      [
        "gi",
        "c"
      ],
      [
        "vu",
        "le"
      ],
      [
        "ena",
        "nt"
      ],
      [
        "hlanga",
        "nweni"
      ],
      [
        "woku",
        "ba"
      ],
      [
        "re",
        "khodi"
      ],
      [
        "Co",
        "sa"
      ],
      [
        "Co",
        "mp"
      ],
      [
        "wen",
        "zeka"
      ],
      [
        "Pha",
        "kathi"
      ],
      [
        "Ja",
        "zz"
      ],
      [
        "shaye",
        "li"
      ],
      [
        "Zi",
        "mbabwe"
      ],
      [
        "uT",
        "ha"
      ],
      [
        "abazo",
        "be"
      ],
      [
        "Pa",
        "nama"
      ],
      [
        "okuyi",
        "nto"
      ],
      [
        "phendu",
        "la"
      ],
      [
        "iN",
        "ingizimu"
      ],
      [
        "uK",
        "hu"
      ],
      [
        "kanga",
        "ka"
      ],
      [
        "tic",
        "s"
      ],
      [
        "hlango",
        "thi"
      ],
      [
        "dutshu",
        "lwa"
      ],
      [
        "eMo",
        "ses"
      ],
      [
        "ncinti",
        "swano"
      ],
      [
        "Confed",
        "eration"
      ],
      [
        "dakami",
        "zwa"
      ],
      [
        "Egy",
        "pt"
      ],
      [
        "Iso",
        "lezwe"
      ],
      [
        "Ok",
        "thoba"
      ],
      [
        "B",
        "ig"
      ],
      [
        "I",
        "Sundowns"
      ],
      [
        "O",
        "s"
      ],
      [
        "T",
        "HI"
      ],
      [
        "U",
        "kusho"
      ],
      [
        "a",
        "ya"
      ],
      [
        "e",
        "fanayo"
      ],
      [
        "i",
        "ligi"
      ],
      [
        "i",
        "thimba"
      ],
      [
        "k",
        "eme"
      ],
      [
        "n",
        "thia"
      ],
      [
        "o",
        "we"
      ],
      [
        "ku",
        "chaza"
      ],
      [
        "la",
        "yo"
      ],
      [
        "ba",
        "ningi"
      ],
      [
        "wa",
        "be"
      ],
      [
        "wa",
        "KwaZulu"
      ],
      [
        "lo",
        "ne"
      ],
      [
        "uku",
        "bhekana"
      ],
      [
        "nga",
        "lesi"
      ],
      [
        "lu",
        "zo"
      ],
      [
        "yi",
        "le"
      ],
      [
        "bu",
        "tho"
      ],
      [
        "ze",
        "thu"
      ],
      [
        "yo",
        "ta"
      ],
      [
        "no",
        "gada"
      ],
      [
        "pha",
        "za"
      ],
      [
        "khu",
        "za"
      ],
      [
        "ezi",
        "fu"
      ],
      [
        "ezi",
        "thinta"
      ],
      [
        "wo",
        "od"
      ],
      [
        "isi",
        "bili"
      ],
      [
        "isi",
        "bhamu"
      ],
      [
        "ci",
        "al"
      ],
      [
        "qa",
        "shwa"
      ],
      [
        "qo",
        "kwe"
      ],
      [
        "qo",
        "ndo"
      ],
      [
        "ngen",
        "ye"
      ],
      [
        "ben",
        "ze"
      ],
      [
        "emi",
        "ne"
      ],
      [
        "in",
        "qwaba"
      ],
      [
        "uM",
        "ntwana"
      ],
      [
        "phi",
        "le"
      ],
      [
        "ga",
        "di"
      ],
      [
        "imi",
        "phumela"
      ],
      [
        "eku",
        "pheleni"
      ],
      [
        "zwa",
        "ka"
      ],
      [
        "qu",
        "e"
      ],
      [
        "ese",
        "le"
      ],
      [
        "ese",
        "zi"
      ],
      [
        "soku",
        "qala"
      ],
      [
        "izin",
        "suku"
      ],
      [
        "Li",
        "ons"
      ],
      [
        "To",
        "p"
      ],
      [
        "To",
        "yota"
      ],
      [
        "phendu",
        "le"
      ],
      [
        "Awa",
        "rd"
      ],
      [
        "Cy",
        "nthia"
      ],
      [
        "thuthu",
        "ki"
      ],
      [
        "hluku",
        "me"
      ],
      [
        "Yi",
        "ngakho"
      ],
      [
        "Hu",
        "go"
      ],
      [
        "joyi",
        "na"
      ],
      [
        "gq",
        "ama"
      ],
      [
        "Gro",
        "up"
      ],
      [
        "Ph",
        "ini"
      ],
      [
        "Come",
        "dy"
      ],
      [
        "didi",
        "ye"
      ],
      [
        "zempi",
        "lo"
      ],
      [
        "eut",
        "enant"
      ],
      [
        "5",
        "00"
      ],
      [
        "A",
        "BA"
      ],
      [
        "C",
        "ent"
      ],
      [
        "F",
        "ebhu"
      ],
      [
        "M",
        "khize"
      ],
      [
        "M",
        "thethwa"
      ],
      [
        "P",
        "re"
      ],
      [
        "U",
        "Si"
      ],
      [
        "a",
        "no"
      ],
      [
        "e",
        "bha"
      ],
      [
        "k",
        "W"
      ],
      [
        "m",
        "khulu"
      ],
      [
        "m",
        "khakha"
      ],
      [
        "u",
        "ng"
      ],
      [
        "ku",
        "phi"
      ],
      [
        "en",
        "di"
      ],
      [
        "en",
        "xa"
      ],
      [
        "kh",
        "wa"
      ],
      [
        "ma",
        "ne"
      ],
      [
        "ma",
        "tric"
      ],
      [
        "lo",
        "li"
      ],
      [
        "we",
        "Bafana"
      ],
      [
        "nd",
        "lo"
      ],
      [
        "be",
        "sa"
      ],
      [
        "lu",
        "ngelo"
      ],
      [
        "ya",
        "wo"
      ],
      [
        "oku",
        "khona"
      ],
      [
        "oku",
        "ningi"
      ],
      [
        "oku",
        "mele"
      ],
      [
        "bu",
        "le"
      ],
      [
        "aba",
        "holi"
      ],
      [
        "mi",
        "swa"
      ],
      [
        "khu",
        "ngo"
      ],
      [
        "kha",
        "nsela"
      ],
      [
        "tha",
        "nga"
      ],
      [
        "izi",
        "nguquko"
      ],
      [
        "tho",
        "lwe"
      ],
      [
        "sha",
        "ywe"
      ],
      [
        "khe",
        "the"
      ],
      [
        "Ng",
        "ema"
      ],
      [
        "eli",
        "ka"
      ],
      [
        "ho",
        "use"
      ],
      [
        "mba",
        "ngi"
      ],
      [
        "noku",
        "ba"
      ],
      [
        "imi",
        "sebenzi"
      ],
      [
        "loku",
        "qala"
      ],
      [
        "vi",
        "deo"
      ],
      [
        "ema",
        "khaya"
      ],
      [
        "kulo",
        "na"
      ],
      [
        "kuzo",
        "be"
      ],
      [
        "Pha",
        "sika"
      ],
      [
        "ndle",
        "ko"
      ]
    ]
  }
}