{
  "version": "1.0",
  "truncation": null,
  "padding": null,
  "added_tokens": [
    {
      "id": 0,
      "content": "[UNK]",
      "single_word": false,
      "lstrip": false,
      "rstrip": false,
      "normalized": false,
      "special": true
    },
    {
      "id": 1,
      "content": "[CLS]",
      "single_word": false,
      "lstrip": false,
      "rstrip": false,
      "normalized": false,
      "special": true
    },
    {
      "id": 2,
      "content": "[SEP]",
      "single_word": false,
      "lstrip": false,
      "rstrip": false,
      "normalized": false,
      "special": true
    },
    {
      "id": 3,
      "content": "[PAD]",
      "single_word": false,
      "lstrip": false,
      "rstrip": false,
      "normalized": false,
      "special": true
    },
    {
      "id": 4,
      "content": "[MASK]",
      "single_word": false,
      "lstrip": false,
      "rstrip": false,
      "normalized": false,
      "special": true
    }
  ],
  "normalizer": null,
  "pre_tokenizer": {
    "type": "Whitespace"
  },
  "post_processor": null,
  "decoder": null,
  "model": {
    "type": "BPE",
    "dropout": null,
    "unk_token": "[UNK]",
    "continuing_subword_prefix": null,
    "end_of_word_suffix": null,
    "fuse_unk": false,
    "byte_fallback": false,
    "ignore_merges": false,
    "vocab": {
      "[UNK]": 0,
      "[CLS]": 1,
      "[SEP]": 2,
      "[PAD]": 3,
      "[MASK]": 4,
      "!": 5,
      "\"": 6,
      "%": 7,
      "&": 8,
      "'": 9,
      "(": 10,
      ")": 11,
      "*": 12,
      "+": 13,
      ",": 14,
      "-": 15,
      ".": 16,
      "/": 17,
      "0": 18,
      "1": 19,
      "2": 20,
      "3": 21,
      "4": 22,
      "5": 23,
      "6": 24,
      "7": 25,
      "8": 26,
      "9": 27,
      ":": 28,
      ";": 29,
      "?": 30,
      "@": 31,
      "A": 32,
      "B": 33,
      "C": 34,
      "D": 35,
      "E": 36,
      "F": 37,
      "G": 38,
      "H": 39,
      "I": 40,
      "J": 41,
      "K": 42,
      "L": 43,
      "M": 44,
      "N": 45,
      "O": 46,
      "P": 47,
      "Q": 48,
      "R": 49,
      "S": 50,
      "T": 51,
      "U": 52,
      "V": 53,
      "W": 54,
      "X": 55,
      "Y": 56,
      "Z": 57,
      "[": 58,
      "]": 59,
      "_": 60,
      "a": 61,
      "b": 62,
      "c": 63,
      "d": 64,
      "e": 65,
      "f": 66,
      "g": 67,
      "h": 68,
      "i": 69,
      "j": 70,
      "k": 71,
      "l": 72,
      "m": 73,
      "n": 74,
      "o": 75,
      "p": 76,
      "q": 77,
      "r": 78,
      "s": 79,
      "t": 80,
      "u": 81,
      "v": 82,
      "w": 83,
      "x": 84,
      "y": 85,
      "z": 86,
      "é": 87,
      "–": 88,
      "‘": 89,
      "’": 90,
      "“": 91,
      "”": 92,
      "…": 93,
      "ku": 94,
      "ng": 95,
      "la": 96,
      "th": 97,
      "le": 98,
      "ba": 99,
      "wa": 100,
      "en": 101,
      "si": 102,
      "zi": 103,
      "ka": 104,
      "ma": 105,
      "kh": 106,
      "li": 107,
      "lo": 108,
      "thi": 109,
      "we": 110,
      "na": 111,
      "se": 112,
      "ph": 113,
      "nd": 114,
      "uku": 115,
      "nga": 116,
      "sh": 117,
      "ni": 118,
      "be": 119,
      "oku": 120,
      "lu": 121,
      "ya": 122,
      "ne": 123,
      "sa": 124,
      "ngo": 125,
      "ye": 126,
      "em": 127,
      "yi": 128,
      "bu": 129,
      "um": 130,
      "eni": 131,
      "nt": 132,
      "ke": 133,
      "za": 134,
      "aba": 135,
      "zo": 136,
      "ze": 137,
      "ko": 138,
      "bo": 139,
      "bi": 140,
      "ukuthi": 141,
      "yo": 142,
      "the": 143,
      "ha": 144,
      "mi": 145,
      "no": 146,
      "kho": 147,
      "nge": 148,
      "lwa": 149,
      "kwa": 150,
      "so": 151,
      "ngi": 152,
      "pha": 153,
      "khu": 154,
      "nj": 155,
      "hla": 156,
      "ama": 157,
      "kha": 158,
      "dla": 159,
      "fu": 160,
      "kw": 161,
      "ela": 162,
      "tha": 163,
      "weni": 164,
      "ele": 165,
      "esi": 166,
      "kwe": 167,
      "tho": 168,
      "izi": 169,
      "ezi": 170,
      "isi": 171,
      "ngu": 172,
      "nje": 173,
      "thu": 174,
      "shi": 175,
      "Ma": 176,
      "ki": 177,
      "wo": 178,
      "nye": 179,
      "bh": 180,
      "er": 181,
      "mu": 182,
      "qo": 183,
      "fa": 184,
      "mbi": 185,
      "nya": 186,
      "da": 187,
      "ci": 188,
      "nda": 189,
      "sha": 190,
      "sho": 191,
      "qa": 192,
      "di": 193,
      "ndo": 194,
      "Ng": 195,
      "pho": 196,
      "hu": 197,
      "eli": 198,
      "at": 199,
      "nto": 200,
      "khe": 201,
      "ngoku": 202,
      "ngen": 203,
      "ngoba": 204,
      "hle": 205,
      "ben": 206,
      "ntu": 207,
      "on": 208,
      "kwi": 209,
      "lwe": 210,
      "ho": 211,
      "khulu": 212,
      "Si": 213,
      "mba": 214,
      "uma": 215,
      "es": 216,
      "ca": 217,
      "co": 218,
      "dwa": 219,
      "emi": 220,
      "uM": 221,
      "seben": 222,
      "qe": 223,
      "de": 224,
      "va": 225,
      "in": 226,
      "wu": 227,
      "me": 228,
      "ri": 229,
      "uz": 230,
      "fi": 231,
      "mo": 232,
      "ulu": 233,
      "phi": 234,
      "khona": 235,
      "lela": 236,
      "ti": 237,
      "kule": 238,
      "bhe": 239,
      "hi": 240,
      "mp": 241,
      "uthe": 242,
      "dlalo": 243,
      "hlo": 244,
      "phe": 245,
      "embu": 246,
      "zwe": 247,
      "kwen": 248,
      "khathi": 249,
      "qembu": 250,
      "yoku": 251,
      "Ku": 252,
      "noku": 253,
      "swa": 254,
      "ta": 255,
      "kodwa": 256,
      "kusho": 257,
      "zini": 258,
      "ngesi": 259,
      "phaka": 260,
      "20": 261,
      "ini": 262,
      "nde": 263,
      "vu": 264,
      "bha": 265,
      "ndi": 266,
      "or": 267,
      "ga": 268,
      "hlu": 269,
      "imi": 270,
      "njengoba": 271,
      "sebenzi": 272,
      "nke": 273,
      "eku": 274,
      "gi": 275,
      "su": 276,
      "te": 277,
      "qhu": 278,
      "al": 279,
      "Uthe": 280,
      "wesi": 281,
      "phakathi": 282,
      "UM": 283,
      "lweni": 284,
      "to": 285,
      "leni": 286,
      "ene": 287,
      "she": 288,
      "mbe": 289,
      "gu": 290,
      "nezi": 291,
      "Kwa": 292,
      "bona": 293,
      "Zulu": 294,
      "loku": 295,
      "gci": 296,
      "he": 297,
      "du": 298,
      "land": 299,
      "bili": 300,
      "qala": 301,
      "Ba": 302,
      "Pi": 303,
      "ge": 304,
      "qu": 305,
      "ro": 306,
      "dlu": 307,
      "yisa": 308,
      "do": 309,
      "tsh": 310,
      "abantu": 311,
      "ve": 312,
      "kuleli": 313,
      "futhi": 314,
      "funa": 315,
      "nyaka": 316,
      "zoku": 317,
      "Lo": 318,
      "lele": 319,
      "ena": 320,
      "nele": 321,
      "ns": 322,
      "nuz": 323,
      "vi": 324,
      "zwa": 325,
      "kela": 326,
      "ra": 327,
      "beni": 328,
      "Nat": 329,
      ",”": 330,
      "hlanga": 331,
      "Chi": 332,
      "koku": 333,
      "et": 334,
      "ship": 335,
      "Su": 336,
      "fs": 337,
      "uN": 338,
      "So": 339,
      "men": 340,
      "yisi": 341,
      "kwazi": 342,
      "nja": 343,
      "amapho": 344,
      "lokhu": 345,
      "kile": 346,
      "ubu": 347,
      "ngama": 348,
      "ema": 349,
      "nsi": 350,
      "rat": 351,
      "kulu": 352,
      "nama": 353,
      "oli": 354,
      "ngapha": 355,
      "khi": 356,
      "uMnuz": 357,
      "izo": 358,
      "woku": 359,
      "mali": 360,
      "ndla": 361,
      "thola": 362,
      "xa": 363,
      "qhube": 364,
      "Mo": 365,
      "ja": 366,
      "ty": 367,
      "kakhulu": 368,
      "cu": 369,
      "Ka": 370,
      ".\"": 371,
      "Pr": 372,
      "ukuze": 373,
      "rates": 374,
      "ese": 375,
      "thetho": 376,
      "Pirates": 377,
      "Chie": 378,
      "Af": 379,
      "ar": 380,
      "kene": 381,
      "Chiefs": 382,
      "sen": 383,
      "bula": 384,
      "soku": 385,
      "kuba": 386,
      "kazi": 387,
      "fanele": 388,
      "202": 389,
      "ngesikhathi": 390,
      "nzi": 391,
      "qi": 392,
      "Sta": 393,
      "ningi": 394,
      "suku": 395,
      "ngem": 396,
      "Natal": 397,
      "KwaZulu": 398,
      "Ngi": 399,
      "kanto": 400,
      "mbisa": 401,
      "emier": 402,
      "Premier": 403,
      "kantolo": 404,
      "ce": 405,
      "ion": 406,
      "zeka": 407,
      "uzu": 408,
      "enga": 409,
      "ukuba": 410,
      "cala": 411,
      "Pha": 412,
      "pa": 413,
      "The": 414,
      "wns": 415,
      "wase": 416,
      "Sundo": 417,
      "Ci": 418,
      "ny": 419,
      "lapho": 420,
      "nta": 421,
      "Afri": 422,
      "Sundowns": 423,
      "Co": 424,
      "mdlalo": 425,
      "lisa": 426,
      ",\"": 427,
      "abe": 428,
      "dlalweni": 429,
      "cimbi": 430,
      "re": 431,
      "sele": 432,
      "naba": 433,
      "thathu": 434,
      "qini": 435,
      "hlelo": 436,
      "holi": 437,
      "Le": 438,
      "phen": 439,
      "Premiership": 440,
      "dlali": 441,
      "kwenza": 442,
      "umu": 443,
      "00": 444,
      "Stadi": 445,
      "zin": 446,
      "mbili": 447,
      "Stadium": 448,
      "mele": 449,
      "seku": 450,
      "ndleni": 451,
      "emba": 452,
      "umo": 453,
      "dlala": 454,
      "wi": 455,
      "enda": 456,
      "izin": 457,
      "wen": 458,
      "lesi": 459,
      "ube": 460,
      "uva": 461,
      "nti": 462,
      "qeqe": 463,
      "ch": 464,
      "khaya": 465,
      "njalo": 466,
      "shwa": 467,
      "fana": 468,
      "dlule": 469,
      "City": 470,
      "UN": 471,
      "kuka": 472,
      "nom": 473,
      "phinde": 474,
      "nu": 475,
      "phum": 476,
      "swe": 477,
      "uzo": 478,
      "sela": 479,
      "phuzu": 480,
      "ndawo": 481,
      "waba": 482,
      "zane": 483,
      "tu": 484,
      "eN": 485,
      "ks": 486,
      "waye": 487,
      "solwa": 488,
      "nyango": 489,
      "eM": 490,
      "kulo": 491,
      "ngweni": 492,
      "yesi": 493,
      "bho": 494,
      "bheka": 495,
      "kuzo": 496,
      "ngaba": 497,
      "AN": 498,
      "No": 499,
      "ngqo": 500,
      "wama": 501,
      "ur": 502,
      "vele": 503,
      "ban": 504,
      "phu": 505,
      "phela": 506,
      "funda": 507,
      "ngenxa": 508,
      "Ama": 509,
      "use": 510,
      "Ramapho": 511,
      "zayo": 512,
      "Ramaphosa": 513,
      "kala": 514,
      "ndeni": 515,
      "mende": 516,
      "olu": 517,
      "lando": 518,
      "lelwa": 519,
      "cwa": 520,
      "pe": 521,
      "noma": 522,
      "qhubeka": 523,
      "FC": 524,
      "ent": 525,
      "zela": 526,
      "ngokuthi": 527,
      "gcina": 528,
      "aku": 529,
      "ig": 530,
      "landela": 531,
      "Phala": 532,
      "LI": 533,
      "mbo": 534,
      "of": 535,
      "yena": 536,
      "kube": 537,
      "Isi": 538,
      "dlela": 539,
      "ndle": 540,
      "rd": 541,
      "ligi": 542,
      "Sa": 543,
      "engu": 544,
      "Nga": 545,
      "ji": 546,
      "ngum": 547,
      "ngoM": 548,
      "Aba": 549,
      "meni": 550,
      "lokho": 551,
      "nesi": 552,
      "kele": 553,
      "munye": 554,
      "ngena": 555,
      "hlukene": 556,
      "Afrika": 557,
      "ksz": 558,
      "SA": 559,
      "Se": 560,
      "st": 561,
      "nyu": 562,
      "Lwesi": 563,
      "nq": 564,
      "leli": 565,
      "bazo": 566,
      "thiwa": 567,
      "ngayo": 568,
      "kwesi": 569,
      "Bet": 570,
      "Ima": 571,
      "vo": 572,
      "hamba": 573,
      "ngezi": 574,
      "thuba": 575,
      "kwama": 576,
      "Image": 577,
      "Or": 578,
      "ed": 579,
      "eya": 580,
      "eyi": 581,
      "lli": 582,
      "besi": 583,
      "khuluma": 584,
      "Cha": 585,
      "mela": 586,
      "way": 587,
      "ndaba": 588,
      "emdlalweni": 589,
      "buye": 590,
      "shini": 591,
      "lle": 592,
      "meli": 593,
      "thwa": 594,
      "enye": 595,
      "phele": 596,
      "yakhe": 597,
      "Ca": 598,
      "khala": 599,
      "thole": 600,
      "Ga": 601,
      "fo": 602,
      "bala": 603,
      "beku": 604,
      "sonto": 605,
      "ngizi": 606,
      "fundi": 607,
      "kwini": 608,
      "nzima": 609,
      "Betway": 610,
      "Uni": 611,
      "ase": 612,
      "go": 613,
      "lungu": 614,
      "nemi": 615,
      "qeqeshi": 616,
      "zulu": 617,
      "ngoLwesi": 618,
      "qinise": 619,
      "xo": 620,
      "huma": 621,
      "Ar": 622,
      "daba": 623,
      "ize": 624,
      "nen": 625,
      "thwe": 626,
      "gebe": 627,
      "ebu": 628,
      "ndlela": 629,
      "ngeke": 630,
      "hlaba": 631,
      "fazane": 632,
      "coco": 633,
      "moto": 634,
      "veze": 635,
      "wana": 636,
      "cha": 637,
      "imali": 638,
      "ld": 639,
      "pi": 640,
      "qha": 641,
      "zweni": 642,
      "kwezi": 643,
      "fika": 644,
      "mpa": 645,
      "Phalamende": 646,
      "Ja": 647,
      "themba": 648,
      "sesi": 649,
      "ume": 650,
      "Thekwini": 651,
      "Um": 652,
      "nqo": 653,
      "leka": 654,
      "lika": 655,
      "endaweni": 656,
      "lolu": 657,
      "zama": 658,
      "hulu": 659,
      "umuntu": 660,
      "IF": 661,
      "Na": 662,
      "usho": 663,
      "Ju": 664,
      "uT": 665,
      "uMa": 666,
      "kusa": 667,
      "ziwa": 668,
      "kanjalo": 669,
      "ngakho": 670,
      "ezin": 671,
      "hli": 672,
      "lezi": 673,
      "sizo": 674,
      "kanje": 675,
      "kusu": 676,
      "ngwa": 677,
      "lingi": 678,
      "fundo": 679,
      "melo": 680,
      "game": 681,
      "hulumeni": 682,
      "Po": 683,
      "yona": 684,
      "UK": 685,
      "angu": 686,
      "bese": 687,
      "umele": 688,
      "kwaba": 689,
      "nqumo": 690,
      "asi": 691,
      "seni": 692,
      "ngeni": 693,
      "izinto": 694,
      "),": 695,
      "isa": 696,
      "nko": 697,
      "om": 698,
      "uB": 699,
      "ug": 700,
      "uya": 701,
      "wathi": 702,
      "ndele": 703,
      "qale": 704,
      "sebenza": 705,
      "Lokhu": 706,
      "amaphoyisa": 707,
      "Li": 708,
      "wakhe": 709,
      "manje": 710,
      "lovu": 711,
      "hlaka": 712,
      "hlanu": 713,
      "ngendlela": 714,
      "ngizimu": 715,
      "Uma": 716,
      "nka": 717,
      "nqa": 718,
      "wukuthi": 719,
      "kanye": 720,
      "yase": 721,
      "cane": 722,
      "vela": 723,
      "yokuthi": 724,
      "bhekana": 725,
      "Orlando": 726,
      "gameko": 727,
      "Mi": 728,
      "el": 729,
      "ezo": 730,
      "eThekwini": 731,
      "gqi": 732,
      "ingizimu": 733,
      "nx": 734,
      "wini": 735,
      "zu": 736,
      "kulandela": 737,
      "hlala": 738,
      "kisa": 739,
      "shaye": 740,
      "tion": 741,
      "bezi": 742,
      "ngom": 743,
      "phoyisa": 744,
      "La": 745,
      "up": 746,
      "kundleni": 747,
      "kahle": 748,
      "ngani": 749,
      "emuva": 750,
      "khombisa": 751,
      "wona": 752,
      "mpi": 753,
      "mpion": 754,
      "sebenzisa": 755,
      "Champion": 756,
      "Di": 757,
      "HI": 758,
      "nkulu": 759,
      "kufanele": 760,
      "log": 761,
      "eme": 762,
      "phansi": 763,
      "thombe": 764,
      "bhu": 765,
      "nyama": 766,
      "ou": 767,
      "usa": 768,
      "theni": 769,
      "balo": 770,
      "sezi": 771,
      "shu": 772,
      "buka": 773,
      "hlangano": 774,
      "IFP": 775,
      "SI": 776,
      "ethi": 777,
      "engi": 778,
      "kk": 779,
      "sem": 780,
      "hambe": 781,
      "isikhathi": 782,
      "kinga": 783,
      "bhekene": 784,
      "veza": 785,
      "gebengu": 786,
      "BA": 787,
      "aka": 788,
      "gqu": 789,
      "ts": 790,
      "lula": 791,
      "yama": 792,
      "hlalo": 793,
      "KP": 794,
      "esa": 795,
      "owa": 796,
      "kuphela": 797,
      "lakhe": 798,
      "ntsha": 799,
      "nobu": 800,
      "ngaphandle": 801,
      "culo": 802,
      "pala": 803,
      "Ro": 804,
      "chi": 805,
      "indawo": 806,
      "uC": 807,
      "sipala": 808,
      "yini": 809,
      "qoka": 810,
      "shaya": 811,
      "est": 812,
      "hlobo": 813,
      "ted": 814,
      "gcine": 815,
      "Sha": 816,
      "azo": 817,
      "mcimbi": 818,
      "po": 819,
      "pela": 820,
      "zen": 821,
      "khum": 822,
      "belo": 823,
      "phambili": 824,
      "thanda": 825,
      "thula": 826,
      "muntu": 827,
      "ebusuku": 828,
      "obu": 829,
      "yen": 830,
      "kukhona": 831,
      "okuba": 832,
      "ngoma": 833,
      "qeda": 834,
      "fike": 835,
      "rds": 836,
      "United": 837,
      "Go": 838,
      "goli": 839,
      "laba": 840,
      "umdlalo": 841,
      "biko": 842,
      "yoM": 843,
      "thatha": 844,
      "Mamelo": 845,
      "Ngo": 846,
      "Mamelodi": 847,
      "Zi": 848,
      "cwe": 849,
      "ona": 850,
      "xhuma": 851,
      "thweni": 852,
      "midlalo": 853,
      "khetho": 854,
      "Siya": 855,
      "Cup": 856,
      "NG": 857,
      "Ste": 858,
      "anga": 859,
      "boku": 860,
      "sizini": 861,
      "lonke": 862,
      "ngane": 863,
      "umsebenzi": 864,
      "landeli": 865,
      "uNksz": 866,
      "jabu": 867,
      "Kaize": 868,
      "mbisana": 869,
      "Kaizer": 870,
      "DA": 871,
      "ing": 872,
      "iqembu": 873,
      "mbu": 874,
      "tat": 875,
      "usi": 876,
      "end": 877,
      "lindele": 878,
      "yom": 879,
      "mini": 880,
      "ngesizini": 881,
      "base": 882,
      "lungi": 883,
      "zom": 884,
      "isizini": 885,
      "wom": 886,
      "nyak": 887,
      "hloni": 888,
      "201": 889,
      "imidlalo": 890,
      "tshu": 891,
      "Sonto": 892,
      "phumela": 893,
      "Ri": 894,
      "To": 895,
      "ad": 896,
      "gwa": 897,
      "hl": 898,
      "lala": 899,
      "thini": 900,
      "ngaka": 901,
      "shwe": 902,
      "kom": 903,
      "shiya": 904,
      "wonke": 905,
      "bhi": 906,
      "muva": 907,
      "ngqoshe": 908,
      "nqoba": 909,
      "kuma": 910,
      "lase": 911,
      "siza": 912,
      "naye": 913,
      "yaba": 914,
      "zele": 915,
      "kithi": 916,
      "ers": 917,
      "ciko": 918,
      "izolo": 919,
      "engameli": 920,
      "ANC": 921,
      "nqamu": 922,
      "Dla": 923,
      "Kha": 924,
      "Wa": 925,
      "ZN": 926,
      "ayi": 927,
      "agu": 928,
      "edlule": 929,
      "obe": 930,
      "zobe": 931,
      "bom": 932,
      "faka": 933,
      "Isithombe": 934,
      "LE": 935,
      "ck": 936,
      "uRamaphosa": 937,
      "banga": 938,
      "baya": 939,
      "buke": 940,
      "ngeSonto": 941,
      "phezulu": 942,
      "kwenzeka": 943,
      "hlangani": 944,
      "selelo": 945,
      "Leagu": 946,
      "llion": 947,
      "League": 948,
      "30": 949,
      "Kho": 950,
      "LA": 951,
      "Ningizimu": 952,
      "Uku": 953,
      "fe": 954,
      "ms": 955,
      "ry": 956,
      "kuya": 957,
      "kumele": 958,
      "lelwe": 959,
      "kwane": 960,
      "ngempela": 961,
      "fundazwe": 962,
      "mpani": 963,
      "Polo": 964,
      ").": 965,
      "Nd": 966,
      "QE": 967,
      "labo": 968,
      "emva": 969,
      "buya": 970,
      "nte": 971,
      "bisa": 972,
      "phathi": 973,
      "wina": 974,
      "Championship": 975,
      "Polokwane": 976,
      "Bo": 977,
      "into": 978,
      "pu": 979,
      "lekile": 980,
      "zami": 981,
      "bonga": 982,
      "mbama": 983,
      "nezin": 984,
      "ngaphansi": 985,
      "ntambama": 986,
      "sika": 987,
      "ndlu": 988,
      "khundleni": 989,
      "gqibelo": 990,
      "onal": 991,
      "UMa": 992,
      "deni": 993,
      "thimba": 994,
      "nabo": 995,
      "nayo": 996,
      "hlale": 997,
      "amaphuzu": 998,
      "isinqumo": 999,
      "Ngco": 1000,
      "kwenze": 1001,
      "nokuthi": 1002,
      "2026": 1003,
      "Africa": 1004,
      "wamanqamu": 1005,
      "okubalwa": 1006,
      "hluku": 1007,
      "am": 1008,
      "them": 1009,
      "bamba": 1010,
      "enj": 1011,
      "lile": 1012,
      "ngale": 1013,
      "bebe": 1014,
      "yanga": 1015,
      "noM": 1016,
      "xhumana": 1017,
      "HA": 1018,
      "Ne": 1019,
      "awu": 1020,
      "ee": 1021,
      "neni": 1022,
      "oyi": 1023,
      "xha": 1024,
      "kanti": 1025,
      "konke": 1026,
      "bone": 1027,
      "ngekho": 1028,
      "kwabo": 1029,
      "ngene": 1030,
      "tshela": 1031,
      "eter": 1032,
      "ngemuva": 1033,
      "kusukela": 1034,
      "Awa": 1035,
      "Dur": 1036,
      "Zuma": 1037,
      "chu": 1038,
      "ezayo": 1039,
      "inga": 1040,
      "ncane": 1041,
      "uba": 1042,
      "wum": 1043,
      "nase": 1044,
      "ngathi": 1045,
      "yela": 1046,
      "yinto": 1047,
      "umbiko": 1048,
      "kelo": 1049,
      "khanka": 1050,
      "bheke": 1051,
      "ekutheni": 1052,
      "khipha": 1053,
      "Durban": 1054,
      "Izi": 1055,
      "iPirates": 1056,
      "ithuba": 1057,
      "oma": 1058,
      "ose": 1059,
      "wuku": 1060,
      "kuze": 1061,
      "bele": 1062,
      "zakhe": 1063,
      "boni": 1064,
      "isicoco": 1065,
      "kwazise": 1066,
      "phenyo": 1067,
      "phendu": 1068,
      "ngoMgqibelo": 1069,
      "Juni": 1070,
      "EP": 1071,
      "Oku": 1072,
      "Pro": 1073,
      "and": 1074,
      "eze": 1075,
      "je": 1076,
      "tsha": 1077,
      "xi": 1078,
      "bazi": 1079,
      "phuma": 1080,
      "ngomunye": 1081,
      "umi": 1082,
      "amaqembu": 1083,
      "khale": 1084,
      "thathe": 1085,
      "doso": 1086,
      "tshwa": 1087,
      "culi": 1088,
      "ardoso": 1089,
      "Fa": 1090,
      "eba": 1091,
      "icala": 1092,
      "kale": 1093,
      "yizi": 1094,
      "abanga": 1095,
      "abakuleli": 1096,
      "zonke": 1097,
      "hlango": 1098,
      "iziqu": 1099,
      "congweni": 1100,
      "bhamu": 1101,
      "ekubeni": 1102,
      "Mot": 1103,
      "000": 1104,
      "cwadi": 1105,
      "igh": 1106,
      "kusasa": 1107,
      "KU": 1108,
      "Pla": 1109,
      "aye": 1110,
      "mnyama": 1111,
      "yu": 1112,
      "kunga": 1113,
      "sebe": 1114,
      "mishini": 1115,
      "khosi": 1116,
      "esikhundleni": 1117,
      "njenge": 1118,
      "phakami": 1119,
      "Bay": 1120,
      "ngaphambi": 1121,
      "bhola": 1122,
      "cwele": 1123,
      "lindeleke": 1124,
      "19": 1125,
      "IN": 1126,
      "Peter": 1127,
      "eyo": 1128,
      "iChiefs": 1129,
      "ll": 1130,
      "ton": 1131,
      "uD": 1132,
      "uhlelo": 1133,
      "vin": 1134,
      "xy": 1135,
      "sizi": 1136,
      "singa": 1137,
      "zobu": 1138,
      "million": 1139,
      "lwano": 1140,
      "amabili": 1141,
      "dinga": 1142,
      "ngokuba": 1143,
      "ric": 1144,
      "phethe": 1145,
      "sungu": 1146,
      "njani": 1147,
      "bulala": 1148,
      "sokuthi": 1149,
      "bank": 1150,
      "Gala": 1151,
      "lingisi": 1152,
      "enjini": 1153,
      "10": 1154,
      "Jo": 1155,
      "Nje": 1156,
      "Ou": 1157,
      "Pa": 1158,
      "ebi": 1159,
      "indlela": 1160,
      "ukwe": 1161,
      "zem": 1162,
      "leke": 1163,
      "enkantolo": 1164,
      "sise": 1165,
      "lona": 1166,
      "sepe": 1167,
      "ndela": 1168,
      "ukuzi": 1169,
      "ngabe": 1170,
      "komi": 1171,
      "yonke": 1172,
      "eri": 1173,
      "Ngesi": 1174,
      "ation": 1175,
      "debe": 1176,
      "hloko": 1177,
      "zwelonke": 1178,
      "ndebe": 1179,
      "wesifazane": 1180,
      "ngamaphuzu": 1181,
      "2024": 1182,
      "cimbini": 1183,
      "ngoMeyi": 1184,
      "Caf": 1185,
      "nkosi": 1186,
      "Ndlovu": 1187,
      "Motsepe": 1188,
      "EF": 1189,
      "Goli": 1190,
      "Hla": 1191,
      "Ko": 1192,
      "Mnyango": 1193,
      "MKP": 1194,
      "cela": 1195,
      "ekhaya": 1196,
      "gcwele": 1197,
      "kisi": 1198,
      "qenjini": 1199,
      "thro": 1200,
      "nina": 1201,
      "saba": 1202,
      "ntshi": 1203,
      "kelwa": 1204,
      "lwane": 1205,
      "amathathu": 1206,
      "fakazi": 1207,
      "ngokungem": 1208,
      "kulesi": 1209,
      "lokuthi": 1210,
      "Bafana": 1211,
      "zokuxhumana": 1212,
      "bulawa": 1213,
      "waseM": 1214,
      "Galaxy": 1215,
      "ngokungemthetho": 1216,
      "15": 1217,
      "BO": 1218,
      "TS": 1219,
      "UC": 1220,
      "Wor": 1221,
      "iya": 1222,
      "ozo": 1223,
      "por": 1224,
      "us": 1225,
      "unga": 1226,
      "xe": 1227,
      "xenye": 1228,
      "enzi": 1229,
      "beli": 1230,
      "umndeni": 1231,
      "abaningi": 1232,
      "200": 1233,
      "ndile": 1234,
      "gilwa": 1235,
      "Ho": 1236,
      "as": 1237,
      "okwa": 1238,
      "tela": 1239,
      "ver": 1240,
      "ws": 1241,
      "lahle": 1242,
      "kathi": 1243,
      "kanjani": 1244,
      "thinta": 1245,
      "yale": 1246,
      "emcimbini": 1247,
      "ntwana": 1248,
      "lwazi": 1249,
      "kwakhe": 1250,
      "ngisho": 1251,
      "thando": 1252,
      "esicongweni": 1253,
      "shintsha": 1254,
      "emidlalweni": 1255,
      "phethro": 1256,
      "suka": 1257,
      "vikela": 1258,
      "kokuqala": 1259,
      "uNkk": 1260,
      "edbank": 1261,
      "nyakenye": 1262,
      "Play": 1263,
      "EFF": 1264,
      "phethroli": 1265,
      "Con": 1266,
      "Sh": 1267,
      "Th": 1268,
      "for": 1269,
      "ibi": 1270,
      "owaye": 1271,
      "uth": 1272,
      "uyi": 1273,
      "lom": 1274,
      "weze": 1275,
      "seka": 1276,
      "ngaphakathi": 1277,
      "buso": 1278,
      "abadlali": 1279,
      "thethweni": 1280,
      "khandlu": 1281,
      "dlale": 1282,
      "kwemi": 1283,
      "izimoto": 1284,
      "Masipala": 1285,
      "fake": 1286,
      "ngenzeka": 1287,
      "qede": 1288,
      "phezu": 1289,
      "iminyaka": 1290,
      "dou": 1291,
      "qhubeke": 1292,
      "Ngiya": 1293,
      "yoMhlaba": 1294,
      "ngempelasonto": 1295,
      "Hlabisa": 1296,
      "ISI": 1297,
      "Par": 1298,
      "ss": 1299,
      "uSi": 1300,
      "vesi": 1301,
      "kuthiwa": 1302,
      "kuwona": 1303,
      "lema": 1304,
      "bakhe": 1305,
      "wabo": 1306,
      "kampani": 1307,
      "wezi": 1308,
      "nawo": 1309,
      "okuthiwa": 1310,
      "yezi": 1311,
      "buzo": 1312,
      "soma": 1313,
      "phazami": 1314,
      "dala": 1315,
      "phisa": 1316,
      "gungu": 1317,
      "bonakala": 1318,
      "tati": 1319,
      "tshudeni": 1320,
      "Ngcobo": 1321,
      "In": 1322,
      "KZN": 1323,
      "abo": 1324,
      "gqo": 1325,
      "nci": 1326,
      "nsela": 1327,
      "ywa": 1328,
      "kum": 1329,
      "kubo": 1330,
      "kuyo": 1331,
      "langa": 1332,
      "lise": 1333,
      "seligi": 1334,
      "emhla": 1335,
      "khokh": 1336,
      "nyanga": 1337,
      "kulumo": 1338,
      "ezinkundleni": 1339,
      "lingisa": 1340,
      "bokufika": 1341,
      "addou": 1342,
      "Ouaddou": 1343,
      "emhlabeni": 1344,
      "Nedbank": 1345,
      "Ra": 1346,
      "azi": 1347,
      "ake": 1348,
      "ePhalamende": 1349,
      "othi": 1350,
      "onga": 1351,
      "uK": 1352,
      "uS": 1353,
      "ywe": 1354,
      "len": 1355,
      "siya": 1356,
      "zile": 1357,
      "weBetway": 1358,
      "nisi": 1359,
      "yise": 1360,
      "zase": 1361,
      "zansi": 1362,
      "kole": 1363,
      "kwayo": 1364,
      "khatha": 1365,
      "muhla": 1366,
      "hluka": 1367,
      "qhude": 1368,
      "nsuku": 1369,
      "izinhlelo": 1370,
      "mpilo": 1371,
      "khankaso": 1372,
      "World": 1373,
      ".”": 1374,
      "AR": 1375,
      "Ndebe": 1376,
      "WE": 1377,
      "You": 1378,
      "an": 1379,
      "gwe": 1380,
      "jwaye": 1381,
      "qh": 1382,
      "lama": 1383,
      "babe": 1384,
      "kaba": 1385,
      "ngalo": 1386,
      "nike": 1387,
      "beke": 1388,
      "sama": 1389,
      "ngonyaka": 1390,
      "mina": 1391,
      "nji": 1392,
      "kise": 1393,
      "tiki": 1394,
      "bhekwe": 1395,
      "hlangana": 1396,
      "South": 1397,
      "phume": 1398,
      "Nokho": 1399,
      "llen": 1400,
      "qinisekisa": 1401,
      "shiyaga": 1402,
      "phathiswa": 1403,
      "komiti": 1404,
      "Ngesikhathi": 1405,
      "HE": 1406,
      "HO": 1407,
      "PS": 1408,
      "St": 1409,
      "ali": 1410,
      "dle": 1411,
      "iSundowns": 1412,
      "mbeni": 1413,
      "per": 1414,
      "poli": 1415,
      "zuzu": 1416,
      "ngxenye": 1417,
      "baba": 1418,
      "sile": 1419,
      "sengathi": 1420,
      "bela": 1421,
      "beka": 1422,
      "sakhe": 1423,
      "ngobu": 1424,
      "nter": 1425,
      "abazo": 1426,
      "son": 1427,
      "qongqoshe": 1428,
      "nyathe": 1429,
      "Ngqongqoshe": 1430,
      "lwela": 1431,
      "hloso": 1432,
      "toli": 1433,
      "tholakala": 1434,
      "celo": 1435,
      "ions": 1436,
      "nabanye": 1437,
      "ester": 1438,
      "Richa": 1439,
      "Cy": 1440,
      "Hu": 1441,
      "KA": 1442,
      "Tha": 1443,
      "THI": 1444,
      "UB": 1445,
      "Zo": 1446,
      "cele": 1447,
      "des": 1448,
      "klo": 1449,
      "nyi": 1450,
      "od": 1451,
      "qwa": 1452,
      "kuyi": 1453,
      "kuwo": 1454,
      "kuyona": 1455,
      "ngco": 1456,
      "wayo": 1457,
      "ziwe": 1458,
      "ndisi": 1459,
      "ngawo": 1460,
      "sanda": 1461,
      "ngeka": 1462,
      "sola": 1463,
      "amane": 1464,
      "amazwe": 1465,
      "kwethu": 1466,
      "mufi": 1467,
      "Ngema": 1468,
      "khulumela": 1469,
      "finye": 1470,
      "giji": 1471,
      "suke": 1472,
      "wesilisa": 1473,
      "phakathini": 1474,
      "Pitoli": 1475,
      "fanayo": 1476,
      "UNksz": 1477,
      "yesibili": 1478,
      "vota": 1479,
      "besifazane": 1480,
      "Stellen": 1481,
      "qhudelwano": 1482,
      "politiki": 1483,
      "Stellenbo": 1484,
      "Bu": 1485,
      "Ch": 1486,
      "Of": 1487,
      "Phi": 1488,
      "SHI": 1489,
      "dli": 1490,
      "eza": 1491,
      "mhla": 1492,
      "nwa": 1493,
      "sch": 1494,
      "uphenyo": 1495,
      "kubona": 1496,
      "ngemi": 1497,
      "sihlalo": 1498,
      "kabi": 1499,
      "lomo": 1500,
      "nalo": 1501,
      "ndweni": 1502,
      "ndlovu": 1503,
      "abasolwa": 1504,
      "zelwa": 1505,
      "solo": 1506,
      "khutha": 1507,
      "njwa": 1508,
      "muka": 1509,
      "ndondo": 1510,
      "wula": 1511,
      "hlongo": 1512,
      "Kuthiwa": 1513,
      "ndisa": 1514,
      "tshele": 1515,
      "ubuholi": 1516,
      "2025": 1517,
      "phumele": 1518,
      "buyela": 1519,
      "gqugqu": 1520,
      "Richards": 1521,
      "Stellenbosch": 1522,
      "AM": 1523,
      "Angi": 1524,
      "IX": 1525,
      "Lions": 1526,
      "Spor": 1527,
      "dy": 1528,
      "iligi": 1529,
      "ju": 1530,
      "os": 1531,
      "res": 1532,
      "uzi": 1533,
      "visi": 1534,
      "vuma": 1535,
      "kukho": 1536,
      "bakuleli": 1537,
      "siba": 1538,
      "sini": 1539,
      "khwama": 1540,
      "linga": 1541,
      "liswa": 1542,
      "namuhla": 1543,
      "sazi": 1544,
      "yize": 1545,
      "bonge": 1546,
      "boshwa": 1547,
      "noN": 1548,
      "ezimbili": 1549,
      "njengo": 1550,
      "Nge": 1551,
      "ngenyanga": 1552,
      "hleli": 1553,
      "hola": 1554,
      "inselelo": 1555,
      "uthelezi": 1556,
      "bhala": 1557,
      "nezinye": 1558,
      "kubalwa": 1559,
      "entsha": 1560,
      "kwamanye": 1561,
      "gomo": 1562,
      "ngoLwesithathu": 1563,
      "ngoLwesihlanu": 1564,
      "humalo": 1565,
      "bezindaba": 1566,
      "11": 1567,
      "Al": 1568,
      "Eph": 1569,
      "Fou": 1570,
      "Lu": 1571,
      "Thu": 1572,
      "Uveze": 1573,
      "ayisi": 1574,
      "ction": 1575,
      "eqenjini": 1576,
      "fed": 1577,
      "gesi": 1578,
      "ibe": 1579,
      "reli": 1580,
      "vume": 1581,
      "kuM": 1582,
      "kundla": 1583,
      "layi": 1584,
      "lezwe": 1585,
      "bafuna": 1586,
      "enkundleni": 1587,
      "selwa": 1588,
      "beki": 1589,
      "yeMa": 1590,
      "yeBetway": 1591,
      "abanye": 1592,
      "abalandeli": 1593,
      "kon": 1594,
      "sona": 1595,
      "amalungu": 1596,
      "funi": 1597,
      "thombo": 1598,
      "shiwe": 1599,
      "qokwa": 1600,
      "qonda": 1601,
      "fani": 1602,
      "nyangweni": 1603,
      "holwa": 1604,
      "Siwe": 1605,
      "umalo": 1606,
      "yokuqala": 1607,
      "shesha": 1608,
      "ville": 1609,
      "thethosise": 1610,
      "Ngizwe": 1611,
      "eNkantolo": 1612,
      "umelelo": 1613,
      "mbulu": 1614,
      "bomvu": 1615,
      "Khomishini": 1616,
      "phakamiso": 1617,
      "Confed": 1618,
      "gungundlovu": 1619,
      "ngcono": 1620,
      "Ephreli": 1621,
      ");": 1622,
      "AG": 1623,
      "CKP": 1624,
      "Emuva": 1625,
      "Leli": 1626,
      "ULI": 1627,
      "Yi": 1628,
      "ZI": 1629,
      "ekhuluma": 1630,
      "ise": 1631,
      "ikakhulu": 1632,
      "meme": 1633,
      "nthi": 1634,
      "oda": 1635,
      "ongum": 1636,
      "rug": 1637,
      "sse": 1638,
      "uveze": 1639,
      "kanzima": 1640,
      "kazwelonke": 1641,
      "weqembu": 1642,
      "wethimba": 1643,
      "ngawu": 1644,
      "okuyi": 1645,
      "ngokwe": 1646,
      "ngoJuni": 1647,
      "yedwa": 1648,
      "emphakathini": 1649,
      "umcimbi": 1650,
      "umsolwa": 1651,
      "kelele": 1652,
      "zabo": 1653,
      "zange": 1654,
      "abasebenzi": 1655,
      "abafundi": 1656,
      "kosi": 1657,
      "koleni": 1658,
      "bonke": 1659,
      "thele": 1660,
      "nozi": 1661,
      "ndation": 1662,
      "Ngoku": 1663,
      "lwengu": 1664,
      "ris": 1665,
      "fisa": 1666,
      "phini": 1667,
      "teshi": 1668,
      "qhuba": 1669,
      "doko": 1670,
      "doda": 1671,
      "kokuthi": 1672,
      "wokuqala": 1673,
      "wabakhaya": 1674,
      "ngqongqoshe": 1675,
      "fundazweni": 1676,
      "neminyaka": 1677,
      "mpahla": 1678,
      "BACKP": 1679,
      "Dlamini": 1680,
      "bukeka": 1681,
      "thembi": 1682,
      "EPIX": 1683,
      "Njengoba": 1684,
      "Foundation": 1685,
      "yeMantshi": 1686,
      "Siwelele": 1687,
      "thethosisekelo": 1688,
      "AGEPIX": 1689,
      "nthia": 1690,
      "BACKPAGEPIX": 1691,
      "25": 1692,
      "Ada": 1693,
      "FA": 1694,
      "Fi": 1695,
      "Fu": 1696,
      "Mor": 1697,
      "SE": 1698,
      "dela": 1699,
      "dlwengu": 1700,
      "epha": 1701,
      "eMa": 1702,
      "ional": 1703,
      "kt": 1704,
      "nza": 1705,
      "obeku": 1706,
      "okokuqala": 1707,
      "uZ": 1708,
      "enza": 1709,
      "zisi": 1710,
      "zizo": 1711,
      "lima": 1712,
      "nani": 1713,
      "nazo": 1714,
      "ukuyi": 1715,
      "bengi": 1716,
      "lutho": 1717,
      "saka": 1718,
      "yethu": 1719,
      "zaba": 1720,
      "zeke": 1721,
      "minyaka": 1722,
      "som": 1723,
      "ngiya": 1724,
      "amaciko": 1725,
      "kweni": 1726,
      "eziningi": 1727,
      "kibha": 1728,
      "mukela": 1729,
      "ndon": 1730,
      "hovisi": 1731,
      "emibili": 1732,
      "uMi": 1733,
      "sebenze": 1734,
      "ril": 1735,
      "tional": 1736,
      "bhedlela": 1737,
      "bhali": 1738,
      "duze": 1739,
      "tshenzi": 1740,
      "zokuthi": 1741,
      "kokuba": 1742,
      "nabantu": 1743,
      "wine": 1744,
      "yesithathu": 1745,
      "hambela": 1746,
      "pula": 1747,
      "chunu": 1748,
      "ford": 1749,
      "Cyril": 1750,
      "nozinti": 1751,
      "Adams": 1752,
      "23": 1753,
      "Ab": 1754,
      "Da": 1755,
      "Do": 1756,
      "Esi": 1757,
      "Hlo": 1758,
      "Inde": 1759,
      "Inter": 1760,
      "Mfundo": 1761,
      "Okhulumela": 1762,
      "Vi": 1763,
      "angi": 1764,
      "eye": 1765,
      "ezweni": 1766,
      "ibhola": 1767,
      "jo": 1768,
      "mqoka": 1769,
      "pm": 1770,
      "ukwenza": 1771,
      "xumalo": 1772,
      "kuhulumeni": 1773,
      "kungenzeka": 1774,
      "lapha": 1775,
      "lande": 1776,
      "wane": 1777,
      "wezoku": 1778,
      "ukunga": 1779,
      "ukusebenza": 1780,
      "ber": 1781,
      "lule": 1782,
      "emp": 1783,
      "umculo": 1784,
      "ntweni": 1785,
      "abangu": 1786,
      "hambisana": 1787,
      "misele": 1788,
      "lwama": 1789,
      "kwalokho": 1790,
      "ngisa": 1791,
      "amacala": 1792,
      "eside": 1793,
      "ezinye": 1794,
      "ezinda": 1795,
      "ezihlukene": 1796,
      "isigameko": 1797,
      "shisa": 1798,
      "dayisa": 1799,
      "qaleni": 1800,
      "dlula": 1801,
      "National": 1802,
      "wokuthi": 1803,
      "senkantolo": 1804,
      "qeqesha": 1805,
      "cwani": 1806,
      "Ngapha": 1807,
      "Abantu": 1808,
      "nyuka": 1809,
      "pheleni": 1810,
      "thweswa": 1811,
      "chaza": 1812,
      "Nakuba": 1813,
      "hlakalo": 1814,
      "QEQE": 1815,
      "Awards": 1816,
      "yalezo": 1817,
      "Yousse": 1818,
      "gijima": 1819,
      "Offs": 1820,
      "QEQESHI": 1821,
      "Youssef": 1822,
      "Beku": 1823,
      "De": 1824,
      "etha": 1825,
      "eqo": 1826,
      "eyoku": 1827,
      "ebesi": 1828,
      "ePitoli": 1829,
      "gama": 1830,
      "iM": 1831,
      "im": 1832,
      "ithe": 1833,
      "iCo": 1834,
      "jele": 1835,
      "pend": 1836,
      "rs": 1837,
      "usu": 1838,
      "ute": 1839,
      "ukhetho": 1840,
      "wn": 1841,
      "zz": 1842,
      "zemi": 1843,
      "kuqala": 1844,
      "babo": 1845,
      "siwe": 1846,
      "zika": 1847,
      "kheni": 1848,
      "khwana": 1849,
      "lini": 1850,
      "linye": 1851,
      "thile": 1852,
      "pheli": 1853,
      "okunye": 1854,
      "umela": 1855,
      "umphakathi": 1856,
      "ntsho": 1857,
      "zakwabo": 1858,
      "zelwe": 1859,
      "amanye": 1860,
      "amandla": 1861,
      "izinisi": 1862,
      "muzi": 1863,
      "mbiko": 1864,
      "dingeka": 1865,
      "esu": 1866,
      "inq": 1867,
      "phiko": 1868,
      "phinda": 1869,
      "vula": 1870,
      "bhande": 1871,
      "ekuseni": 1872,
      "shelwe": 1873,
      "zwakala": 1874,
      "Gaute": 1875,
      "Univer": 1876,
      "pilo": 1877,
      "khumbula": 1878,
      "Gold": 1879,
      "Zimnyama": 1880,
      "bhiki": 1881,
      "hlanganisa": 1882,
      "ight": 1883,
      "Petersen": 1884,
      "tatimende": 1885,
      "khokhela": 1886,
      "Independ": 1887,
      "khwanazi": 1888,
      "Gauteng": 1889,
      "Independent": 1890,
      "12": 1891,
      "13": 1892,
      "Asi": 1893,
      "CC": 1894,
      "Em": 1895,
      "Krug": 1896,
      "WA": 1897,
      "con": 1898,
      "cabanga": 1899,
      "eyisi": 1900,
      "ePolokwane": 1901,
      "eGoli": 1902,
      "gqa": 1903,
      "hhovisi": 1904,
      "km": 1905,
      "keme": 1906,
      "pp": 1907,
      "yeni": 1908,
      "kulindeleke": 1909,
      "ngcwa": 1910,
      "ngxo": 1911,
      "war": 1912,
      "enkulu": 1913,
      "ence": 1914,
      "sity": 1915,
      "sikhwama": 1916,
      "weto": 1917,
      "national": 1918,
      "benga": 1919,
      "yabo": 1920,
      "yayo": 1921,
      "ngozi": 1922,
      "ngomdlalo": 1923,
      "yePremiership": 1924,
      "emu": 1925,
      "yiseni": 1926,
      "ababili": 1927,
      "bit": 1928,
      "kwaku": 1929,
      "khukhu": 1930,
      "khakha": 1931,
      "elali": 1932,
      "izili": 1933,
      "ezinta": 1934,
      "thuze": 1935,
      "thuthu": 1936,
      "shiye": 1937,
      "eration": 1938,
      "shana": 1939,
      "hlele": 1940,
      "kwiNdebe": 1941,
      "uMnyango": 1942,
      "inkulumo": 1943,
      "Kule": 1944,
      "bhakela": 1945,
      "UMQEQESHI": 1946,
      "vivin": 1947,
      "Soweto": 1948,
      "culweni": 1949,
      "qiniso": 1950,
      "wenza": 1951,
      "Nov": 1952,
      "voti": 1953,
      "balala": 1954,
      "kusuka": 1955,
      "poti": 1956,
      "hlonipha": 1957,
      "yelana": 1958,
      "hlangothi": 1959,
      "yuvesi": 1960,
      "dokotela": 1961,
      "tshenziswa": 1962,
      "International": 1963,
      "ezindaweni": 1964,
      "University": 1965,
      "24": 1966,
      "DE": 1967,
      "Ea": 1968,
      "IPirates": 1969,
      "Khumalo": 1970,
      "Mhlongo": 1971,
      "Nkantolo": 1972,
      "Nxumalo": 1973,
      "Tho": 1974,
      "US": 1975,
      "VAR": 1976,
      "Za": 1977,
      "Zwe": 1978,
      "don": 1979,
      "gxe": 1980,
      "hlwe": 1981,
      "ir": 1982,
      "iza": 1983,
      "indebe": 1984,
      "keni": 1985,
      "nweni": 1986,
      "ol": 1987,
      "ynthia": 1988,
      "zwi": 1989,
      "kuna": 1990,
      "lani": 1991,
      "lack": 1992,
      "lethu": 1993,
      "man": 1994,
      "lombili": 1995,
      "nika": 1996,
      "emculweni": 1997,
      "umthetho": 1998,
      "abasa": 1999,
      "abasha": 2000,
      "kowamanqamu": 2001,
      "bophe": 2002,
      "bizwa": 2003,
      "phatha": 2004,
      "khundla": 2005,
      "hlathuze": 2006,
      "dlalela": 2007,
      "esifundazweni": 2008,
      "isimo": 2009,
      "thule": 2010,
      "bhizinisi": 2011,
      "daweni": 2012,
      "dingo": 2013,
      "ngokushesha": 2014,
      "ngenza": 2015,
      "hlelweni": 2016,
      "kwiCaf": 2017,
      "Sifuna": 2018,
      "inkantolo": 2019,
      "Kulo": 2020,
      "sebenzise": 2021,
      "UME": 2022,
      "dudu": 2023,
      "Super": 2024,
      "ment": 2025,
      "sendaweni": 2026,
      "umufi": 2027,
      "kwesizini": 2028,
      "Orbit": 2029,
      "llies": 2030,
      "Cape": 2031,
      "ngwane": 2032,
      "UKZN": 2033,
      "uCardoso": 2034,
      "Stellies": 2035,
      "nyakeni": 2036,
      "hlukume": 2037,
      "hlangothini": 2038,
      "njiswa": 2039,
      "shiyagalombili": 2040,
      "PSL": 2041,
      "nyathelo": 2042,
      "Sports": 2043,
      "Confederation": 2044,
      "pulazini": 2045,
      "Kruger": 2046,
      "Novemba": 2047,
      "16": 2048,
      "100": 2049,
      "Black": 2050,
      "DLA": 2051,
      "FM": 2052,
      "Ki": 2053,
      "Musi": 2054,
      "Mchunu": 2055,
      "ear": 2056,
      "ehlukene": 2057,
      "ebezi": 2058,
      "ly": 2059,
      "obala": 2060,
      "ssi": 2061,
      "sweni": 2062,
      "ukwazi": 2063,
      "ukhale": 2064,
      "kuthi": 2065,
      "kuse": 2066,
      "lam": 2067,
      "bayi": 2068,
      "wam": 2069,
      "wazi": 2070,
      "wari": 2071,
      "ener": 2072,
      "siyi": 2073,
      "sifundazwe": 2074,
      "kangaka": 2075,
      "kaphethroli": 2076,
      "manga": 2077,
      "maqembu": 2078,
      "weMamelodi": 2079,
      "sema": 2080,
      "lulekile": 2081,
      "nes": 2082,
      "umlando": 2083,
      "umqeqeshi": 2084,
      "zoba": 2085,
      "komdlalo": 2086,
      "ngele": 2087,
      "ngezin": 2088,
      "sonke": 2089,
      "sombulu": 2090,
      "isicelo": 2091,
      "thubeni": 2092,
      "dayi": 2093,
      "dabu": 2094,
      "dia": 2095,
      "phoyiseni": 2096,
      "hlela": 2097,
      "onke": 2098,
      "house": 2099,
      "Silo": 2100,
      "mbalwa": 2101,
      "mehlo": 2102,
      "hinga": 2103,
      "kwenziwa": 2104,
      "vule": 2105,
      "gada": 2106,
      "hlukile": 2107,
      "mbela": 2108,
      "bonakale": 2109,
      "gcineni": 2110,
      "landele": 2111,
      "dlunkulu": 2112,
      "dolo": 2113,
      "khishwe": 2114,
      "cula": 2115,
      "qinisa": 2116,
      "phenya": 2117,
      "tuli": 2118,
      "eNingizimu": 2119,
      "bhekane": 2120,
      "ster": 2121,
      "eyayi": 2122,
      "buyele": 2123,
      "ngoLwesibili": 2124,
      "wombeni": 2125,
      "omazisi": 2126,
      "ezehlukene": 2127,
      "bhikisho": 2128,
      "14": 2129,
      "17": 2130,
      "21": 2131,
      "Be": 2132,
      "CULI": 2133,
      "Duma": 2134,
      "Gu": 2135,
      "Kh": 2136,
      "Re": 2137,
      "Yize": 2138,
      "ct": 2139,
      "caba": 2140,
      "dlelwa": 2141,
      "eLo": 2142,
      "ebho": 2143,
      "gco": 2144,
      "hha": 2145,
      "impilo": 2146,
      "lford": 2147,
      "omu": 2148,
      "odlule": 2149,
      "rg": 2150,
      "ski": 2151,
      "tso": 2152,
      "usuku": 2153,
      "lawu": 2154,
      "bathi": 2155,
      "wayi": 2156,
      "kayo": 2157,
      "kancane": 2158,
      "loli": 2159,
      "thikithi": 2160,
      "nabezindaba": 2161,
      "ukum": 2162,
      "ukuthola": 2163,
      "ngabomvu": 2164,
      "yam": 2165,
      "necala": 2166,
      "buyi": 2167,
      "abazi": 2168,
      "abaholi": 2169,
      "kwati": 2170,
      "songa": 2171,
      "khule": 2172,
      "amanzi": 2173,
      "khakheni": 2174,
      "thaka": 2175,
      "esinga": 2176,
      "esibhedlela": 2177,
      "ezingu": 2178,
      "shiwo": 2179,
      "Mar": 2180,
      "elizo": 2181,
      "khethe": 2182,
      "hlehli": 2183,
      "benze": 2184,
      "kwiChiefs": 2185,
      "holele": 2186,
      "Sizo": 2187,
      "uMo": 2188,
      "uzwa": 2189,
      "fiso": 2190,
      "mpetha": 2191,
      "phepha": 2192,
      "pheshe": 2193,
      "hlulwa": 2194,
      "wesicoco": 2195,
      "UMCULI": 2196,
      "gugu": 2197,
      "gcini": 2198,
      "Bar": 2199,
      "rows": 2200,
      "hlanganweni": 2201,
      "khiqi": 2202,
      "jaho": 2203,
      "sokuqala": 2204,
      "kubantu": 2205,
      "Come": 2206,
      "igoli": 2207,
      "Arrows": 2208,
      "shayela": 2209,
      "Diski": 2210,
      "nkulumo": 2211,
      "semthethweni": 2212,
      "ngokubambisana": 2213,
      "Kodwa": 2214,
      "Park": 2215,
      "phazamisa": 2216,
      "klomelo": 2217,
      "mhlanje": 2218,
      "ikakhulukazi": 2219,
      "sombuluko": 2220,
      "26": 2221,
      "Aya": 2222,
      "Ben": 2223,
      "Buthelezi": 2224,
      "Car": 2225,
      "Cardoso": 2226,
      "Emi": 2227,
      "Je": 2228,
      "King": 2229,
      "LO": 2230,
      "Mu": 2231,
      "Spoti": 2232,
      "UT": 2233,
      "awa": 2234,
      "ahlukene": 2235,
      "dum": 2236,
      "fy": 2237,
      "gq": 2238,
      "ine": 2239,
      "iyi": 2240,
      "iPhalamende": 2241,
      "iNingizimu": 2242,
      "msebenzi": 2243,
      "nhla": 2244,
      "oc": 2245,
      "ufuna": 2246,
      "uKa": 2247,
      "kuye": 2248,
      "kulokhu": 2249,
      "kuphele": 2250,
      "ngqi": 2251,
      "lena": 2252,
      "bam": 2253,
      "bayo": 2254,
      "bambe": 2255,
      "walo": 2256,
      "zinga": 2257,
      "sekho": 2258,
      "selwe": 2259,
      "ngalolu": 2260,
      "okunga": 2261,
      "yayi": 2262,
      "yami": 2263,
      "sase": 2264,
      "sabalala": 2265,
      "ngoNovemba": 2266,
      "yingxenye": 2267,
      "ntshwa": 2268,
      "zamo": 2269,
      "zezi": 2270,
      "thenga": 2271,
      "amagoli": 2272,
      "kwele": 2273,
      "izikhulu": 2274,
      "thunzi": 2275,
      "Mashi": 2276,
      "qoqa": 2277,
      "daka": 2278,
      "Sihlalo": 2279,
      "caci": 2280,
      "emithathu": 2281,
      "vaka": 2282,
      "kulezi": 2283,
      "nokuzi": 2284,
      "gabeni": 2285,
      "tshwe": 2286,
      "menye": 2287,
      "ubufakazi": 2288,
      "emaphoyiseni": 2289,
      "khiphe": 2290,
      "khishwa": 2291,
      "Mokaba": 2292,
      "esele": 2293,
      "ard": 2294,
      "embangweni": 2295,
      "ntileka": 2296,
      "UNG": 2297,
      "igama": 2298,
      "Sekhukhu": 2299,
      "fundisa": 2300,
      "qinisekisi": 2301,
      "pilweni": 2302,
      "qhaza": 2303,
      "nkampani": 2304,
      "Milford": 2305,
      "sebenzisana": 2306,
      "Champions": 2307,
      "nobuso": 2308,
      "chitha": 2309,
      "African": 2310,
      "eyodwa": 2311,
      "uDkt": 2312,
      "lenze": 2313,
      "lingana": 2314,
      "konzo": 2315,
      "Golden": 2316,
      "ngxoxo": 2317,
      "Spotify": 2318,
      "Sekhukhune": 2319,
      "Au": 2320,
      "ABA": 2321,
      "BC": 2322,
      "Best": 2323,
      "Eng": 2324,
      "ELI": 2325,
      "FN": 2326,
      "Ha": 2327,
      "Imi": 2328,
      "Iso": 2329,
      "Me": 2330,
      "Nkosi": 2331,
      "Ndlunkulu": 2332,
      "Ntuli": 2333,
      "Seku": 2334,
      "athe": 2335,
      "epulazini": 2336,
      "izwe": 2337,
      "igebe": 2338,
      "ithemba": 2339,
      "ibhande": 2340,
      "ru": 2341,
      "vumela": 2342,
      "thenda": 2343,
      "bandla": 2344,
      "sithi": 2345,
      "sikhathi": 2346,
      "kade": 2347,
      "nathi": 2348,
      "naso": 2349,
      "sengi": 2350,
      "ndu": 2351,
      "ukukhu": 2352,
      "nini": 2353,
      "bezo": 2354,
      "okufanele": 2355,
      "yalo": 2356,
      "empe": 2357,
      "empilweni": 2358,
      "abaku": 2359,
      "abafuna": 2360,
      "abangena": 2361,
      "abazobe": 2362,
      "zethu": 2363,
      "kohlakalo": 2364,
      "thethwa": 2365,
      "nonyaka": 2366,
      "khomba": 2367,
      "lwakhe": 2368,
      "khungweni": 2369,
      "tholi": 2370,
      "isithunzi": 2371,
      "thupha": 2372,
      "cishe": 2373,
      "mbazo": 2374,
      "esti": 2375,
      "meya": 2376,
      "phikisa": 2377,
      "mpo": 2378,
      "mpumelelo": 2379,
      "nokuyi": 2380,
      "gij": 2381,
      "sheshe": 2382,
      "yisibhakela": 2383,
      "wokugcina": 2384,
      "xazulu": 2385,
      "jabula": 2386,
      "Kapa": 2387,
      "bulawe": 2388,
      "2023": 2389,
      "Comp": 2390,
      "wenze": 2391,
      "ngabantu": 2392,
      "phula": 2393,
      "phutha": 2394,
      "akukho": 2395,
      "Safa": 2396,
      "ngoLwesine": 2397,
      "sesibili": 2398,
      "Julayi": 2399,
      "uTha": 2400,
      "nxuse": 2401,
      "Shange": 2402,
      "hlonishwa": 2403,
      "yabantu": 2404,
      "Dladla": 2405,
      "bukeli": 2406,
      "Award": 2407,
      "eria": 2408,
      "Ngeke": 2409,
      "Ngokusho": 2410,
      "Ngaphandle": 2411,
      "vivinyo": 2412,
      "DLALI": 2413,
      "FNB": 2414,
      "22": 2415,
      "27": 2416,
      "50": 2417,
      "Mthethwa": 2418,
      "Pho": 2419,
      "Ske": 2420,
      "Stat": 2421,
      "Uqhube": 2422,
      "dumo": 2423,
      "ejele": 2424,
      "ilu": 2425,
      "iphinde": 2426,
      "mlomo": 2427,
      "nce": 2428,
      "op": 2429,
      "okhe": 2430,
      "qweni": 2431,
      "sene": 2432,
      "uSa": 2433,
      "uthando": 2434,
      "kuMasipala": 2435,
      "bani": 2436,
      "bakwazi": 2437,
      "wami": 2438,
      "size": 2439,
      "sifuna": 2440,
      "zima": 2441,
      "kaMa": 2442,
      "lor": 2443,
      "thinte": 2444,
      "nandi": 2445,
      "namhlanje": 2446,
      "ndwe": 2447,
      "ndezi": 2448,
      "ukuyo": 2449,
      "ukuvota": 2450,
      "ngalesi": 2451,
      "sazo": 2452,
      "ngosuku": 2453,
      "yezin": 2454,
      "buyisa": 2455,
      "umkhankaso": 2456,
      "kepha": 2457,
      "zalwa": 2458,
      "abayi": 2459,
      "koM": 2460,
      "kobu": 2461,
      "koena": 2462,
      "bono": 2463,
      "bika": 2464,
      "yoni": 2465,
      "misa": 2466,
      "nogada": 2467,
      "khonjiswa": 2468,
      "sodwa": 2469,
      "phambi": 2470,
      "thathwa": 2471,
      "esizo": 2472,
      "esigabeni": 2473,
      "tholile": 2474,
      "izingane": 2475,
      "ezithinta": 2476,
      "isiphakamiso": 2477,
      "MaZulu": 2478,
      "Mambazo": 2479,
      "kiswa": 2480,
      "qokwe": 2481,
      "cial": 2482,
      "cindezi": 2483,
      "shaywe": 2484,
      "ate": 2485,
      "ngenhloso": 2486,
      "bene": 2487,
      "uMengameli": 2488,
      "sebenzini": 2489,
      "val": 2490,
      "inkinga": 2491,
      "fini": 2492,
      "phila": 2493,
      "mpempe": 2494,
      "hlomu": 2495,
      "phethwe": 2496,
      "nokuyinto": 2497,
      "vulele": 2498,
      "hluleka": 2499,
      "dutshu": 2500,
      "Somlomo": 2501,
      "kulunkulu": 2502,
      "namanye": 2503,
      "Colle": 2504,
      "ree": 2505,
      "kwenzayo": 2506,
      "wenya": 2507,
      "UNkk": 2508,
      "wabadlali": 2509,
      "eMgungundlovu": 2510,
      "kuzobe": 2511,
      "AmaZulu": 2512,
      "Ngakho": 2513,
      "ngoMsombuluko": 2514,
      "kwamanje": 2515,
      "Arena": 2516,
      "nqobe": 2517,
      "kwabantu": 2518,
      "nxusa": 2519,
      "khumbu": 2520,
      "hlukunye": 2521,
      "News": 2522,
      "umile": 2523,
      "197": 2524,
      "sungulwa": 2525,
      "celeni": 2526,
      "gqugquzela": 2527,
      "ntshontshwa": 2528,
      "hlukumeza": 2529,
      "dakami": 2530,
      "Isolezwe": 2531,
      "okhethweni": 2532,
      "28": 2533,
      "Aku": 2534,
      "DI": 2535,
      "Du": 2536,
      "Gener": 2537,
      "Inkosi": 2538,
      "Kwen": 2539,
      "Lesi": 2540,
      "Mzansi": 2541,
      "Omunye": 2542,
      "QO": 2543,
      "Ta": 2544,
      "URamaphosa": 2545,
      "ale": 2546,
      "cer": 2547,
      "che": 2548,
      "dizili": 2549,
      "efuna": 2550,
      "eMo": 2551,
      "fela": 2552,
      "gxi": 2553,
      "id": 2554,
      "iso": 2555,
      "joyi": 2556,
      "lla": 2557,
      "nch": 2558,
      "ongqongqoshe": 2559,
      "pers": 2560,
      "qulu": 2561,
      "sta": 2562,
      "ter": 2563,
      "uthi": 2564,
      "uthole": 2565,
      "uhulumeni": 2566,
      "ulwazi": 2567,
      "xoli": 2568,
      "ngwe": 2569,
      "lex": 2570,
      "bali": 2571,
      "enya": 2572,
      "sigameko": 2573,
      "zibe": 2574,
      "zisa": 2575,
      "zimele": 2576,
      "zinsuku": 2577,
      "kaM": 2578,
      "kaze": 2579,
      "mayelana": 2580,
      "lizo": 2581,
      "lodwa": 2582,
      "nakho": 2583,
      "nakuba": 2584,
      "phena": 2585,
      "ukula": 2586,
      "ukuqeda": 2587,
      "ngase": 2588,
      "ngabo": 2589,
      "ngameli": 2590,
      "nikwa": 2591,
      "bethu": 2592,
      "yawo": 2593,
      "ement": 2594,
      "emsebenzini": 2595,
      "yin": 2596,
      "zani": 2597,
      "abase": 2598,
      "bile": 2599,
      "hambo": 2600,
      "nompempe": 2601,
      "kholwa": 2602,
      "lwaba": 2603,
      "kwathi": 2604,
      "kwami": 2605,
      "phara": 2606,
      "hlaya": 2607,
      "amaningi": 2608,
      "khansela": 2609,
      "dlame": 2610,
      "elembe": 2611,
      "esiwombeni": 2612,
      "kwesoku": 2613,
      "ezinga": 2614,
      "ezizo": 2615,
      "njengom": 2616,
      "qopha": 2617,
      "qondo": 2618,
      "qophe": 2619,
      "fakwa": 2620,
      "nyathi": 2621,
      "dalule": 2622,
      "ndoda": 2623,
      "khelwa": 2624,
      "ngokuzi": 2625,
      "kwiPremiership": 2626,
      "khulume": 2627,
      "cast": 2628,
      "emine": 2629,
      "eminyaka": 2630,
      "uMntwana": 2631,
      "mengameli": 2632,
      "Kuzo": 2633,
      "Kufanele": 2634,
      "giso": 2635,
      "gibeli": 2636,
      "gula": 2637,
      "lokuqala": 2638,
      "duna": 2639,
      "quko": 2640,
      "roos": 2641,
      "velo": 2642,
      "senal": 2643,
      "2021": 2644,
      "abesi": 2645,
      "umoya": 2646,
      "endawo": 2647,
      "ndawonye": 2648,
      "Ngale": 2649,
      "Sep": 2650,
      "fonte": 2651,
      "Arsenal": 2652,
      "qhawe": 2653,
      "ziwayo": 2654,
      "hlizi": 2655,
      "yoMthethosisekelo": 2656,
      "jabulisa": 2657,
      "lungiswa": 2658,
      "gwaza": 2659,
      "kithina": 2660,
      "sunguli": 2661,
      "Shelembe": 2662,
      "akekho": 2663,
      "jwayele": 2664,
      "kwethulwa": 2665,
      "finyelela": 2666,
      "restu": 2667,
      "landelwa": 2668,
      "ezintathu": 2669,
      "Music": 2670,
      "Khrestu": 2671,
      "Comedy": 2672,
      "occo": 2673,
      "Complex": 2674,
      "College": 2675,
      "dakamizwa": 2676,
      "General": 2677,
      "phenathi": 2678,
      "fontein": 2679,
      "18": 2680,
      "Bi": 2681,
      "Bra": 2682,
      "CE": 2683,
      "EN": 2684,
      "Gra": 2685,
      "High": 2686,
      "IZ": 2687,
      "ISundowns": 2688,
      "KE": 2689,
      "Kwi": 2690,
      "PA": 2691,
      "Pri": 2692,
      "PHA": 2693,
      "Sho": 2694,
      "Stu": 2695,
      "TO": 2696,
      "Thi": 2697,
      "Tas": 2698,
      "YA": 2699,
      "YE": 2700,
      "abu": 2701,
      "ayo": 2702,
      "cho": 2703,
      "ces": 2704,
      "cre": 2705,
      "ewu": 2706,
      "ftu": 2707,
      "gaba": 2708,
      "hlwa": 2709,
      "iba": 2710,
      "iMa": 2711,
      "jezi": 2712,
      "mqhudelwano": 2713,
      "ongu": 2714,
      "oseku": 2715,
      "omunye": 2716,
      "owesifazane": 2717,
      "oyedwa": 2718,
      "tlala": 2719,
      "ul": 2720,
      "ut": 2721,
      "usizo": 2722,
      "uLi": 2723,
      "uKha": 2724,
      "unina": 2725,
      "uNgizwe": 2726,
      "kuyena": 2727,
      "kuqale": 2728,
      "lana": 2729,
      "lelo": 2730,
      "mane": 2731,
      "masipala": 2732,
      "khele": 2733,
      "litha": 2734,
      "linde": 2735,
      "lohulumeni": 2736,
      "wele": 2737,
      "weligi": 2738,
      "wekomiti": 2739,
      "ses": 2740,
      "setshenziswa": 2741,
      "nder": 2742,
      "ukupha": 2743,
      "ukusho": 2744,
      "ukudlala": 2745,
      "ngayi": 2746,
      "ngazo": 2747,
      "nisa": 2748,
      "okuzo": 2749,
      "okungu": 2750,
      "yazi": 2751,
      "neqembu": 2752,
      "neKaizer": 2753,
      "sayo": 2754,
      "yeligi": 2755,
      "emthethweni": 2756,
      "yili": 2757,
      "burg": 2758,
      "umthombo": 2759,
      "kelwe": 2760,
      "zekile": 2761,
      "thela": 2762,
      "hambisa": 2763,
      "khono": 2764,
      "ngeli": 2765,
      "ngeza": 2766,
      "lwango": 2767,
      "sondo": 2768,
      "sontweni": 2769,
      "ngiku": 2770,
      "nginga": 2771,
      "khanda": 2772,
      "kwemali": 2773,
      "izinga": 2774,
      "izinyathelo": 2775,
      "ezifu": 2776,
      "shiswa": 2777,
      "Malema": 2778,
      "woMnyango": 2779,
      "nyelwe": 2780,
      "mukele": 2781,
      "qondisi": 2782,
      "phonsela": 2783,
      "ngokusemthethweni": 2784,
      "benza": 2785,
      "kwiBetway": 2786,
      "umalanga": 2787,
      "cob": 2788,
      "vale": 2789,
      "mont": 2790,
      "bheyili": 2791,
      "hlungu": 2792,
      "ekuqaleni": 2793,
      "wesibili": 2794,
      "UMnuz": 2795,
      "dubula": 2796,
      "yisikhombisa": 2797,
      "2022": 2798,
      "Phakathi": 2799,
      "abebe": 2800,
      "uzoba": 2801,
      "kuzona": 2802,
      "ANG": 2803,
      "Amaphoyisa": 2804,
      "jikelele": 2805,
      "nesikhathi": 2806,
      "Challe": 2807,
      "qiniseko": 2808,
      "qhamuka": 2809,
      "Jacob": 2810,
      "Juli": 2811,
      "shayeli": 2812,
      "nganiselwa": 2813,
      "uCynthia": 2814,
      "Shayam": 2815,
      "NGAM": 2816,
      "basekhaya": 2817,
      "Ngcongo": 2818,
      "phendula": 2819,
      "zemfundo": 2820,
      "somabhizinisi": 2821,
      "jwayelekile": 2822,
      "lamaphuzu": 2823,
      "Zondi": 2824,
      "deslam": 2825,
      "odabuka": 2826,
      "ephakeme": 2827,
      "Abdeslam": 2828,
      "cwaningo": 2829,
      "inqwaba": 2830,
      "UMENGAM": 2831,
      "kangakanani": 2832,
      "dlelwano": 2833,
      "hhayi": 2834,
      "khiqiza": 2835,
      "Ayanda": 2836,
      "qinisekisile": 2837,
      "Skebhe": 2838,
      "hlukunyezwa": 2839,
      "Newspa": 2840,
      "Septhemba": 2841,
      "Tasman": 2842,
      "Challenge": 2843,
      "Shayamthetho": 2844,
      "UMENGAMELI": 2845,
      "AT": 2846,
      "Fe": 2847,
      "IM": 2848,
      "Is": 2849,
      "It": 2850,
      "MT": 2851,
      "Meyi": 2852,
      "NA": 2853,
      "Nkk": 2854,
      "NTHI": 2855,
      "OK": 2856,
      "Vers": 2857,
      "YNTHI": 2858,
      "athi": 2859,
      "amehlo": 2860,
      "cs": 2861,
      "eK": 2862,
      "ep": 2863,
      "eco": 2864,
      "ezen": 2865,
      "ebeli": 2866,
      "eSoweto": 2867,
      "indaba": 2868,
      "imoto": 2869,
      "intsha": 2870,
      "iqhaza": 2871,
      "lwini": 2872,
      "mvu": 2873,
      "mra": 2874,
      "nwe": 2875,
      "okwenza": 2876,
      "okwenzeka": 2877,
      "okwenze": 2878,
      "pumalanga": 2879,
      "tshe": 2880,
      "ukwa": 2881,
      "uRo": 2882,
      "veni": 2883,
      "xu": 2884,
      "kula": 2885,
      "kuthola": 2886,
      "kunjalo": 2887,
      "kusona": 2888,
      "lePhalamende": 2889,
      "bane": 2890,
      "waKwaZulu": 2891,
      "ward": 2892,
      "wakele": 2893,
      "waleli": 2894,
      "ziya": 2895,
      "zibu": 2896,
      "lil": 2897,
      "liwe": 2898,
      "libo": 2899,
      "lone": 2900,
      "wezwe": 2901,
      "ukubona": 2902,
      "ukubhekana": 2903,
      "ngaso": 2904,
      "ngaseku": 2905,
      "nikwe": 2906,
      "besa": 2907,
      "okukhona": 2908,
      "lukhulu": 2909,
      "neChiefs": 2910,
      "sakwa": 2911,
      "ngompetha": 2912,
      "yeNedbank": 2913,
      "kethe": 2914,
      "ababe": 2915,
      "zolo": 2916,
      "zona": 2917,
      "bombela": 2918,
      "biza": 2919,
      "ther": 2920,
      "khomishini": 2921,
      "khonza": 2922,
      "ngela": 2923,
      "lwase": 2924,
      "khungo": 2925,
      "njwe": 2926,
      "hlanhla": 2927,
      "amathuba": 2928,
      "khamba": 2929,
      "esiphezulu": 2930,
      "izindaba": 2931,
      "isibalo": 2932,
      "isidingo": 2933,
      "isiqiniseko": 2934,
      "nguquko": 2935,
      "njengama": 2936,
      "Mabhi": 2937,
      "kiswe": 2938,
      "bheni": 2939,
      "ery": 2940,
      "shaywa": 2941,
      "didi": 2942,
      "elika": 2943,
      "ngokunga": 2944,
      "onco": 2945,
      "kwiSundowns": 2946,
      "mbangi": 2947,
      "uMphathiswa": 2948,
      "sebenzela": 2949,
      "qeke": 2950,
      "dede": 2951,
      "van": 2952,
      "mpela": 2953,
      "hlola": 2954,
      "khathini": 2955,
      "tain": 2956,
      "ndima": 2957,
      "gal": 2958,
      "ekugcineni": 2959,
      "tel": 2960,
      "albhamu": 2961,
      "guel": 2962,
      "lokuzi": 2963,
      "dluli": 2964,
      "mendeni": 2965,
      "lesizwe": 2966,
      "eMnyangweni": 2967,
      "kulona": 2968,
      "kuzoba": 2969,
      "Amaqembu": 2970,
      "nyuvesi": 2971,
      "ngezinto": 2972,
      "aseM": 2973,
      "qinisekise": 2974,
      "nenkinga": 2975,
      "nendoda": 2976,
      "Dise": 2977,
      "yenza": 2978,
      "jabule": 2979,
      "jabulela": 2980,
      "UMalema": 2981,
      "New": 2982,
      "lly": 2983,
      "zembe": 2984,
      "asre": 2985,
      "somahlaya": 2986,
      "gqoke": 2987,
      "qhwakele": 2988,
      "HOLI": 2989,
      "Chery": 2990,
      "Phini": 2991,
      "Alg": 2992,
      "uMiguel": 2993,
      "Kia": 2994,
      "ebholeni": 2995,
      "dumbu": 2996,
      "gijimi": 2997,
      "Kwenzeka": 2998,
      "abesifazane": 2999,
      "ftus": 3000,
      "Julius": 3001,
      "Newspapers": 3002,
      "MTN": 3003,
      "YNTHIA": 3004,
      "Mabhida": 3005,
      "44": 3006,
      "55": 3007,
      "Ad": 3008,
      "Ath": 3009,
      "BE": 3010,
      "DO": 3011,
      "For": 3012,
      "Gro": 3013,
      "Gwar": 3014,
      "IChiefs": 3015,
      "Khe": 3016,
      "Laba": 3017,
      "Met": 3018,
      "Mpilo": 3019,
      "Ni": 3020,
      "Omo": 3021,
      "TI": 3022,
      "UR": 3023,
      "Ukusho": 3024,
      "ano": 3025,
      "athole": 3026,
      "bri": 3027,
      "dele": 3028,
      "esho": 3029,
      "iS": 3030,
      "iMKP": 3031,
      "mer": 3032,
      "mqeqeshi": 3033,
      "mfundo": 3034,
      "nene": 3035,
      "owe": 3036,
      "osanda": 3037,
      "ppa": 3038,
      "tsi": 3039,
      "uR": 3040,
      "ung": 3041,
      "ula": 3042,
      "uphinde": 3043,
      "udaba": 3044,
      "ungomunye": 3045,
      "uPetersen": 3046,
      "zeni": 3047,
      "kuhle": 3048,
      "kubhekwe": 3049,
      "ngukuthi": 3050,
      "ngry": 3051,
      "lami": 3052,
      "ley": 3053,
      "baku": 3054,
      "bama": 3055,
      "bavele": 3056,
      "wala": 3057,
      "wabe": 3058,
      "wawu": 3059,
      "simo": 3060,
      "zili": 3061,
      "ziyi": 3062,
      "kali": 3063,
      "kaZulu": 3064,
      "kamuva": 3065,
      "kamufi": 3066,
      "mashi": 3067,
      "lithini": 3068,
      "thisha": 3069,
      "weKaizer": 3070,
      "wepheshe": 3071,
      "naka": 3072,
      "nake": 3073,
      "namba": 3074,
      "namela": 3075,
      "sethu": 3076,
      "ukuqhubeka": 3077,
      "ngalokhu": 3078,
      "okuyinto": 3079,
      "yaKwaZulu": 3080,
      "neSundowns": 3081,
      "sala": 3082,
      "sasa": 3083,
      "sakazi": 3084,
      "ngoJulayi": 3085,
      "yezo": 3086,
      "emo": 3087,
      "emhlanganweni": 3088,
      "yingakho": 3089,
      "butho": 3090,
      "bugebengu": 3091,
      "umgilwa": 3092,
      "umyalezo": 3093,
      "zazi": 3094,
      "biwa": 3095,
      "billion": 3096,
      "hambeni": 3097,
      "mile": 3098,
      "mise": 3099,
      "kholelwa": 3100,
      "ngemali": 3101,
      "kwalo": 3102,
      "sobala": 3103,
      "ngini": 3104,
      "phawu": 3105,
      "njini": 3106,
      "hlangene": 3107,
      "amaho": 3108,
      "amathikithi": 3109,
      "dlavu": 3110,
      "fuzo": 3111,
      "fundisi": 3112,
      "thandi": 3113,
      "eledlule": 3114,
      "esikhulu": 3115,
      "kwemidlalo": 3116,
      "izitshudeni": 3117,
      "isihlobo": 3118,
      "nguyena": 3119,
      "thuli": 3120,
      "mbine": 3121,
      "shayisibhakela": 3122,
      "phon": 3123,
      "khelwane": 3124,
      "ngokulingana": 3125,
      "ngenye": 3126,
      "ngenele": 3127,
      "Sibi": 3128,
      "eminingi": 3129,
      "incwadi": 3130,
      "phiwe": 3131,
      "ting": 3132,
      "nokunye": 3133,
      "swano": 3134,
      "hlula": 3135,
      "imiphumela": 3136,
      "ekupheleni": 3137,
      "sukela": 3138,
      "UMPHA": 3139,
      "UMHOLI": 3140,
      "lokubulala": 3141,
      "landweni": 3142,
      "vishini": 3143,
      "Natur": 3144,
      "ubugebengu": 3145,
      "emazweni": 3146,
      "wokuba": 3147,
      "Mokoena": 3148,
      "nywa": 3149,
      "phenye": 3150,
      "yesine": 3151,
      "ngabazi": 3152,
      "Noma": 3153,
      "phuthu": 3154,
      "ndenini": 3155,
      "Abanye": 3156,
      "Sebele": 3157,
      "kwesikhathi": 3158,
      "xosha": 3159,
      "xoxa": 3160,
      "Arts": 3161,
      "chaze": 3162,
      "qhaka": 3163,
      "kwezinye": 3164,
      "hlin": 3165,
      "nkontileka": 3166,
      "omkhulu": 3167,
      "Miss": 3168,
      "nxeni": 3169,
      "Lamont": 3170,
      "sezingeni": 3171,
      "belomali": 3172,
      "thandayo": 3173,
      "lungise": 3174,
      "lungisa": 3175,
      "Top": 3176,
      "gwaqo": 3177,
      "kumaPlay": 3178,
      "UMaphisa": 3179,
      "chunge": 3180,
      "boniso": 3181,
      "Joe": 3182,
      "BOOK": 3183,
      "Theku": 3184,
      "Ngiyazi": 3185,
      "Hungry": 3186,
      "phumelela": 3187,
      "bekisela": 3188,
      "Yingakho": 3189,
      "thelevishini": 3190,
      "delana": 3191,
      "eqoshiwe": 3192,
      "esuka": 3193,
      "dolobha": 3194,
      "eLoftus": 3195,
      "estival": 3196,
      "pharafini": 3197,
      "mrades": 3198,
      "khambathi": 3199,
      "didiye": 3200,
      "Disemba": 3201,
      "MTN8": 3202,
      "Gwarube": 3203,
      "Omoda": 3204,
      "dlavuza": 3205,
      "Naturena": 3206,
      "Sebelebele": 3207,
      "Lamontville": 3208,
      "32": 3209,
      "36": 3210,
      "AS": 3211,
      "Ams": 3212,
      "Eku": 3213,
      "Fo": 3214,
      "Festival": 3215,
      "Gal": 3216,
      "Hilu": 3217,
      "Izin": 3218,
      "Imidlalo": 3219,
      "Ke": 3220,
      "Lezi": 3221,
      "Mini": 3222,
      "Mkhi": 3223,
      "Mengameli": 3224,
      "Mkhwanazi": 3225,
      "Nor": 3226,
      "Ndaba": 3227,
      "Pe": 3228,
      "Ser": 3229,
      "Te": 3230,
      "UV": 3231,
      "Ube": 3232,
      "Uzo": 3233,
      "ath": 3234,
      "akhe": 3235,
      "ccer": 3236,
      "eB": 3237,
      "eW": 3238,
      "efanele": 3239,
      "eSe": 3240,
      "ebhekene": 3241,
      "ebebe": 3242,
      "eKapa": 3243,
      "gh": 3244,
      "gwenya": 3245,
      "gqeke": 3246,
      "iN": 3247,
      "il": 3248,
      "iva": 3249,
      "inama": 3250,
      "iMamelodi": 3251,
      "kW": 3252,
      "lwen": 3253,
      "my": 3254,
      "oba": 3255,
      "osa": 3256,
      "qhe": 3257,
      "ste": 3258,
      "sric": 3259,
      "tric": 3260,
      "uli": 3261,
      "unyaka": 3262,
      "uvele": 3263,
      "uhlangothi": 3264,
      "udlame": 3265,
      "zuzo": 3266,
      "kune": 3267,
      "kude": 3268,
      "kuningi": 3269,
      "kuphinde": 3270,
      "kuvele": 3271,
      "ngqa": 3272,
      "ngcu": 3273,
      "laza": 3274,
      "layo": 3275,
      "lebe": 3276,
      "baka": 3277,
      "bami": 3278,
      "bagcine": 3279,
      "wawo": 3280,
      "eno": 3281,
      "ende": 3282,
      "endu": 3283,
      "encane": 3284,
      "eneminyaka": 3285,
      "sithe": 3286,
      "makhaya": 3287,
      "matric": 3288,
      "lish": 3289,
      "loki": 3290,
      "thina": 3291,
      "wethu": 3292,
      "weMfundo": 3293,
      "seBetway": 3294,
      "pheni": 3295,
      "phro": 3296,
      "ndwa": 3297,
      "ukusi": 3298,
      "ukulu": 3299,
      "ukuqinisekisa": 3300,
      "ngaku": 3301,
      "ngakwazi": 3302,
      "shumi": 3303,
      "niswa": 3304,
      "okuningi": 3305,
      "satu": 3306,
      "ngoMashi": 3307,
      "ngoSepthemba": 3308,
      "ngoDisemba": 3309,
      "yemi": 3310,
      "yeMotsepe": 3311,
      "emzini": 3312,
      "emlandweni": 3313,
      "yiqembu": 3314,
      "yizin": 3315,
      "yiwona": 3316,
      "bule": 3317,
      "umba": 3318,
      "ntshe": 3319,
      "keng": 3320,
      "keko": 3321,
      "zathu": 3322,
      "zawo": 3323,
      "ababa": 3324,
      "abaso": 3325,
      "abagilwa": 3326,
      "abagibeli": 3327,
      "zeli": 3328,
      "kowe": 3329,
      "bikwa": 3330,
      "ham": 3331,
      "hambi": 3332,
      "nokho": 3333,
      "nomdlalo": 3334,
      "ngecala": 3335,
      "kwawo": 3336,
      "ngiyi": 3337,
      "ngizo": 3338,
      "phathe": 3339,
      "khula": 3340,
      "amakhala": 3341,
      "amasizini": 3342,
      "khalo": 3343,
      "khamuzi": 3344,
      "dlanga": 3345,
      "thanga": 3346,
      "thathwe": 3347,
      "thakathi": 3348,
      "elebo": 3349,
      "esiyi": 3350,
      "esite": 3351,
      "kwesa": 3352,
      "izindawo": 3353,
      "izifundo": 3354,
      "eziba": 3355,
      "ezikoleni": 3356,
      "ezinobuso": 3357,
      "shiu": 3358,
      "shintshe": 3359,
      "Magesi": 3360,
      "wombe": 3361,
      "wood": 3362,
      "qoqo": 3363,
      "fane": 3364,
      "mbisene": 3365,
      "dayise": 3366,
      "cinde": 3367,
      "shaja": 3368,
      "dio": 3369,
      "dise": 3370,
      "dini": 3371,
      "Ngemuva": 3372,
      "ngokugcwele": 3373,
      "ngenzi": 3374,
      "ngenela": 3375,
      "Sipho": 3376,
      "caca": 3377,
      "inqo": 3378,
      "inkundla": 3379,
      "inkonzo": 3380,
      "fiki": 3381,
      "hlose": 3382,
      "Kuba": 3383,
      "Kunene": 3384,
      "tasa": 3385,
      "ngesigameko": 3386,
      "imisebenzi": 3387,
      "sula": 3388,
      "UMN": 3389,
      "UMntwana": 3390,
      "mbezi": 3391,
      "guqi": 3392,
      "nezikhulu": 3393,
      "KwaMa": 3394,
      "gcize": 3395,
      "que": 3396,
      "dondo": 3397,
      "vezwe": 3398,
      "zokuba": 3399,
      "hlangane": 3400,
      "Solezwe": 3401,
      "ubuye": 3402,
      "emakhaya": 3403,
      "emasontweni": 3404,
      "namacala": 3405,
      "khiwo": 3406,
      "jah": 3407,
      "jazz": 3408,
      "esezi": 3409,
      "sokungabe": 3410,
      "kubalandeli": 3411,
      "Ngifuna": 3412,
      "ntando": 3413,
      "ream": 3414,
      "Leop": 3415,
      "izinhlaka": 3416,
      "izincwadi": 3417,
      "chwepheshe": 3418,
      "eNasre": 3419,
      "eMhlathuze": 3420,
      "eMbombela": 3421,
      "yesigameko": 3422,
      "Nongoma": 3423,
      "banyoni": 3424,
      "Amakhosi": 3425,
      "Abasolwa": 3426,
      "nquma": 3427,
      "vot": 3428,
      "besilisa": 3429,
      "phelele": 3430,
      "Casric": 3431,
      "fundiswa": 3432,
      "Jazz": 3433,
      "Jaeco": 3434,
      "lolunye": 3435,
      "IFSA": 3436,
      "uThu": 3437,
      "isandla": 3438,
      "Life": 3439,
      "ngomzuzu": 3440,
      "bhuwari": 3441,
      "nobugebengu": 3442,
      "phambilini": 3443,
      "Siyabonga": 3444,
      "2017": 3445,
      "Khaya": 3446,
      "feld": 3447,
      "xhasa": 3448,
      "phendule": 3449,
      "Prote": 3450,
      "Fanele": 3451,
      "wezeMpilo": 3452,
      "tatimendeni": 3453,
      "uKhu": 3454,
      "hlukana": 3455,
      "shiyagalolunye": 3456,
      "Zondo": 3457,
      "finyelele": 3458,
      "ayisishiyagalombili": 3459,
      "vumelwano": 3460,
      "memezela": 3461,
      "FACE": 3462,
      "dlwengula": 3463,
      "wezokuThu": 3464,
      "bert": 3465,
      "iComrades": 3466,
      "phelile": 3467,
      "CCIFSA": 3468,
      "donsa": 3469,
      "ctor": 3470,
      "ards": 3471,
      "aledi": 3472,
      "hliziyo": 3473,
      "Febhuwari": 3474,
      "Versfeld": 3475,
      "zibuko": 3476,
      "libofuzo": 3477,
      "Khetho": 3478,
      "UMPHATHI": 3479,
      "Amstel": 3480,
      "Hilux": 3481,
      "qhekeko": 3482,
      "ngcupheni": 3483,
      "lokishini": 3484,
      "sokungabethembi": 3485,
      "Leopards": 3486,
      "eNasrec": 3487,
      "Jaecoo": 3488,
      "FACEBOOK": 3489,
      "31": 3490,
      "34": 3491,
      "47": 3492,
      "93": 3493,
      "As": 3494,
      "Bengu": 3495,
      "Bengi": 3496,
      "CP": 3497,
      "Cele": 3498,
      "CSA": 3499,
      "DJ": 3500,
      "DS": 3501,
      "DSt": 3502,
      "Ekhuluma": 3503,
      "Eqhuba": 3504,
      "IE": 3505,
      "IS": 3506,
      "KK": 3507,
      "KO": 3508,
      "Kumele": 3509,
      "Mc": 3510,
      "Nt": 3511,
      "Nksz": 3512,
      "Ph": 3513,
      "R5": 3514,
      "SWA": 3515,
      "Ti": 3516,
      "UL": 3517,
      "UZ": 3518,
      "Ubu": 3519,
      "USA": 3520,
      "UNgema": 3521,
      "USihlalo": 3522,
      "Vusi": 3523,
      "Xo": 3524,
      "Year": 3525,
      "Zwane": 3526,
      "alu": 3527,
      "aya": 3528,
      "ans": 3529,
      "by": 3530,
      "dg": 3531,
      "eR": 3532,
      "ebe": 3533,
      "ekha": 3534,
      "engena": 3535,
      "ePeter": 3536,
      "eGauteng": 3537,
      "gca": 3538,
      "it": 3539,
      "iCity": 3540,
      "iyona": 3541,
      "iKaizer": 3542,
      "impahla": 3543,
      "iSilo": 3544,
      "ijezi": 3545,
      "mnandi": 3546,
      "nk": 3547,
      "nni": 3548,
      "nco": 3549,
      "nxa": 3550,
      "nny": 3551,
      "okwamanje": 3552,
      "qele": 3553,
      "ska": 3554,
      "uL": 3555,
      "uxha": 3556,
      "wumuntu": 3557,
      "kusi": 3558,
      "kuphi": 3559,
      "kunama": 3560,
      "kuchaza": 3561,
      "ngton": 3562,
      "lakala": 3563,
      "laleli": 3564,
      "baze": 3565,
      "bawu": 3566,
      "bathola": 3567,
      "baphinde": 3568,
      "wasi": 3569,
      "wadi": 3570,
      "wakuleli": 3571,
      "wagcina": 3572,
      "waveza": 3573,
      "endi": 3574,
      "enja": 3575,
      "sima": 3576,
      "siko": 3577,
      "sibonge": 3578,
      "zimba": 3579,
      "zindaba": 3580,
      "kaMasipala": 3581,
      "mani": 3582,
      "mafa": 3583,
      "mary": 3584,
      "maqede": 3585,
      "khwe": 3586,
      "khumu": 3587,
      "lili": 3588,
      "lokhetho": 3589,
      "weChiefs": 3590,
      "wezin": 3591,
      "wezemi": 3592,
      "nasi": 3593,
      "nango": 3594,
      "nami": 3595,
      "nakwi": 3596,
      "seli": 3597,
      "sekwa": 3598,
      "ndlo": 3599,
      "ukuwu": 3600,
      "ukungena": 3601,
      "ukuwina": 3602,
      "ngazi": 3603,
      "ngamunye": 3604,
      "shela": 3605,
      "shisi": 3606,
      "beyi": 3607,
      "okulindeleke": 3608,
      "yathi": 3609,
      "yazo": 3610,
      "yakamuva": 3611,
      "neMamelodi": 3612,
      "neRichards": 3613,
      "salo": 3614,
      "sana": 3615,
      "embi": 3616,
      "emnyangweni": 3617,
      "emndenini": 3618,
      "umisa": 3619,
      "umengameli": 3620,
      "umhlangani": 3621,
      "umculi": 3622,
      "zalo": 3623,
      "abamnyama": 3624,
      "abadala": 3625,
      "zelo": 3626,
      "zepolitiki": 3627,
      "komo": 3628,
      "boshwe": 3629,
      "yota": 3630,
      "thengwa": 3631,
      "han": 3632,
      "notho": 3633,
      "nonina": 3634,
      "khokha": 3635,
      "khombi": 3636,
      "khokhelwa": 3637,
      "ngesonto": 3638,
      "ngelula": 3639,
      "lwabo": 3640,
      "kwale": 3641,
      "kwazo": 3642,
      "sonkontileka": 3643,
      "ngise": 3644,
      "ngiswa": 3645,
      "ngifuna": 3646,
      "khuza": 3647,
      "hlava": 3648,
      "kwezin": 3649,
      "thoba": 3650,
      "tholwe": 3651,
      "izikibha": 3652,
      "ezintweni": 3653,
      "ezimbalwa": 3654,
      "isikibha": 3655,
      "ngubo": 3656,
      "njelwe": 3657,
      "njengesi": 3658,
      "thukiswa": 3659,
      "Mathe": 3660,
      "qondi": 3661,
      "nyana": 3662,
      "nyawo": 3663,
      "dabuka": 3664,
      "qasha": 3665,
      "phoqele": 3666,
      "elise": 3667,
      "elingu": 3668,
      "elinye": 3669,
      "atre": 3670,
      "ntokazi": 3671,
      "khetha": 3672,
      "benzi": 3673,
      "Siko": 3674,
      "Sibanyoni": 3675,
      "umama": 3676,
      "uMbuso": 3677,
      "qephu": 3678,
      "deo": 3679,
      "mond": 3680,
      "hloli": 3681,
      "kwenziwe": 3682,
      "yokulwa": 3683,
      "Kuningi": 3684,
      "Kuvela": 3685,
      "nokuba": 3686,
      "tambo": 3687,
      "ngesihluku": 3688,
      "vuka": 3689,
      "vulwa": 3690,
      "bhale": 3691,
      "gaqa": 3692,
      "gadi": 3693,
      "galelo": 3694,
      "hlule": 3695,
      "hlulwe": 3696,
      "imithetho": 3697,
      "imibuzo": 3698,
      "iminini": 3699,
      "gidi": 3700,
      "suthu": 3701,
      "wesifundazwe": 3702,
      "UMDLALI": 3703,
      "shego": 3704,
      "Bache": 3705,
      "quthu": 3706,
      "dlulele": 3707,
      "Lokho": 3708,
      "London": 3709,
      "vile": 3710,
      "vimba": 3711,
      "vikele": 3712,
      "Chippa": 3713,
      "etshiu": 3714,
      "uNd": 3715,
      "Soccer": 3716,
      "nsiza": 3717,
      "nsizwa": 3718,
      "namaqembu": 3719,
      "namaSiko": 3720,
      "izobhekana": 3721,
      "Kaze": 3722,
      "Kagiso": 3723,
      "Afro": 3724,
      "Afcon": 3725,
      "Stars": 3726,
      "sukuma": 3727,
      "Phake": 3728,
      "Ciko": 3729,
      "nyeni": 3730,
      "nabadlali": 3731,
      "izinkinga": 3732,
      "izinsolo": 3733,
      "nomholi": 3734,
      "ngqondo": 3735,
      "landelayo": 3736,
      "LING": 3737,
      "Sambu": 3738,
      "ngumengameli": 3739,
      "bazoqhubeka": 3740,
      "vote": 3741,
      "thwala": 3742,
      "xolo": 3743,
      "piano": 3744,
      "qhatha": 3745,
      "yaseM": 3746,
      "nxele": 3747,
      "bukaRamaphosa": 3748,
      "yamazane": 3749,
      "Road": 3750,
      "uCh": 3751,
      "khumbuzo": 3752,
      "Siyazi": 3753,
      "baseNingizimu": 3754,
      "zomthetho": 3755,
      "2018": 3756,
      "Town": 3757,
      "Toyota": 3758,
      "30pm": 3759,
      "nezinhlelo": 3760,
      "nezinhlaka": 3761,
      "ngaleso": 3762,
      "bonile": 3763,
      "Okunye": 3764,
      "Provin": 3765,
      "Goliath": 3766,
      "Playhouse": 3767,
      "wezeMfundo": 3768,
      "phazamise": 3769,
      "estern": 3770,
      "memezele": 3771,
      "uZee": 3772,
      "gqame": 3773,
      "izandla": 3774,
      "dayiswa": 3775,
      "lawuli": 3776,
      "gqama": 3777,
      "ngqinamba": 3778,
      "kweletu": 3779,
      "English": 3780,
      "Phoyisa": 3781,
      "eMoses": 3782,
      "creen": 3783,
      "tainment": 3784,
      "Metro": 3785,
      "Mkhize": 3786,
      "Servi": 3787,
      "abasohlangothini": 3788,
      "jahweni": 3789,
      "Fanelesibonge": 3790,
      "UMPHATHISWA": 3791,
      "DStv": 3792,
      "skandi": 3793,
      "umhlanganiso": 3794,
      "imininingwane": 3795,
      "Bachelor": 3796,
      "etshiunda": 3797,
      "LINGISI": 3798,
      "Sambudla": 3799,
      "49": 3800,
      "99": 3801,
      "Action": 3802,
      "Broos": 3803,
      "Cri": 3804,
      "DP": 3805,
      "Ela": 3806,
      "ELE": 3807,
      "FP": 3808,
      "Fer": 3809,
      "Hle": 3810,
      "HLA": 3811,
      "Icala": 3812,
      "Kwe": 3813,
      "Khu": 3814,
      "Klebe": 3815,
      "LWE": 3816,
      "Mkhonza": 3817,
      "Nda": 3818,
      "Nyamazane": 3819,
      "PHE": 3820,
      "Qulu": 3821,
      "R3": 3822,
      "Shinga": 3823,
      "SUV": 3824,
      "Umdlalo": 3825,
      "USI": 3826,
      "Ukhale": 3827,
      "UShelembe": 3828,
      "VI": 3829,
      "Vele": 3830,
      "Wi": 3831,
      "Zee": 3832,
      "asa": 3833,
      "angama": 3834,
      "akuka": 3835,
      "agcine": 3836,
      "bwe": 3837,
      "dume": 3838,
      "eG": 3839,
      "eca": 3840,
      "ebha": 3841,
      "eto": 3842,
      "eyokuthi": 3843,
      "eyen": 3844,
      "gat": 3845,
      "hn": 3846,
      "hlisa": 3847,
      "isho": 3848,
      "ivu": 3849,
      "ifuna": 3850,
      "iKwaZulu": 3851,
      "ingoma": 3852,
      "iDurban": 3853,
      "isendaweni": 3854,
      "indoda": 3855,
      "mfu": 3856,
      "mon": 3857,
      "mfi": 3858,
      "mkhankaso": 3859,
      "mjaho": 3860,
      "nkinga": 3861,
      "ok": 3862,
      "othe": 3863,
      "olwe": 3864,
      "owesilisa": 3865,
      "oneminyaka": 3866,
      "okwenziwa": 3867,
      "pumelelo": 3868,
      "qhinga": 3869,
      "renda": 3870,
      "sy": 3871,
      "sti": 3872,
      "screen": 3873,
      "uke": 3874,
      "uze": 3875,
      "ungu": 3876,
      "uPi": 3877,
      "uqale": 3878,
      "ugcine": 3879,
      "uqhekeko": 3880,
      "vumele": 3881,
      "vement": 3882,
      "xwa": 3883,
      "xaba": 3884,
      "kuqhubeka": 3885,
      "kunesi": 3886,
      "kunzima": 3887,
      "kungani": 3888,
      "kuqonda": 3889,
      "ngq": 3890,
      "lant": 3891,
      "lashe": 3892,
      "lakazi": 3893,
      "lalelwa": 3894,
      "thy": 3895,
      "ler": 3896,
      "sisa": 3897,
      "siyo": 3898,
      "sindo": 3899,
      "sinqumo": 3900,
      "siteshi": 3901,
      "zinto": 3902,
      "kama": 3903,
      "kanga": 3904,
      "kabu": 3905,
      "kandla": 3906,
      "kaningi": 3907,
      "kaZwe": 3908,
      "mama": 3909,
      "lit": 3910,
      "loM": 3911,
      "weight": 3912,
      "nal": 3913,
      "nasem": 3914,
      "nabokufika": 3915,
      "selu": 3916,
      "seNkantolo": 3917,
      "nds": 3918,
      "ukule": 3919,
      "ukungi": 3920,
      "ukukhuluma": 3921,
      "ukushintsha": 3922,
      "bebhekene": 3923,
      "bets": 3924,
      "okukhulu": 3925,
      "lunye": 3926,
      "nePirates": 3927,
      "nethuba": 3928,
      "nethemba": 3929,
      "embe": 3930,
      "emor": 3931,
      "empela": 3932,
      "emkhakheni": 3933,
      "yibona": 3934,
      "bulo": 3935,
      "umholi": 3936,
      "umqondo": 3937,
      "zalwane": 3938,
      "abanama": 3939,
      "konyaka": 3940,
      "misiwe": 3941,
      "nokwe": 3942,
      "noSi": 3943,
      "kholakala": 3944,
      "ngelo": 3945,
      "ngengoma": 3946,
      "kwase": 3947,
      "hlasela": 3948,
      "amakhosi": 3949,
      "amaphutha": 3950,
      "khawu": 3951,
      "khashana": 3952,
      "futho": 3953,
      "elandela": 3954,
      "esiku": 3955,
      "esifanayo": 3956,
      "esithanga": 3957,
      "eziyi": 3958,
      "ezinya": 3959,
      "isibili": 3960,
      "kiwe": 3961,
      "kimina": 3962,
      "wodumo": 3963,
      "nyelwa": 3964,
      "dalwa": 3965,
      "ndawana": 3966,
      "shane": 3967,
      "shona": 3968,
      "qali": 3969,
      "qalile": 3970,
      "Ngen": 3971,
      "Ngizi": 3972,
      "Ngempela": 3973,
      "elisha": 3974,
      "elingisa": 3975,
      "hlelwe": 3976,
      "hoko": 3977,
      "holela": 3978,
      "esen": 3979,
      "eminyakeni": 3980,
      "uMkhwanazi": 3981,
      "vala": 3982,
      "inku": 3983,
      "moya": 3984,
      "time": 3985,
      "tifike": 3986,
      "him": 3987,
      "phetha": 3988,
      "yokuzi": 3989,
      "Kulesi": 3990,
      "taung": 3991,
      "zinikele": 3992,
      "gadli": 3993,
      "imibiko": 3994,
      "gic": 3995,
      "gile": 3996,
      "tengo": 3997,
      "UMo": 3998,
      "KwaNongoma": 3999,
      "gciwane": 4000,
      "qubo": 4001,
      "dlulise": 4002,
      "dodia": 4003,
      "funayo": 4004,
      "uNo": 4005,
      "menenja": 4006,
      "njabulo": 4007,
      "ubudlelwano": 4008,
      "ubuCiko": 4009,
      "ngaphambili": 4010,
      "izoba": 4011,
      "jaji": 4012,
      "KaNyamazane": 4013,
      "esesi": 4014,
      "senze": 4015,
      "pangeni": 4016,
      "Theatre": 4017,
      "waseN": 4018,
      "Cont": 4019,
      "nomndeni": 4020,
      "eNa": 4021,
      "eNkulu": 4022,
      "kulolu": 4023,
      "bhonasi": 4024,
      "ngabadlali": 4025,
      "wamaPhoyisa": 4026,
      "velele": 4027,
      "phunyu": 4028,
      "Amalungu": 4029,
      "oluzo": 4030,
      "igeria": 4031,
      "landelana": 4032,
      "Sam": 4033,
      "ngumqeqeshi": 4034,
      "SAPS": 4035,
      "SABC": 4036,
      "Sebenzi": 4037,
      "kwamaphoyisa": 4038,
      "khalazo": 4039,
      "bekukhona": 4040,
      "thweswe": 4041,
      "Umholi": 4042,
      "uBo": 4043,
      "uBen": 4044,
      "uBra": 4045,
      "semqoka": 4046,
      "hambele": 4047,
      "Rose": 4048,
      "chithe": 4049,
      "azodlala": 4050,
      "khumba": 4051,
      "obuse": 4052,
      "bokuthi": 4053,
      "jabulo": 4054,
      "yomthetho": 4055,
      "2019": 4056,
      "Rich": 4057,
      "gwaqweni": 4058,
      "feza": 4059,
      "ezepolitiki": 4060,
      "tshala": 4061,
      "tshali": 4062,
      "nkosini": 4063,
      "nkosikazi": 4064,
      "UCCSA": 4065,
      "ozoba": 4066,
      "Holly": 4067,
      "lahlekelwa": 4068,
      "yalelo": 4069,
      "Shembe": 4070,
      "Party": 4071,
      "ncinti": 4072,
      "khathazeka": 4073,
      "samaphoyisa": 4074,
      "Hunt": 4075,
      "KAZI": 4076,
      "nyiswa": 4077,
      "khuthaza": 4078,
      "jutshwe": 4079,
      "odabeni": 4080,
      "Funda": 4081,
      "Morocco": 4082,
      "Hlophe": 4083,
      "Vilakazi": 4084,
      "landelwe": 4085,
      "lwamaphoyisa": 4086,
      "bophezela": 4087,
      "duduzo": 4088,
      "mangalelwa": 4089,
      "omusha": 4090,
      "gcinimafa": 4091,
      "menyezelwa": 4092,
      "Media": 4093,
      "abangenabo": 4094,
      "uSandile": 4095,
      "thintekayo": 4096,
      "dutshulwe": 4097,
      "nchester": 4098,
      "dunankulu": 4099,
      "ngasekupheleni": 4100,
      "mpelasonto": 4101,
      "aseMelika": 4102,
      "nakalo": 4103,
      "Sibiya": 4104,
      "qhakambisa": 4105,
      "phroj": 4106,
      "esiteshini": 4107,
      "woodbets": 4108,
      "uThulani": 4109,
      "Xolani": 4110,
      "dgers": 4111,
      "Services": 4112,
      "ActionSA": 4113,
      "Velenkosini": 4114,
      "Ngempelasonto": 4115,
      "tifiketi": 4116,
      "Hollywoodbets": 4117,
      "3pm": 4118,
      "46": 4119,
      "58": 4120,
      "65": 4121,
      "90": 4122,
      "AD": 4123,
      "Ap": 4124,
      "At": 4125,
      "Andile": 4126,
      "App": 4127,
      "ABC": 4128,
      "Bri": 4129,
      "BHA": 4130,
      "CA": 4131,
      "Chu": 4132,
      "FI": 4133,
      "Free": 4134,
      "Iqembu": 4135,
      "Ita": 4136,
      "LAN": 4137,
      "Mon": 4138,
      "Muva": 4139,
      "OR": 4140,
      "Ok": 4141,
      "Os": 4142,
      "Oli": 4143,
      "Pen": 4144,
      "Pat": 4145,
      "Por": 4146,
      "Rela": 4147,
      "Swayi": 4148,
      "Scho": 4149,
      "TH": 4150,
      "UD": 4151,
      "Uphinde": 4152,
      "Upi": 4153,
      "UHlabisa": 4154,
      "Umufi": 4155,
      "USomlomo": 4156,
      "Udalule": 4157,
      "We": 4158,
      "West": 4159,
      "Xulu": 4160,
      "afuna": 4161,
      "aphinde": 4162,
      "cke": 4163,
      "dwe": 4164,
      "dent": 4165,
      "dcast": 4166,
      "eH": 4167,
      "eS": 4168,
      "ethe": 4169,
      "edla": 4170,
      "efu": 4171,
      "ePha": 4172,
      "edlala": 4173,
      "engekho": 4174,
      "ephethe": 4175,
      "eduze": 4176,
      "femu": 4177,
      "gcwa": 4178,
      "ic": 4179,
      "int": 4180,
      "iyo": 4181,
      "iqale": 4182,
      "ibuya": 4183,
      "ibamba": 4184,
      "indondo": 4185,
      "impumelelo": 4186,
      "iphenathi": 4187,
      "mweni": 4188,
      "mkhulu": 4189,
      "nhlangano": 4190,
      "nhlobo": 4191,
      "nkundla": 4192,
      "olwa": 4193,
      "ozobe": 4194,
      "owamanqamu": 4195,
      "qho": 4196,
      "qwini": 4197,
      "ral": 4198,
      "rks": 4199,
      "smi": 4200,
      "tor": 4201,
      "uG": 4202,
      "uvu": 4203,
      "uch": 4204,
      "ukhuluma": 4205,
      "uGa": 4206,
      "ushaye": 4207,
      "uhambe": 4208,
      "ufike": 4209,
      "uPa": 4210,
      "utshele": 4211,
      "unxuse": 4212,
      "vha": 4213,
      "yweni": 4214,
      "zy": 4215,
      "kuso": 4216,
      "kuvu": 4217,
      "kumbe": 4218,
      "kungekho": 4219,
      "kudingeka": 4220,
      "ngs": 4221,
      "ngcindezi": 4222,
      "ngceleni": 4223,
      "lalo": 4224,
      "thri": 4225,
      "basi": 4226,
      "basa": 4227,
      "baqhubeke": 4228,
      "waya": 4229,
      "wakwa": 4230,
      "wathola": 4231,
      "ensi": 4232,
      "siwa": 4233,
      "sibe": 4234,
      "zinda": 4235,
      "zibalo": 4236,
      "kane": 4237,
      "kahulumeni": 4238,
      "khela": 4239,
      "lic": 4240,
      "lilo": 4241,
      "lokwe": 4242,
      "weDurban": 4243,
      "nale": 4244,
      "nasezi": 4245,
      "seMotsepe": 4246,
      "nduku": 4247,
      "ukuza": 4248,
      "ukuzo": 4249,
      "ukupho": 4250,
      "ukukwenza": 4251,
      "ukufunda": 4252,
      "ukuhlala": 4253,
      "ukuthula": 4254,
      "ukunqoba": 4255,
      "ukukhokhela": 4256,
      "ngaphezu": 4257,
      "okuwu": 4258,
      "luzo": 4259,
      "luleka": 4260,
      "nela": 4261,
      "nethi": 4262,
      "nePolokwane": 4263,
      "sane": 4264,
      "ngodaba": 4265,
      "yilungu": 4266,
      "yimidlalo": 4267,
      "buyise": 4268,
      "umnyango": 4269,
      "umklomelo": 4270,
      "ntwini": 4271,
      "zali": 4272,
      "zakuleli": 4273,
      "abathathu": 4274,
      "abahlukene": 4275,
      "abalala": 4276,
      "abalingisi": 4277,
      "zoMnyango": 4278,
      "zeKhomishini": 4279,
      "kohlelo": 4280,
      "bolo": 4281,
      "bike": 4282,
      "yobu": 4283,
      "thelela": 4284,
      "noT": 4285,
      "nowaye": 4286,
      "nomunye": 4287,
      "khotha": 4288,
      "ngekusasa": 4289,
      "ngelinye": 4290,
      "kwakha": 4291,
      "sondela": 4292,
      "ngile": 4293,
      "ngisi": 4294,
      "ngithi": 4295,
      "phant": 4296,
      "khushu": 4297,
      "hlandla": 4298,
      "amanga": 4299,
      "amagama": 4300,
      "khandla": 4301,
      "funny": 4302,
      "esiwu": 4303,
      "esiShayamthetho": 4304,
      "thon": 4305,
      "izinye": 4306,
      "izihlobo": 4307,
      "izinyanga": 4308,
      "izikole": 4309,
      "isigebengu": 4310,
      "isibhamu": 4311,
      "isitatimende": 4312,
      "isikwati": 4313,
      "thulo": 4314,
      "Mari": 4315,
      "Maphisa": 4316,
      "Magic": 4317,
      "kimi": 4318,
      "woM": 4319,
      "wodwa": 4320,
      "bhent": 4321,
      "muke": 4322,
      "fakwe": 4323,
      "dale": 4324,
      "dalwe": 4325,
      "dalula": 4326,
      "shaqa": 4327,
      "shado": 4328,
      "dili": 4329,
      "diza": 4330,
      "diel": 4331,
      "phoqa": 4332,
      "elilodwa": 4333,
      "ngokuyi": 4334,
      "ngenkathi": 4335,
      "hlezi": 4336,
      "onzima": 4337,
      "mbana": 4338,
      "mbango": 4339,
      "mbabwe": 4340,
      "emihlanu": 4341,
      "eminxeni": 4342,
      "valwa": 4343,
      "info": 4344,
      "inhlangano": 4345,
      "wudlala": 4346,
      "ria": 4347,
      "rick": 4348,
      "fisela": 4349,
      "mora": 4350,
      "motion": 4351,
      "phindele": 4352,
      "tini": 4353,
      "tizen": 4354,
      "bhekiswe": 4355,
      "bhethri": 4356,
      "kwenzi": 4357,
      "Kuya": 4358,
      "Kusukela": 4359,
      "bhalwa": 4360,
      "bhalele": 4361,
      "imiphakathi": 4362,
      "ekuhambeni": 4363,
      "qhulwini": 4364,
      "qhudelana": 4365,
      "wesizini": 4366,
      "UMLINGISI": 4367,
      "tolo": 4368,
      "town": 4369,
      "touch": 4370,
      "enegal": 4371,
      "gunya": 4372,
      "gubha": 4373,
      "gudlu": 4374,
      "gubho": 4375,
      "KwaD": 4376,
      "Zululand": 4377,
      "lokukhipha": 4378,
      "hel": 4379,
      "Batho": 4380,
      "Bafunny": 4381,
      "dola": 4382,
      "Lou": 4383,
      "Love": 4384,
      "rathon": 4385,
      "China": 4386,
      "yisikhathi": 4387,
      "yisizini": 4388,
      "ngamacala": 4389,
      "ngamalungu": 4390,
      "emakha": 4391,
      "emaqenjini": 4392,
      "emanyuvesi": 4393,
      "Mofo": 4394,
      "Kanti": 4395,
      "esem": 4396,
      "senzeke": 4397,
      "Standa": 4398,
      "Citizen": 4399,
      "Cosatu": 4400,
      "abezindaba": 4401,
      "nabasebenzi": 4402,
      "zinzo": 4403,
      "lesibili": 4404,
      "qeqeshwa": 4405,
      "UNO": 4406,
      "nuwari": 4407,
      "phumi": 4408,
      "eNel": 4409,
      "eNkandla": 4410,
      "eMpumalanga": 4411,
      "oluthi": 4412,
      "oluzayo": 4413,
      "qhubekayo": 4414,
      "ndleko": 4415,
      "Sandawana": 4416,
      "ngumlando": 4417,
      "nyusa": 4418,
      "bazobe": 4419,
      "kwesinye": 4420,
      "ngezikhathi": 4421,
      "llis": 4422,
      "buyeke": 4423,
      "balale": 4424,
      "hlabana": 4425,
      "kwezingane": 4426,
      "mpawu": 4427,
      "Januwari": 4428,
      "uTh": 4429,
      "uMaphisa": 4430,
      "ezincane": 4431,
      "umeleng": 4432,
      "nkon": 4433,
      "uButhelezi": 4434,
      "ugh": 4435,
      "Limpo": 4436,
      "Mina": 4437,
      "ezoba": 4438,
      "kulandelana": 4439,
      "Lady": 4440,
      "Dilla": 4441,
      "Didiza": 4442,
      "logy": 4443,
      "emezele": 4444,
      "usanda": 4445,
      "akazange": 4446,
      "nobuhle": 4447,
      "Sharks": 4448,
      "pollis": 4449,
      "yenze": 4450,
      "Gomora": 4451,
      "labantu": 4452,
      "Zimbabwe": 4453,
      "angase": 4454,
      "ingcindezi": 4455,
      "endle": 4456,
      "endlini": 4457,
      "hlonipho": 4458,
      "Tolashe": 4459,
      "Wathi": 4460,
      "nezinkinga": 4461,
      "bonelo": 4462,
      "phenduke": 4463,
      "Promotion": 4464,
      "xile": 4465,
      "phakamisa": 4466,
      "Joy": 4467,
      "Johan": 4468,
      "John": 4469,
      "okwaku": 4470,
      "wezeMi": 4471,
      "Inkantolo": 4472,
      "khokhele": 4473,
      "Range": 4474,
      "hlukani": 4475,
      "gwetshwa": 4476,
      "njiswe": 4477,
      "Stream": 4478,
      "nyiswe": 4479,
      "odume": 4480,
      "khuthazi": 4481,
      "kuMzansi": 4482,
      "iselula": 4483,
      "dlwengulwa": 4484,
      "Hlomuka": 4485,
      "empini": 4486,
      "zemidlalo": 4487,
      "ppy": 4488,
      "ngcwabo": 4489,
      "thuthukisa": 4490,
      "East": 4491,
      "bophezele": 4492,
      "dolobheni": 4493,
      "gcobho": 4494,
      "gcotshwa": 4495,
      "Marumo": 4496,
      "Barnes": 4497,
      "Carthy": 4498,
      "menyezelwe": 4499,
      "Imiphumela": 4500,
      "vumelana": 4501,
      "koMphakathi": 4502,
      "Brazili": 4503,
      "uKhalil": 4504,
      "ATM": 4505,
      "Itumeleng": 4506,
      "dedengu": 4507,
      "dlulisela": 4508,
      "Algeria": 4509,
      "amahora": 4510,
      "eSeshego": 4511,
      "endulo": 4512,
      "KwaMashu": 4513,
      "gcizelela": 4514,
      "wezokuThutha": 4515,
      "IEC": 4516,
      "uxhaso": 4517,
      "endimeni": 4518,
      "uNdamane": 4519,
      "Elandisa": 4520,
      "kabusha": 4521,
      "esithangamini": 4522,
      "inkunzi": 4523,
      "phrojusa": 4524,
      "Appollis": 4525,
      "Italy": 4526,
      "Month": 4527,
      "Okthoba": 4528,
      "Penny": 4529,
      "School": 4530,
      "Upington": 4531,
      "smith": 4532,
      "shaqane": 4533,
      "infotainment": 4534,
      "touchscreen": 4535,
      "Mofokeng": 4536,
      "Citizens": 4537,
      "Limpopo": 4538,
      "Ladysmith": 4539,
      "Dillan": 4540,
      "Johannes": 4541,
      "Brazilians": 4542,
      "29": 4543,
      "39": 4544,
      "40": 4545,
      "45": 4546,
      "400": 4547,
      "Am": 4548,
      "Aga": 4549,
      "Akukho": 4550,
      "Bur": 4551,
      "Ce": 4552,
      "Cla": 4553,
      "Cent": 4554,
      "Chel": 4555,
      "Dela": 4556,
      "Fla": 4557,
      "FAR": 4558,
      "Gume": 4559,
      "GAD": 4560,
      "He": 4561,
      "ING": 4562,
      "IBO": 4563,
      "Ji": 4564,
      "Jes": 4565,
      "KG": 4566,
      "KH": 4567,
      "Kuma": 4568,
      "KUK": 4569,
      "Kenzi": 4570,
      "Ler": 4571,
      "Mba": 4572,
      "Mnuz": 4573,
      "Mdabu": 4574,
      "NDE": 4575,
      "R1": 4576,
      "R6": 4577,
      "RS": 4578,
      "Sesi": 4579,
      "SHE": 4580,
      "Up": 4581,
      "Ukho": 4582,
      "Uhulumeni": 4583,
      "UDuma": 4584,
      "Unxuse": 4585,
      "UNgcongo": 4586,
      "Western": 4587,
      "Xoli": 4588,
      "ZE": 4589,
      "ZO": 4590,
      "Zungu": 4591,
      "aze": 4592,
      "akusho": 4593,
      "akuleli": 4594,
      "adlule": 4595,
      "angeke": 4596,
      "afike": 4597,
      "ahlangani": 4598,
      "athathe": 4599,
      "abokufika": 4600,
      "abhekane": 4601,
      "abenza": 4602,
      "bra": 4603,
      "cate": 4604,
      "disi": 4605,
      "eD": 4606,
      "eV": 4607,
      "ebo": 4608,
      "ehla": 4609,
      "efi": 4610,
      "ethula": 4611,
      "eKZN": 4612,
      "efanayo": 4613,
      "eut": 4614,
      "fumu": 4615,
      "gga": 4616,
      "ima": 4617,
      "ili": 4618,
      "iwu": 4619,
      "iMo": 4620,
      "ice": 4621,
      "iBetway": 4622,
      "ishaya": 4623,
      "inte": 4624,
      "ithimba": 4625,
      "ikusasa": 4626,
      "iNedbank": 4627,
      "ibukeka": 4628,
      "iNational": 4629,
      "iqiniso": 4630,
      "intando": 4631,
      "injabulo": 4632,
      "ilandelana": 4633,
      "mhlangano": 4634,
      "mculi": 4635,
      "mkhakha": 4636,
      "nyo": 4637,
      "nyisa": 4638,
      "nendawo": 4639,
      "ofana": 4640,
      "okwesi": 4641,
      "oqale": 4642,
      "osihlalo": 4643,
      "odokotela": 4644,
      "ohlelweni": 4645,
      "qumo": 4646,
      "sena": 4647,
      "swini": 4648,
      "teni": 4649,
      "ukho": 4650,
      "uci": 4651,
      "uhlu": 4652,
      "uyena": 4653,
      "uSomlomo": 4654,
      "uhambo": 4655,
      "vumile": 4656,
      "win": 4657,
      "ys": 4658,
      "yla": 4659,
      "kuza": 4660,
      "kunezi": 4661,
      "kuhamba": 4662,
      "kubhu": 4663,
      "kugcine": 4664,
      "ngqala": 4665,
      "ngqu": 4666,
      "ngres": 4667,
      "lale": 4668,
      "lahla": 4669,
      "lamu": 4670,
      "thumele": 4671,
      "bar": 4672,
      "bawo": 4673,
      "banda": 4674,
      "baningi": 4675,
      "bathole": 4676,
      "bafundi": 4677,
      "bakwamanye": 4678,
      "wali": 4679,
      "ens": 4680,
      "enyuvesi": 4681,
      "sim": 4682,
      "sisi": 4683,
      "siwu": 4684,
      "sibhekene": 4685,
      "sifike": 4686,
      "ziko": 4687,
      "zimbeni": 4688,
      "kalisa": 4689,
      "kalise": 4690,
      "maduze": 4691,
      "khen": 4692,
      "lisi": 4693,
      "lithi": 4694,
      "line": 4695,
      "limi": 4696,
      "lindo": 4697,
      "lihlehli": 4698,
      "loem": 4699,
      "loyi": 4700,
      "wePirates": 4701,
      "weDA": 4702,
      "wezase": 4703,
      "nabe": 4704,
      "nalabo": 4705,
      "nakwezinye": 4706,
      "sea": 4707,
      "seki": 4708,
      "selula": 4709,
      "ndene": 4710,
      "ndume": 4711,
      "ukuli": 4712,
      "ukube": 4713,
      "ukuya": 4714,
      "ukuzwa": 4715,
      "ukusebenzisa": 4716,
      "ukudayisa": 4717,
      "ukugijima": 4718,
      "ukuxosha": 4719,
      "ukufeza": 4720,
      "ngana": 4721,
      "ngaye": 4722,
      "sheni": 4723,
      "shuma": 4724,
      "nile": 4725,
      "nikazi": 4726,
      "bethi": 4727,
      "bekhona": 4728,
      "beqembu": 4729,
      "okusa": 4730,
      "okuhle": 4731,
      "okuthula": 4732,
      "okushiwo": 4733,
      "lusa": 4734,
      "neStellenbosch": 4735,
      "sas": 4736,
      "sasi": 4737,
      "ngose": 4738,
      "ngokwesi": 4739,
      "ngoFebhuwari": 4740,
      "yeka": 4741,
      "yemidlalo": 4742,
      "yilapho": 4743,
      "yiyona": 4744,
      "yilona": 4745,
      "yizembe": 4746,
      "buzwa": 4747,
      "buhlungu": 4748,
      "budedengu": 4749,
      "umdlali": 4750,
      "umhlaba": 4751,
      "umhlangano": 4752,
      "umphumela": 4753,
      "umlingisi": 4754,
      "umqhudelwano": 4755,
      "umgomo": 4756,
      "zana": 4757,
      "abam": 4758,
      "ababhala": 4759,
      "ababukeli": 4760,
      "zemali": 4761,
      "kop": 4762,
      "koma": 4763,
      "kona": 4764,
      "kozo": 4765,
      "kombiko": 4766,
      "konyeni": 4767,
      "kolunye": 4768,
      "biwe": 4769,
      "yosuku": 4770,
      "yolibofuzo": 4771,
      "thelo": 4772,
      "miya": 4773,
      "miso": 4774,
      "mishana": 4775,
      "nour": 4776,
      "ngesa": 4777,
      "ngegoli": 4778,
      "lwami": 4779,
      "kwaze": 4780,
      "kwabesifazane": 4781,
      "kwamukela": 4782,
      "soci": 4783,
      "sondele": 4784,
      "ngiwe": 4785,
      "ngibona": 4786,
      "khulelwe": 4787,
      "njena": 4788,
      "khalela": 4789,
      "dlalwa": 4790,
      "thameli": 4791,
      "thandweni": 4792,
      "thamiya": 4793,
      "esizi": 4794,
      "esise": 4795,
      "esiya": 4796,
      "esikoleni": 4797,
      "esinobuso": 4798,
      "esikhungweni": 4799,
      "kweSundowns": 4800,
      "tholwa": 4801,
      "izimo": 4802,
      "izinta": 4803,
      "izinsuku": 4804,
      "izimpahla": 4805,
      "izidakamizwa": 4806,
      "izinguquko": 4807,
      "izimpawu": 4808,
      "ezifana": 4809,
      "ezizayo": 4810,
      "ezinzima": 4811,
      "ezintsha": 4812,
      "eziyisikhombisa": 4813,
      "isifundazwe": 4814,
      "isidumbu": 4815,
      "ngulwe": 4816,
      "njelwa": 4817,
      "thur": 4818,
      "shiswe": 4819,
      "shiyelana": 4820,
      "Mac": 4821,
      "Marathon": 4822,
      "woma": 4823,
      "woxolo": 4824,
      "nyela": 4825,
      "qotho": 4826,
      "dayo": 4827,
      "shaqi": 4828,
      "qamba": 4829,
      "qaphele": 4830,
      "dies": 4831,
      "eliphezulu": 4832,
      "ati": 4833,
      "ngokuhamba": 4834,
      "hleni": 4835,
      "kwiKaizer": 4836,
      "holo": 4837,
      "khulunywa": 4838,
      "Simela": 4839,
      "Simbine": 4840,
      "Siboniso": 4841,
      "mbangweni": 4842,
      "esendaweni": 4843,
      "cathamiya": 4844,
      "eminye": 4845,
      "uMuzi": 4846,
      "vame": 4847,
      "inkampani": 4848,
      "meseka": 4849,
      "ries": 4850,
      "uzulu": 4851,
      "final": 4852,
      "bhekise": 4853,
      "mpini": 4854,
      "mpendulo": 4855,
      "hlolwa": 4856,
      "phefumu": 4857,
      "kwenzile": 4858,
      "kwentengo": 4859,
      "yokugcina": 4860,
      "Kunzima": 4861,
      "ziningi": 4862,
      "vulela": 4863,
      "bhadi": 4864,
      "orris": 4865,
      "hluko": 4866,
      "imigomo": 4867,
      "giya": 4868,
      "UMnyango": 4869,
      "UMbuso": 4870,
      "UMphathiswa": 4871,
      "UMGAD": 4872,
      "tour": 4873,
      "Kwathi": 4874,
      "Kwagga": 4875,
      "lokuba": 4876,
      "lokubulawa": 4877,
      "heha": 4878,
      "dukile": 4879,
      "duzane": 4880,
      "Basi": 4881,
      "Baro": 4882,
      "qulwa": 4883,
      "dlulela": 4884,
      "dlulisa": 4885,
      "dongeni": 4886,
      "Lolu": 4887,
      "enant": 4888,
      "video": 4889,
      "rari": 4890,
      "uNkulunkulu": 4891,
      "uNaledi": 4892,
      "uNetshiunda": 4893,
      "Soci": 4894,
      "njaro": 4895,
      "ubunzima": 4896,
      "ubulungiswa": 4897,
      "emadle": 4898,
      "namanje": 4899,
      "namandla": 4900,
      "namaphoyisa": 4901,
      "khiye": 4902,
      "izobe": 4903,
      "wokusonga": 4904,
      "Preto": 4905,
      "senza": 4906,
      "senzeka": 4907,
      "kubadlali": 4908,
      "qina": 4909,
      "sukumele": 4910,
      "ngempilo": 4911,
      "cebo": 4912,
      "Coa": 4913,
      "Com": 4914,
      "Colone": 4915,
      "nabaholi": 4916,
      "nabalandeli": 4917,
      "Leon": 4918,
      "dlalile": 4919,
      "UNd": 4920,
      "kukaMa": 4921,
      "uzobe": 4922,
      "eNquthu": 4923,
      "bancane": 4924,
      "phuza": 4925,
      "phupho": 4926,
      "oluhle": 4927,
      "petha": 4928,
      "mbos": 4929,
      "kubeka": 4930,
      "Ngangi": 4931,
      "jimbos": 4932,
      "ngenawo": 4933,
      "SACP": 4934,
      "Sekelo": 4935,
      "Section": 4936,
      "stem": 4937,
      "nyuke": 4938,
      "nyulwa": 4939,
      "nyunyana": 4940,
      "ngeziwe": 4941,
      "phelela": 4942,
      "asebe": 4943,
      "gotsi": 4944,
      "neminye": 4945,
      "Arthur": 4946,
      "thwele": 4947,
      "kwezishaqane": 4948,
      "Jaji": 4949,
      "Nanda": 4950,
      "uTa": 4951,
      "uThi": 4952,
      "uMalema": 4953,
      "ezinhlelweni": 4954,
      "Podcast": 4955,
      "UKha": 4956,
      "kwabadlali": 4957,
      "isabelomali": 4958,
      "hlakani": 4959,
      "nxu": 4960,
      "nxeba": 4961,
      "bhuqwini": 4962,
      "bukaHlabisa": 4963,
      "ethinta": 4964,
      "esanda": 4965,
      "owawu": 4966,
      "chie": 4967,
      "chithi": 4968,
      "chithwa": 4969,
      "uCele": 4970,
      "Shaka": 4971,
      "azobe": 4972,
      "zenza": 4973,
      "labaqeqeshi": 4974,
      "ingxenye": 4975,
      "Rise": 4976,
      "komthetho": 4977,
      "laseMzansi": 4978,
      "laseNaturena": 4979,
      "Dlalo": 4980,
      "Wander": 4981,
      "Khoza": 4982,
      "Ndamane": 4983,
      "pungose": 4984,
      "noMnuz": 4985,
      "noMnyango": 4986,
      "xhasi": 4987,
      "ubani": 4988,
      "ubane": 4989,
      "wumbe": 4990,
      "omama": 4991,
      "xico": 4992,
      "Fadiel": 4993,
      "njengeqembu": 4994,
      "zobudokotela": 4995,
      "ebizwa": 4996,
      "lekelela": 4997,
      "erica": 4998,
      "sabantu": 4999
    },
    "merges": [
      [
        "k",
        "u"
      ],
      [
        "n",
        "g"
      ],
      [
        "l",
        "a"
      ],
      [
        "t",
        "h"
      ],
      [
        "l",
        "e"
      ],
      [
        "b",
        "a"
      ],
      [
        "w",
        "a"
      ],
      [
        "e",
        "n"
      ],
      [
        "s",
        "i"
      ],
      [
        "z",
        "i"
      ],
      [
        "k",
        "a"
      ],
      [
        "m",
        "a"
      ],
      [
        "k",
        "h"
      ],
      [
        "l",
        "i"
      ],
      [
        "l",
        "o"
      ],
      [
        "th",
        "i"
      ],
      [
        "w",
        "e"
      ],
      [
        "n",
        "a"
      ],
      [
        "s",
        "e"
      ],
      [
        "p",
        "h"
      ],
      [
        "n",
        "d"
      ],
      [
        "u",
        "ku"
      ],
      [
        "ng",
        "a"
      ],
      [
        "s",
        "h"
      ],
      [
        "n",
        "i"
      ],
      [
        "b",
        "e"
      ],
      [
        "o",
        "ku"
      ],
      [
        "l",
        "u"
      ],
      [
        "y",
        "a"
      ],
      [
        "n",
        "e"
      ],
      [
        "s",
        "a"
      ],
      [
        "ng",
        "o"
      ],
      [
        "y",
        "e"
      ],
      [
        "e",
        "m"
      ],
      [
        "y",
        "i"
      ],
      [
        "b",
        "u"
      ],
      [
        "u",
        "m"
      ],
      [
        "en",
        "i"
      ],
      [
        "n",
        "t"
      ],
      [
        "k",
        "e"
      ],
      [
        "z",
        "a"
      ],
      [
        "a",
        "ba"
      ],
      [
        "z",
        "o"
      ],
      [
        "z",
        "e"
      ],
      [
        "k",
        "o"
      ],
      [
        "b",
        "o"
      ],
      [
        "b",
        "i"
      ],
      [
        "uku",
        "thi"
      ],
      [
        "y",
        "o"
      ],
      [
        "th",
        "e"
      ],
      [
        "h",
        "a"
      ],
      [
        "m",
        "i"
      ],
      [
        "n",
        "o"
      ],
      [
        "kh",
        "o"
      ],
      [
        "ng",
        "e"
      ],
      [
        "l",
        "wa"
      ],
      [
        "k",
        "wa"
      ],
      [
        "s",
        "o"
      ],
      [
        "ng",
        "i"
      ],
      [
        "ph",
        "a"
      ],
      [
        "kh",
        "u"
      ],
      [
        "n",
        "j"
      ],
      [
        "h",
        "la"
      ],
      [
        "a",
        "ma"
      ],
      [
        "kh",
        "a"
      ],
      [
        "d",
        "la"
      ],
      [
        "f",
        "u"
      ],
      [
        "k",
        "w"
      ],
      [
        "e",
        "la"
      ],
      [
        "th",
        "a"
      ],
      [
        "w",
        "eni"
      ],
      [
        "e",
        "le"
      ],
      [
        "e",
        "si"
      ],
      [
        "k",
        "we"
      ],
      [
        "th",
        "o"
      ],
      [
        "i",
        "zi"
      ],
      [
        "e",
        "zi"
      ],
      [
        "i",
        "si"
      ],
      [
        "ng",
        "u"
      ],
      [
        "nj",
        "e"
      ],
      [
        "th",
        "u"
      ],
      [
        "sh",
        "i"
      ],
      [
        "M",
        "a"
      ],
      [
        "k",
        "i"
      ],
      [
        "w",
        "o"
      ],
      [
        "n",
        "ye"
      ],
      [
        "b",
        "h"
      ],
      [
        "e",
        "r"
      ],
      [
        "m",
        "u"
      ],
      [
        "q",
        "o"
      ],
      [
        "f",
        "a"
      ],
      [
        "m",
        "bi"
      ],
      [
        "n",
        "ya"
      ],
      [
        "d",
        "a"
      ],
      [
        "c",
        "i"
      ],
      [
        "nd",
        "a"
      ],
      [
        "sh",
        "a"
      ],
      [
        "sh",
        "o"
      ],
      [
        "q",
        "a"
      ],
      [
        "d",
        "i"
      ],
      [
        "nd",
        "o"
      ],
      [
        "N",
        "g"
      ],
      [
        "ph",
        "o"
      ],
      [
        "h",
        "u"
      ],
      [
        "e",
        "li"
      ],
      [
        "a",
        "t"
      ],
      [
        "nt",
        "o"
      ],
      [
        "kh",
        "e"
      ],
      [
        "ng",
        "oku"
      ],
      [
        "ng",
        "en"
      ],
      [
        "ngo",
        "ba"
      ],
      [
        "h",
        "le"
      ],
      [
        "b",
        "en"
      ],
      [
        "nt",
        "u"
      ],
      [
        "o",
        "n"
      ],
      [
        "kw",
        "i"
      ],
      [
        "l",
        "we"
      ],
      [
        "h",
        "o"
      ],
      [
        "khu",
        "lu"
      ],
      [
        "S",
        "i"
      ],
      [
        "m",
        "ba"
      ],
      [
        "u",
        "ma"
      ],
      [
        "e",
        "s"
      ],
      [
        "c",
        "a"
      ],
      [
        "c",
        "o"
      ],
      [
        "d",
        "wa"
      ],
      [
        "em",
        "i"
      ],
      [
        "u",
        "M"
      ],
      [
        "se",
        "ben"
      ],
      [
        "q",
        "e"
      ],
      [
        "d",
        "e"
      ],
      [
        "v",
        "a"
      ],
      [
        "i",
        "n"
      ],
      [
        "w",
        "u"
      ],
      [
        "m",
        "e"
      ],
      [
        "r",
        "i"
      ],
      [
        "u",
        "z"
      ],
      [
        "f",
        "i"
      ],
      [
        "m",
        "o"
      ],
      [
        "u",
        "lu"
      ],
      [
        "ph",
        "i"
      ],
      [
        "kho",
        "na"
      ],
      [
        "le",
        "la"
      ],
      [
        "t",
        "i"
      ],
      [
        "ku",
        "le"
      ],
      [
        "bh",
        "e"
      ],
      [
        "h",
        "i"
      ],
      [
        "m",
        "p"
      ],
      [
        "u",
        "the"
      ],
      [
        "dla",
        "lo"
      ],
      [
        "h",
        "lo"
      ],
      [
        "ph",
        "e"
      ],
      [
        "em",
        "bu"
      ],
      [
        "z",
        "we"
      ],
      [
        "kw",
        "en"
      ],
      [
        "kha",
        "thi"
      ],
      [
        "q",
        "embu"
      ],
      [
        "y",
        "oku"
      ],
      [
        "K",
        "u"
      ],
      [
        "n",
        "oku"
      ],
      [
        "s",
        "wa"
      ],
      [
        "t",
        "a"
      ],
      [
        "ko",
        "dwa"
      ],
      [
        "ku",
        "sho"
      ],
      [
        "zi",
        "ni"
      ],
      [
        "nge",
        "si"
      ],
      [
        "pha",
        "ka"
      ],
      [
        "2",
        "0"
      ],
      [
        "i",
        "ni"
      ],
      [
        "nd",
        "e"
      ],
      [
        "v",
        "u"
      ],
      [
        "b",
        "ha"
      ],
      [
        "nd",
        "i"
      ],
      [
        "o",
        "r"
      ],
      [
        "g",
        "a"
      ],
      [
        "h",
        "lu"
      ],
      [
        "i",
        "mi"
      ],
      [
        "nje",
        "ngoba"
      ],
      [
        "seben",
        "zi"
      ],
      [
        "n",
        "ke"
      ],
      [
        "e",
        "ku"
      ],
      [
        "g",
        "i"
      ],
      [
        "s",
        "u"
      ],
      [
        "t",
        "e"
      ],
      [
        "q",
        "hu"
      ],
      [
        "a",
        "l"
      ],
      [
        "U",
        "the"
      ],
      [
        "we",
        "si"
      ],
      [
        "phaka",
        "thi"
      ],
      [
        "U",
        "M"
      ],
      [
        "l",
        "weni"
      ],
      [
        "t",
        "o"
      ],
      [
        "le",
        "ni"
      ],
      [
        "en",
        "e"
      ],
      [
        "sh",
        "e"
      ],
      [
        "m",
        "be"
      ],
      [
        "g",
        "u"
      ],
      [
        "ne",
        "zi"
      ],
      [
        "K",
        "wa"
      ],
      [
        "bo",
        "na"
      ],
      [
        "Z",
        "ulu"
      ],
      [
        "lo",
        "ku"
      ],
      [
        "g",
        "ci"
      ],
      [
        "h",
        "e"
      ],
      [
        "d",
        "u"
      ],
      [
        "la",
        "nd"
      ],
      [
        "bi",
        "li"
      ],
      [
        "qa",
        "la"
      ],
      [
        "B",
        "a"
      ],
      [
        "P",
        "i"
      ],
      [
        "g",
        "e"
      ],
      [
        "q",
        "u"
      ],
      [
        "r",
        "o"
      ],
      [
        "d",
        "lu"
      ],
      [
        "yi",
        "sa"
      ],
      [
        "d",
        "o"
      ],
      [
        "t",
        "sh"
      ],
      [
        "aba",
        "ntu"
      ],
      [
        "v",
        "e"
      ],
      [
        "kule",
        "li"
      ],
      [
        "fu",
        "thi"
      ],
      [
        "fu",
        "na"
      ],
      [
        "nya",
        "ka"
      ],
      [
        "z",
        "oku"
      ],
      [
        "L",
        "o"
      ],
      [
        "le",
        "le"
      ],
      [
        "en",
        "a"
      ],
      [
        "ne",
        "le"
      ],
      [
        "n",
        "s"
      ],
      [
        "n",
        "uz"
      ],
      [
        "v",
        "i"
      ],
      [
        "z",
        "wa"
      ],
      [
        "ke",
        "la"
      ],
      [
        "r",
        "a"
      ],
      [
        "b",
        "eni"
      ],
      [
        "N",
        "at"
      ],
      [
        ",",
        "”"
      ],
      [
        "hla",
        "nga"
      ],
      [
        "C",
        "hi"
      ],
      [
        "k",
        "oku"
      ],
      [
        "e",
        "t"
      ],
      [
        "shi",
        "p"
      ],
      [
        "S",
        "u"
      ],
      [
        "f",
        "s"
      ],
      [
        "u",
        "N"
      ],
      [
        "S",
        "o"
      ],
      [
        "m",
        "en"
      ],
      [
        "yi",
        "si"
      ],
      [
        "kwa",
        "zi"
      ],
      [
        "nj",
        "a"
      ],
      [
        "ama",
        "pho"
      ],
      [
        "lo",
        "khu"
      ],
      [
        "ki",
        "le"
      ],
      [
        "u",
        "bu"
      ],
      [
        "nga",
        "ma"
      ],
      [
        "e",
        "ma"
      ],
      [
        "n",
        "si"
      ],
      [
        "r",
        "at"
      ],
      [
        "ku",
        "lu"
      ],
      [
        "na",
        "ma"
      ],
      [
        "o",
        "li"
      ],
      [
        "nga",
        "pha"
      ],
      [
        "kh",
        "i"
      ],
      [
        "uM",
        "nuz"
      ],
      [
        "i",
        "zo"
      ],
      [
        "w",
        "oku"
      ],
      [
        "ma",
        "li"
      ],
      [
        "nd",
        "la"
      ],
      [
        "tho",
        "la"
      ],
      [
        "x",
        "a"
      ],
      [
        "qhu",
        "be"
      ],
      [
        "M",
        "o"
      ],
      [
        "j",
        "a"
      ],
      [
        "t",
        "y"
      ],
      [
        "ka",
        "khulu"
      ],
      [
        "c",
        "u"
      ],
      [
        "K",
        "a"
      ],
      [
        ".",
        "\""
      ],
      [
        "P",
        "r"
      ],
      [
        "uku",
        "ze"
      ],
      [
        "rat",
        "es"
      ],
      [
        "e",
        "se"
      ],
      [
        "the",
        "tho"
      ],
      [
        "Pi",
        "rates"
      ],
      [
        "Chi",
        "e"
      ],
      [
        "A",
        "f"
      ],
      [
        "a",
        "r"
      ],
      [
        "k",
        "ene"
      ],
      [
        "Chie",
        "fs"
      ],
      [
        "s",
        "en"
      ],
      [
        "bu",
        "la"
      ],
      [
        "s",
        "oku"
      ],
      [
        "ku",
        "ba"
      ],
      [
        "ka",
        "zi"
      ],
      [
        "fa",
        "nele"
      ],
      [
        "20",
        "2"
      ],
      [
        "ngesi",
        "khathi"
      ],
      [
        "n",
        "zi"
      ],
      [
        "q",
        "i"
      ],
      [
        "S",
        "ta"
      ],
      [
        "ni",
        "ngi"
      ],
      [
        "s",
        "uku"
      ],
      [
        "ng",
        "em"
      ],
      [
        "Nat",
        "al"
      ],
      [
        "Kwa",
        "Zulu"
      ],
      [
        "Ng",
        "i"
      ],
      [
        "ka",
        "nto"
      ],
      [
        "mbi",
        "sa"
      ],
      [
        "emi",
        "er"
      ],
      [
        "Pr",
        "emier"
      ],
      [
        "kanto",
        "lo"
      ],
      [
        "c",
        "e"
      ],
      [
        "i",
        "on"
      ],
      [
        "ze",
        "ka"
      ],
      [
        "uz",
        "u"
      ],
      [
        "e",
        "nga"
      ],
      [
        "uku",
        "ba"
      ],
      [
        "ca",
        "la"
      ],
      [
        "P",
        "ha"
      ],
      [
        "p",
        "a"
      ],
      [
        "T",
        "he"
      ],
      [
        "w",
        "ns"
      ],
      [
        "wa",
        "se"
      ],
      [
        "Su",
        "ndo"
      ],
      [
        "C",
        "i"
      ],
      [
        "n",
        "y"
      ],
      [
        "la",
        "pho"
      ],
      [
        "nt",
        "a"
      ],
      [
        "Af",
        "ri"
      ],
      [
        "Sundo",
        "wns"
      ],
      [
        "C",
        "o"
      ],
      [
        "m",
        "dlalo"
      ],
      [
        "li",
        "sa"
      ],
      [
        ",",
        "\""
      ],
      [
        "a",
        "be"
      ],
      [
        "dla",
        "lweni"
      ],
      [
        "ci",
        "mbi"
      ],
      [
        "r",
        "e"
      ],
      [
        "se",
        "le"
      ],
      [
        "na",
        "ba"
      ],
      [
        "tha",
        "thu"
      ],
      [
        "q",
        "ini"
      ],
      [
        "hle",
        "lo"
      ],
      [
        "ho",
        "li"
      ],
      [
        "L",
        "e"
      ],
      [
        "ph",
        "en"
      ],
      [
        "Premier",
        "ship"
      ],
      [
        "dla",
        "li"
      ],
      [
        "kwen",
        "za"
      ],
      [
        "um",
        "u"
      ],
      [
        "0",
        "0"
      ],
      [
        "Sta",
        "di"
      ],
      [
        "zi",
        "n"
      ],
      [
        "mbi",
        "li"
      ],
      [
        "Stadi",
        "um"
      ],
      [
        "m",
        "ele"
      ],
      [
        "se",
        "ku"
      ],
      [
        "nd",
        "leni"
      ],
      [
        "em",
        "ba"
      ],
      [
        "um",
        "o"
      ],
      [
        "dla",
        "la"
      ],
      [
        "w",
        "i"
      ],
      [
        "en",
        "da"
      ],
      [
        "izi",
        "n"
      ],
      [
        "w",
        "en"
      ],
      [
        "le",
        "si"
      ],
      [
        "u",
        "be"
      ],
      [
        "u",
        "va"
      ],
      [
        "nt",
        "i"
      ],
      [
        "qe",
        "qe"
      ],
      [
        "c",
        "h"
      ],
      [
        "kha",
        "ya"
      ],
      [
        "nja",
        "lo"
      ],
      [
        "sh",
        "wa"
      ],
      [
        "fa",
        "na"
      ],
      [
        "dlu",
        "le"
      ],
      [
        "Ci",
        "ty"
      ],
      [
        "U",
        "N"
      ],
      [
        "ku",
        "ka"
      ],
      [
        "no",
        "m"
      ],
      [
        "phi",
        "nde"
      ],
      [
        "n",
        "u"
      ],
      [
        "ph",
        "um"
      ],
      [
        "s",
        "we"
      ],
      [
        "u",
        "zo"
      ],
      [
        "se",
        "la"
      ],
      [
        "ph",
        "uzu"
      ],
      [
        "nda",
        "wo"
      ],
      [
        "wa",
        "ba"
      ],
      [
        "za",
        "ne"
      ],
      [
        "t",
        "u"
      ],
      [
        "e",
        "N"
      ],
      [
        "k",
        "s"
      ],
      [
        "wa",
        "ye"
      ],
      [
        "so",
        "lwa"
      ],
      [
        "nya",
        "ngo"
      ],
      [
        "e",
        "M"
      ],
      [
        "ku",
        "lo"
      ],
      [
        "ng",
        "weni"
      ],
      [
        "ye",
        "si"
      ],
      [
        "bh",
        "o"
      ],
      [
        "bhe",
        "ka"
      ],
      [
        "ku",
        "zo"
      ],
      [
        "nga",
        "ba"
      ],
      [
        "A",
        "N"
      ],
      [
        "N",
        "o"
      ],
      [
        "ng",
        "qo"
      ],
      [
        "wa",
        "ma"
      ],
      [
        "u",
        "r"
      ],
      [
        "v",
        "ele"
      ],
      [
        "ba",
        "n"
      ],
      [
        "ph",
        "u"
      ],
      [
        "ph",
        "ela"
      ],
      [
        "fu",
        "nda"
      ],
      [
        "ngen",
        "xa"
      ],
      [
        "A",
        "ma"
      ],
      [
        "u",
        "se"
      ],
      [
        "R",
        "amapho"
      ],
      [
        "za",
        "yo"
      ],
      [
        "Ramapho",
        "sa"
      ],
      [
        "ka",
        "la"
      ],
      [
        "nd",
        "eni"
      ],
      [
        "men",
        "de"
      ],
      [
        "o",
        "lu"
      ],
      [
        "la",
        "ndo"
      ],
      [
        "le",
        "lwa"
      ],
      [
        "c",
        "wa"
      ],
      [
        "p",
        "e"
      ],
      [
        "no",
        "ma"
      ],
      [
        "qhube",
        "ka"
      ],
      [
        "F",
        "C"
      ],
      [
        "en",
        "t"
      ],
      [
        "ze",
        "la"
      ],
      [
        "ngoku",
        "thi"
      ],
      [
        "gci",
        "na"
      ],
      [
        "a",
        "ku"
      ],
      [
        "i",
        "g"
      ],
      [
        "land",
        "ela"
      ],
      [
        "Pha",
        "la"
      ],
      [
        "L",
        "I"
      ],
      [
        "m",
        "bo"
      ],
      [
        "o",
        "f"
      ],
      [
        "y",
        "ena"
      ],
      [
        "ku",
        "be"
      ],
      [
        "I",
        "si"
      ],
      [
        "d",
        "lela"
      ],
      [
        "nd",
        "le"
      ],
      [
        "r",
        "d"
      ],
      [
        "li",
        "gi"
      ],
      [
        "S",
        "a"
      ],
      [
        "e",
        "ngu"
      ],
      [
        "Ng",
        "a"
      ],
      [
        "j",
        "i"
      ],
      [
        "ng",
        "um"
      ],
      [
        "ngo",
        "M"
      ],
      [
        "A",
        "ba"
      ],
      [
        "m",
        "eni"
      ],
      [
        "lo",
        "kho"
      ],
      [
        "ne",
        "si"
      ],
      [
        "ke",
        "le"
      ],
      [
        "mu",
        "nye"
      ],
      [
        "ngen",
        "a"
      ],
      [
        "hlu",
        "kene"
      ],
      [
        "Afri",
        "ka"
      ],
      [
        "ks",
        "z"
      ],
      [
        "S",
        "A"
      ],
      [
        "S",
        "e"
      ],
      [
        "s",
        "t"
      ],
      [
        "ny",
        "u"
      ],
      [
        "L",
        "wesi"
      ],
      [
        "n",
        "q"
      ],
      [
        "le",
        "li"
      ],
      [
        "ba",
        "zo"
      ],
      [
        "thi",
        "wa"
      ],
      [
        "nga",
        "yo"
      ],
      [
        "kwe",
        "si"
      ],
      [
        "B",
        "et"
      ],
      [
        "I",
        "ma"
      ],
      [
        "v",
        "o"
      ],
      [
        "ha",
        "mba"
      ],
      [
        "nge",
        "zi"
      ],
      [
        "thu",
        "ba"
      ],
      [
        "kwa",
        "ma"
      ],
      [
        "Ima",
        "ge"
      ],
      [
        "O",
        "r"
      ],
      [
        "e",
        "d"
      ],
      [
        "e",
        "ya"
      ],
      [
        "e",
        "yi"
      ],
      [
        "l",
        "li"
      ],
      [
        "be",
        "si"
      ],
      [
        "khulu",
        "ma"
      ],
      [
        "C",
        "ha"
      ],
      [
        "m",
        "ela"
      ],
      [
        "wa",
        "y"
      ],
      [
        "nd",
        "aba"
      ],
      [
        "em",
        "dlalweni"
      ],
      [
        "bu",
        "ye"
      ],
      [
        "shi",
        "ni"
      ],
      [
        "l",
        "le"
      ],
      [
        "m",
        "eli"
      ],
      [
        "th",
        "wa"
      ],
      [
        "en",
        "ye"
      ],
      [
        "ph",
        "ele"
      ],
      [
        "ya",
        "khe"
      ],
      [
        "C",
        "a"
      ],
      [
        "kha",
        "la"
      ],
      [
        "tho",
        "le"
      ],
      [
        "G",
        "a"
      ],
      [
        "f",
        "o"
      ],
      [
        "ba",
        "la"
      ],
      [
        "be",
        "ku"
      ],
      [
        "so",
        "nto"
      ],
      [
        "ngi",
        "zi"
      ],
      [
        "fu",
        "ndi"
      ],
      [
        "kwi",
        "ni"
      ],
      [
        "nzi",
        "ma"
      ],
      [
        "Bet",
        "way"
      ],
      [
        "U",
        "ni"
      ],
      [
        "a",
        "se"
      ],
      [
        "g",
        "o"
      ],
      [
        "lu",
        "ngu"
      ],
      [
        "ne",
        "mi"
      ],
      [
        "qeqe",
        "shi"
      ],
      [
        "z",
        "ulu"
      ],
      [
        "ngo",
        "Lwesi"
      ],
      [
        "qini",
        "se"
      ],
      [
        "x",
        "o"
      ],
      [
        "hu",
        "ma"
      ],
      [
        "A",
        "r"
      ],
      [
        "d",
        "aba"
      ],
      [
        "i",
        "ze"
      ],
      [
        "n",
        "en"
      ],
      [
        "th",
        "we"
      ],
      [
        "ge",
        "be"
      ],
      [
        "e",
        "bu"
      ],
      [
        "nd",
        "lela"
      ],
      [
        "nge",
        "ke"
      ],
      [
        "hla",
        "ba"
      ],
      [
        "fa",
        "zane"
      ],
      [
        "co",
        "co"
      ],
      [
        "mo",
        "to"
      ],
      [
        "ve",
        "ze"
      ],
      [
        "wa",
        "na"
      ],
      [
        "c",
        "ha"
      ],
      [
        "i",
        "mali"
      ],
      [
        "l",
        "d"
      ],
      [
        "p",
        "i"
      ],
      [
        "q",
        "ha"
      ],
      [
        "z",
        "weni"
      ],
      [
        "kwe",
        "zi"
      ],
      [
        "fi",
        "ka"
      ],
      [
        "mp",
        "a"
      ],
      [
        "Phala",
        "mende"
      ],
      [
        "J",
        "a"
      ],
      [
        "th",
        "emba"
      ],
      [
        "se",
        "si"
      ],
      [
        "um",
        "e"
      ],
      [
        "The",
        "kwini"
      ],
      [
        "U",
        "m"
      ],
      [
        "n",
        "qo"
      ],
      [
        "le",
        "ka"
      ],
      [
        "li",
        "ka"
      ],
      [
        "enda",
        "weni"
      ],
      [
        "lo",
        "lu"
      ],
      [
        "za",
        "ma"
      ],
      [
        "hu",
        "lu"
      ],
      [
        "umu",
        "ntu"
      ],
      [
        "I",
        "F"
      ],
      [
        "N",
        "a"
      ],
      [
        "u",
        "sho"
      ],
      [
        "J",
        "u"
      ],
      [
        "u",
        "T"
      ],
      [
        "u",
        "Ma"
      ],
      [
        "ku",
        "sa"
      ],
      [
        "zi",
        "wa"
      ],
      [
        "ka",
        "njalo"
      ],
      [
        "nga",
        "kho"
      ],
      [
        "ezi",
        "n"
      ],
      [
        "h",
        "li"
      ],
      [
        "le",
        "zi"
      ],
      [
        "si",
        "zo"
      ],
      [
        "ka",
        "nje"
      ],
      [
        "ku",
        "su"
      ],
      [
        "ng",
        "wa"
      ],
      [
        "li",
        "ngi"
      ],
      [
        "fu",
        "ndo"
      ],
      [
        "me",
        "lo"
      ],
      [
        "ga",
        "me"
      ],
      [
        "hulu",
        "meni"
      ],
      [
        "P",
        "o"
      ],
      [
        "yo",
        "na"
      ],
      [
        "U",
        "K"
      ],
      [
        "a",
        "ngu"
      ],
      [
        "be",
        "se"
      ],
      [
        "um",
        "ele"
      ],
      [
        "kwa",
        "ba"
      ],
      [
        "nq",
        "umo"
      ],
      [
        "a",
        "si"
      ],
      [
        "s",
        "eni"
      ],
      [
        "ng",
        "eni"
      ],
      [
        "izi",
        "nto"
      ],
      [
        ")",
        ","
      ],
      [
        "i",
        "sa"
      ],
      [
        "n",
        "ko"
      ],
      [
        "o",
        "m"
      ],
      [
        "u",
        "B"
      ],
      [
        "u",
        "g"
      ],
      [
        "u",
        "ya"
      ],
      [
        "wa",
        "thi"
      ],
      [
        "nd",
        "ele"
      ],
      [
        "qa",
        "le"
      ],
      [
        "seben",
        "za"
      ],
      [
        "Lo",
        "khu"
      ],
      [
        "amapho",
        "yisa"
      ],
      [
        "L",
        "i"
      ],
      [
        "wa",
        "khe"
      ],
      [
        "ma",
        "nje"
      ],
      [
        "lo",
        "vu"
      ],
      [
        "hla",
        "ka"
      ],
      [
        "hla",
        "nu"
      ],
      [
        "ngen",
        "dlela"
      ],
      [
        "ngizi",
        "mu"
      ],
      [
        "U",
        "ma"
      ],
      [
        "n",
        "ka"
      ],
      [
        "n",
        "qa"
      ],
      [
        "w",
        "ukuthi"
      ],
      [
        "ka",
        "nye"
      ],
      [
        "ya",
        "se"
      ],
      [
        "ca",
        "ne"
      ],
      [
        "v",
        "ela"
      ],
      [
        "yoku",
        "thi"
      ],
      [
        "bheka",
        "na"
      ],
      [
        "Or",
        "lando"
      ],
      [
        "game",
        "ko"
      ],
      [
        "M",
        "i"
      ],
      [
        "e",
        "l"
      ],
      [
        "e",
        "zo"
      ],
      [
        "e",
        "Thekwini"
      ],
      [
        "g",
        "qi"
      ],
      [
        "i",
        "ngizimu"
      ],
      [
        "n",
        "x"
      ],
      [
        "w",
        "ini"
      ],
      [
        "z",
        "u"
      ],
      [
        "ku",
        "landela"
      ],
      [
        "hla",
        "la"
      ],
      [
        "ki",
        "sa"
      ],
      [
        "sha",
        "ye"
      ],
      [
        "ti",
        "on"
      ],
      [
        "be",
        "zi"
      ],
      [
        "ngo",
        "m"
      ],
      [
        "pho",
        "yisa"
      ],
      [
        "L",
        "a"
      ],
      [
        "u",
        "p"
      ],
      [
        "ku",
        "ndleni"
      ],
      [
        "ka",
        "hle"
      ],
      [
        "nga",
        "ni"
      ],
      [
        "em",
        "uva"
      ],
      [
        "kho",
        "mbisa"
      ],
      [
        "wo",
        "na"
      ],
      [
        "mp",
        "i"
      ],
      [
        "mp",
        "ion"
      ],
      [
        "sebenzi",
        "sa"
      ],
      [
        "Cha",
        "mpion"
      ],
      [
        "D",
        "i"
      ],
      [
        "H",
        "I"
      ],
      [
        "n",
        "kulu"
      ],
      [
        "ku",
        "fanele"
      ],
      [
        "lo",
        "g"
      ],
      [
        "em",
        "e"
      ],
      [
        "pha",
        "nsi"
      ],
      [
        "tho",
        "mbe"
      ],
      [
        "bh",
        "u"
      ],
      [
        "nya",
        "ma"
      ],
      [
        "o",
        "u"
      ],
      [
        "u",
        "sa"
      ],
      [
        "th",
        "eni"
      ],
      [
        "ba",
        "lo"
      ],
      [
        "se",
        "zi"
      ],
      [
        "sh",
        "u"
      ],
      [
        "bu",
        "ka"
      ],
      [
        "hlanga",
        "no"
      ],
      [
        "IF",
        "P"
      ],
      [
        "S",
        "I"
      ],
      [
        "e",
        "thi"
      ],
      [
        "e",
        "ngi"
      ],
      [
        "k",
        "k"
      ],
      [
        "se",
        "m"
      ],
      [
        "ha",
        "mbe"
      ],
      [
        "isi",
        "khathi"
      ],
      [
        "ki",
        "nga"
      ],
      [
        "bhe",
        "kene"
      ],
      [
        "ve",
        "za"
      ],
      [
        "gebe",
        "ngu"
      ],
      [
        "B",
        "A"
      ],
      [
        "a",
        "ka"
      ],
      [
        "g",
        "qu"
      ],
      [
        "t",
        "s"
      ],
      [
        "lu",
        "la"
      ],
      [
        "ya",
        "ma"
      ],
      [
        "hla",
        "lo"
      ],
      [
        "K",
        "P"
      ],
      [
        "e",
        "sa"
      ],
      [
        "o",
        "wa"
      ],
      [
        "ku",
        "phela"
      ],
      [
        "la",
        "khe"
      ],
      [
        "nt",
        "sha"
      ],
      [
        "no",
        "bu"
      ],
      [
        "ngapha",
        "ndle"
      ],
      [
        "cu",
        "lo"
      ],
      [
        "pa",
        "la"
      ],
      [
        "R",
        "o"
      ],
      [
        "c",
        "hi"
      ],
      [
        "i",
        "ndawo"
      ],
      [
        "u",
        "C"
      ],
      [
        "si",
        "pala"
      ],
      [
        "yi",
        "ni"
      ],
      [
        "qo",
        "ka"
      ],
      [
        "sha",
        "ya"
      ],
      [
        "es",
        "t"
      ],
      [
        "hlo",
        "bo"
      ],
      [
        "te",
        "d"
      ],
      [
        "gci",
        "ne"
      ],
      [
        "S",
        "ha"
      ],
      [
        "a",
        "zo"
      ],
      [
        "m",
        "cimbi"
      ],
      [
        "p",
        "o"
      ],
      [
        "p",
        "ela"
      ],
      [
        "z",
        "en"
      ],
      [
        "kh",
        "um"
      ],
      [
        "be",
        "lo"
      ],
      [
        "pha",
        "mbili"
      ],
      [
        "tha",
        "nda"
      ],
      [
        "thu",
        "la"
      ],
      [
        "mu",
        "ntu"
      ],
      [
        "ebu",
        "suku"
      ],
      [
        "o",
        "bu"
      ],
      [
        "y",
        "en"
      ],
      [
        "ku",
        "khona"
      ],
      [
        "oku",
        "ba"
      ],
      [
        "ngo",
        "ma"
      ],
      [
        "qe",
        "da"
      ],
      [
        "fi",
        "ke"
      ],
      [
        "rd",
        "s"
      ],
      [
        "Uni",
        "ted"
      ],
      [
        "G",
        "o"
      ],
      [
        "g",
        "oli"
      ],
      [
        "la",
        "ba"
      ],
      [
        "um",
        "dlalo"
      ],
      [
        "bi",
        "ko"
      ],
      [
        "yo",
        "M"
      ],
      [
        "tha",
        "tha"
      ],
      [
        "Ma",
        "melo"
      ],
      [
        "Ng",
        "o"
      ],
      [
        "Mamelo",
        "di"
      ],
      [
        "Z",
        "i"
      ],
      [
        "c",
        "we"
      ],
      [
        "o",
        "na"
      ],
      [
        "x",
        "huma"
      ],
      [
        "th",
        "weni"
      ],
      [
        "mi",
        "dlalo"
      ],
      [
        "khe",
        "tho"
      ],
      [
        "Si",
        "ya"
      ],
      [
        "C",
        "up"
      ],
      [
        "N",
        "G"
      ],
      [
        "S",
        "te"
      ],
      [
        "a",
        "nga"
      ],
      [
        "b",
        "oku"
      ],
      [
        "si",
        "zini"
      ],
      [
        "lo",
        "nke"
      ],
      [
        "nga",
        "ne"
      ],
      [
        "um",
        "sebenzi"
      ],
      [
        "land",
        "eli"
      ],
      [
        "uN",
        "ksz"
      ],
      [
        "ja",
        "bu"
      ],
      [
        "Ka",
        "ize"
      ],
      [
        "mbisa",
        "na"
      ],
      [
        "Kaize",
        "r"
      ],
      [
        "D",
        "A"
      ],
      [
        "i",
        "ng"
      ],
      [
        "i",
        "qembu"
      ],
      [
        "m",
        "bu"
      ],
      [
        "t",
        "at"
      ],
      [
        "u",
        "si"
      ],
      [
        "en",
        "d"
      ],
      [
        "li",
        "ndele"
      ],
      [
        "yo",
        "m"
      ],
      [
        "mi",
        "ni"
      ],
      [
        "ngesi",
        "zini"
      ],
      [
        "ba",
        "se"
      ],
      [
        "lu",
        "ngi"
      ],
      [
        "zo",
        "m"
      ],
      [
        "isi",
        "zini"
      ],
      [
        "wo",
        "m"
      ],
      [
        "nya",
        "k"
      ],
      [
        "hlo",
        "ni"
      ],
      [
        "20",
        "1"
      ],
      [
        "imi",
        "dlalo"
      ],
      [
        "tsh",
        "u"
      ],
      [
        "So",
        "nto"
      ],
      [
        "phum",
        "ela"
      ],
      [
        "R",
        "i"
      ],
      [
        "T",
        "o"
      ],
      [
        "a",
        "d"
      ],
      [
        "g",
        "wa"
      ],
      [
        "h",
        "l"
      ],
      [
        "la",
        "la"
      ],
      [
        "thi",
        "ni"
      ],
      [
        "nga",
        "ka"
      ],
      [
        "sh",
        "we"
      ],
      [
        "ko",
        "m"
      ],
      [
        "shi",
        "ya"
      ],
      [
        "wo",
        "nke"
      ],
      [
        "bh",
        "i"
      ],
      [
        "mu",
        "va"
      ],
      [
        "ngqo",
        "she"
      ],
      [
        "nqo",
        "ba"
      ],
      [
        "ku",
        "ma"
      ],
      [
        "la",
        "se"
      ],
      [
        "si",
        "za"
      ],
      [
        "na",
        "ye"
      ],
      [
        "ya",
        "ba"
      ],
      [
        "ze",
        "le"
      ],
      [
        "ki",
        "thi"
      ],
      [
        "er",
        "s"
      ],
      [
        "ci",
        "ko"
      ],
      [
        "izo",
        "lo"
      ],
      [
        "enga",
        "meli"
      ],
      [
        "AN",
        "C"
      ],
      [
        "nqa",
        "mu"
      ],
      [
        "D",
        "la"
      ],
      [
        "K",
        "ha"
      ],
      [
        "W",
        "a"
      ],
      [
        "Z",
        "N"
      ],
      [
        "a",
        "yi"
      ],
      [
        "a",
        "gu"
      ],
      [
        "e",
        "dlule"
      ],
      [
        "o",
        "be"
      ],
      [
        "zo",
        "be"
      ],
      [
        "bo",
        "m"
      ],
      [
        "fa",
        "ka"
      ],
      [
        "Isi",
        "thombe"
      ],
      [
        "L",
        "E"
      ],
      [
        "c",
        "k"
      ],
      [
        "u",
        "Ramaphosa"
      ],
      [
        "ba",
        "nga"
      ],
      [
        "ba",
        "ya"
      ],
      [
        "bu",
        "ke"
      ],
      [
        "nge",
        "Sonto"
      ],
      [
        "phe",
        "zulu"
      ],
      [
        "kwen",
        "zeka"
      ],
      [
        "hlanga",
        "ni"
      ],
      [
        "sele",
        "lo"
      ],
      [
        "Le",
        "agu"
      ],
      [
        "lli",
        "on"
      ],
      [
        "Leagu",
        "e"
      ],
      [
        "3",
        "0"
      ],
      [
        "K",
        "ho"
      ],
      [
        "L",
        "A"
      ],
      [
        "N",
        "ingizimu"
      ],
      [
        "U",
        "ku"
      ],
      [
        "f",
        "e"
      ],
      [
        "m",
        "s"
      ],
      [
        "r",
        "y"
      ],
      [
        "ku",
        "ya"
      ],
      [
        "ku",
        "mele"
      ],
      [
        "le",
        "lwe"
      ],
      [
        "kwa",
        "ne"
      ],
      [
        "ngem",
        "pela"
      ],
      [
        "funda",
        "zwe"
      ],
      [
        "mpa",
        "ni"
      ],
      [
        "Po",
        "lo"
      ],
      [
        ")",
        "."
      ],
      [
        "N",
        "d"
      ],
      [
        "Q",
        "E"
      ],
      [
        "la",
        "bo"
      ],
      [
        "em",
        "va"
      ],
      [
        "bu",
        "ya"
      ],
      [
        "nt",
        "e"
      ],
      [
        "bi",
        "sa"
      ],
      [
        "pha",
        "thi"
      ],
      [
        "wi",
        "na"
      ],
      [
        "Champion",
        "ship"
      ],
      [
        "Polo",
        "kwane"
      ],
      [
        "B",
        "o"
      ],
      [
        "i",
        "nto"
      ],
      [
        "p",
        "u"
      ],
      [
        "le",
        "kile"
      ],
      [
        "za",
        "mi"
      ],
      [
        "bo",
        "nga"
      ],
      [
        "mba",
        "ma"
      ],
      [
        "nezi",
        "n"
      ],
      [
        "ngapha",
        "nsi"
      ],
      [
        "nta",
        "mbama"
      ],
      [
        "si",
        "ka"
      ],
      [
        "nd",
        "lu"
      ],
      [
        "khu",
        "ndleni"
      ],
      [
        "gqi",
        "belo"
      ],
      [
        "ona",
        "l"
      ],
      [
        "U",
        "Ma"
      ],
      [
        "d",
        "eni"
      ],
      [
        "thi",
        "mba"
      ],
      [
        "na",
        "bo"
      ],
      [
        "na",
        "yo"
      ],
      [
        "hla",
        "le"
      ],
      [
        "ama",
        "phuzu"
      ],
      [
        "isi",
        "nqumo"
      ],
      [
        "Ng",
        "co"
      ],
      [
        "kwen",
        "ze"
      ],
      [
        "noku",
        "thi"
      ],
      [
        "202",
        "6"
      ],
      [
        "Afri",
        "ca"
      ],
      [
        "wama",
        "nqamu"
      ],
      [
        "okuba",
        "lwa"
      ],
      [
        "hl",
        "uku"
      ],
      [
        "a",
        "m"
      ],
      [
        "th",
        "em"
      ],
      [
        "ba",
        "mba"
      ],
      [
        "en",
        "j"
      ],
      [
        "li",
        "le"
      ],
      [
        "nga",
        "le"
      ],
      [
        "be",
        "be"
      ],
      [
        "ya",
        "nga"
      ],
      [
        "no",
        "M"
      ],
      [
        "xhuma",
        "na"
      ],
      [
        "H",
        "A"
      ],
      [
        "N",
        "e"
      ],
      [
        "a",
        "wu"
      ],
      [
        "e",
        "e"
      ],
      [
        "n",
        "eni"
      ],
      [
        "o",
        "yi"
      ],
      [
        "x",
        "ha"
      ],
      [
        "ka",
        "nti"
      ],
      [
        "ko",
        "nke"
      ],
      [
        "bo",
        "ne"
      ],
      [
        "nge",
        "kho"
      ],
      [
        "kwa",
        "bo"
      ],
      [
        "ngen",
        "e"
      ],
      [
        "tsh",
        "ela"
      ],
      [
        "et",
        "er"
      ],
      [
        "ngem",
        "uva"
      ],
      [
        "kusu",
        "kela"
      ],
      [
        "A",
        "wa"
      ],
      [
        "D",
        "ur"
      ],
      [
        "Z",
        "uma"
      ],
      [
        "c",
        "hu"
      ],
      [
        "e",
        "zayo"
      ],
      [
        "i",
        "nga"
      ],
      [
        "n",
        "cane"
      ],
      [
        "u",
        "ba"
      ],
      [
        "w",
        "um"
      ],
      [
        "na",
        "se"
      ],
      [
        "nga",
        "thi"
      ],
      [
        "ye",
        "la"
      ],
      [
        "yi",
        "nto"
      ],
      [
        "um",
        "biko"
      ],
      [
        "ke",
        "lo"
      ],
      [
        "kha",
        "nka"
      ],
      [
        "bhe",
        "ke"
      ],
      [
        "eku",
        "theni"
      ],
      [
        "khi",
        "pha"
      ],
      [
        "Dur",
        "ban"
      ],
      [
        "I",
        "zi"
      ],
      [
        "i",
        "Pirates"
      ],
      [
        "i",
        "thuba"
      ],
      [
        "o",
        "ma"
      ],
      [
        "o",
        "se"
      ],
      [
        "w",
        "uku"
      ],
      [
        "ku",
        "ze"
      ],
      [
        "be",
        "le"
      ],
      [
        "za",
        "khe"
      ],
      [
        "bo",
        "ni"
      ],
      [
        "isi",
        "coco"
      ],
      [
        "kwazi",
        "se"
      ],
      [
        "phen",
        "yo"
      ],
      [
        "phen",
        "du"
      ],
      [
        "ngoM",
        "gqibelo"
      ],
      [
        "Ju",
        "ni"
      ],
      [
        "E",
        "P"
      ],
      [
        "O",
        "ku"
      ],
      [
        "P",
        "ro"
      ],
      [
        "a",
        "nd"
      ],
      [
        "e",
        "ze"
      ],
      [
        "j",
        "e"
      ],
      [
        "t",
        "sha"
      ],
      [
        "x",
        "i"
      ],
      [
        "ba",
        "zi"
      ],
      [
        "ph",
        "uma"
      ],
      [
        "ngo",
        "munye"
      ],
      [
        "um",
        "i"
      ],
      [
        "ama",
        "qembu"
      ],
      [
        "kha",
        "le"
      ],
      [
        "tha",
        "the"
      ],
      [
        "do",
        "so"
      ],
      [
        "tsh",
        "wa"
      ],
      [
        "cu",
        "li"
      ],
      [
        "ar",
        "doso"
      ],
      [
        "F",
        "a"
      ],
      [
        "e",
        "ba"
      ],
      [
        "i",
        "cala"
      ],
      [
        "ka",
        "le"
      ],
      [
        "yi",
        "zi"
      ],
      [
        "aba",
        "nga"
      ],
      [
        "aba",
        "kuleli"
      ],
      [
        "zo",
        "nke"
      ],
      [
        "hla",
        "ngo"
      ],
      [
        "izi",
        "qu"
      ],
      [
        "co",
        "ngweni"
      ],
      [
        "bha",
        "mu"
      ],
      [
        "eku",
        "beni"
      ],
      [
        "Mo",
        "t"
      ],
      [
        "00",
        "0"
      ],
      [
        "cwa",
        "di"
      ],
      [
        "ig",
        "h"
      ],
      [
        "kusa",
        "sa"
      ],
      [
        "K",
        "U"
      ],
      [
        "P",
        "la"
      ],
      [
        "a",
        "ye"
      ],
      [
        "m",
        "nyama"
      ],
      [
        "y",
        "u"
      ],
      [
        "ku",
        "nga"
      ],
      [
        "se",
        "be"
      ],
      [
        "mi",
        "shini"
      ],
      [
        "kho",
        "si"
      ],
      [
        "esi",
        "khundleni"
      ],
      [
        "nje",
        "nge"
      ],
      [
        "phaka",
        "mi"
      ],
      [
        "Ba",
        "y"
      ],
      [
        "ngapha",
        "mbi"
      ],
      [
        "bho",
        "la"
      ],
      [
        "cwe",
        "le"
      ],
      [
        "lindele",
        "ke"
      ],
      [
        "1",
        "9"
      ],
      [
        "I",
        "N"
      ],
      [
        "P",
        "eter"
      ],
      [
        "e",
        "yo"
      ],
      [
        "i",
        "Chiefs"
      ],
      [
        "l",
        "l"
      ],
      [
        "t",
        "on"
      ],
      [
        "u",
        "D"
      ],
      [
        "u",
        "hlelo"
      ],
      [
        "v",
        "in"
      ],
      [
        "x",
        "y"
      ],
      [
        "si",
        "zi"
      ],
      [
        "si",
        "nga"
      ],
      [
        "zo",
        "bu"
      ],
      [
        "mi",
        "llion"
      ],
      [
        "lwa",
        "no"
      ],
      [
        "ama",
        "bili"
      ],
      [
        "di",
        "nga"
      ],
      [
        "ngoku",
        "ba"
      ],
      [
        "ri",
        "c"
      ],
      [
        "phe",
        "the"
      ],
      [
        "su",
        "ngu"
      ],
      [
        "nja",
        "ni"
      ],
      [
        "bula",
        "la"
      ],
      [
        "soku",
        "thi"
      ],
      [
        "ban",
        "k"
      ],
      [
        "Ga",
        "la"
      ],
      [
        "lingi",
        "si"
      ],
      [
        "enj",
        "ini"
      ],
      [
        "1",
        "0"
      ],
      [
        "J",
        "o"
      ],
      [
        "N",
        "je"
      ],
      [
        "O",
        "u"
      ],
      [
        "P",
        "a"
      ],
      [
        "e",
        "bi"
      ],
      [
        "i",
        "ndlela"
      ],
      [
        "u",
        "kwe"
      ],
      [
        "z",
        "em"
      ],
      [
        "le",
        "ke"
      ],
      [
        "en",
        "kantolo"
      ],
      [
        "si",
        "se"
      ],
      [
        "lo",
        "na"
      ],
      [
        "se",
        "pe"
      ],
      [
        "nd",
        "ela"
      ],
      [
        "uku",
        "zi"
      ],
      [
        "nga",
        "be"
      ],
      [
        "ko",
        "mi"
      ],
      [
        "yo",
        "nke"
      ],
      [
        "er",
        "i"
      ],
      [
        "Ng",
        "esi"
      ],
      [
        "at",
        "ion"
      ],
      [
        "de",
        "be"
      ],
      [
        "hlo",
        "ko"
      ],
      [
        "zwe",
        "lonke"
      ],
      [
        "nde",
        "be"
      ],
      [
        "wesi",
        "fazane"
      ],
      [
        "ngama",
        "phuzu"
      ],
      [
        "202",
        "4"
      ],
      [
        "cimbi",
        "ni"
      ],
      [
        "ngoM",
        "eyi"
      ],
      [
        "Ca",
        "f"
      ],
      [
        "nko",
        "si"
      ],
      [
        "Nd",
        "lovu"
      ],
      [
        "Mot",
        "sepe"
      ],
      [
        "E",
        "F"
      ],
      [
        "G",
        "oli"
      ],
      [
        "H",
        "la"
      ],
      [
        "K",
        "o"
      ],
      [
        "M",
        "nyango"
      ],
      [
        "M",
        "KP"
      ],
      [
        "c",
        "ela"
      ],
      [
        "e",
        "khaya"
      ],
      [
        "g",
        "cwele"
      ],
      [
        "k",
        "isi"
      ],
      [
        "q",
        "enjini"
      ],
      [
        "th",
        "ro"
      ],
      [
        "ni",
        "na"
      ],
      [
        "sa",
        "ba"
      ],
      [
        "nt",
        "shi"
      ],
      [
        "ke",
        "lwa"
      ],
      [
        "lwa",
        "ne"
      ],
      [
        "ama",
        "thathu"
      ],
      [
        "fa",
        "kazi"
      ],
      [
        "ngoku",
        "ngem"
      ],
      [
        "kule",
        "si"
      ],
      [
        "loku",
        "thi"
      ],
      [
        "Ba",
        "fana"
      ],
      [
        "zoku",
        "xhumana"
      ],
      [
        "bula",
        "wa"
      ],
      [
        "wase",
        "M"
      ],
      [
        "Gala",
        "xy"
      ],
      [
        "ngokungem",
        "thetho"
      ],
      [
        "1",
        "5"
      ],
      [
        "B",
        "O"
      ],
      [
        "T",
        "S"
      ],
      [
        "U",
        "C"
      ],
      [
        "W",
        "or"
      ],
      [
        "i",
        "ya"
      ],
      [
        "o",
        "zo"
      ],
      [
        "p",
        "or"
      ],
      [
        "u",
        "s"
      ],
      [
        "u",
        "nga"
      ],
      [
        "x",
        "e"
      ],
      [
        "x",
        "enye"
      ],
      [
        "en",
        "zi"
      ],
      [
        "be",
        "li"
      ],
      [
        "um",
        "ndeni"
      ],
      [
        "aba",
        "ningi"
      ],
      [
        "20",
        "0"
      ],
      [
        "ndi",
        "le"
      ],
      [
        "gi",
        "lwa"
      ],
      [
        "H",
        "o"
      ],
      [
        "a",
        "s"
      ],
      [
        "o",
        "kwa"
      ],
      [
        "t",
        "ela"
      ],
      [
        "v",
        "er"
      ],
      [
        "w",
        "s"
      ],
      [
        "la",
        "hle"
      ],
      [
        "ka",
        "thi"
      ],
      [
        "ka",
        "njani"
      ],
      [
        "thi",
        "nta"
      ],
      [
        "ya",
        "le"
      ],
      [
        "em",
        "cimbini"
      ],
      [
        "nt",
        "wana"
      ],
      [
        "lwa",
        "zi"
      ],
      [
        "kwa",
        "khe"
      ],
      [
        "ngi",
        "sho"
      ],
      [
        "tha",
        "ndo"
      ],
      [
        "esi",
        "congweni"
      ],
      [
        "shi",
        "ntsha"
      ],
      [
        "emi",
        "dlalweni"
      ],
      [
        "phe",
        "thro"
      ],
      [
        "su",
        "ka"
      ],
      [
        "vi",
        "kela"
      ],
      [
        "koku",
        "qala"
      ],
      [
        "uN",
        "kk"
      ],
      [
        "ed",
        "bank"
      ],
      [
        "nyak",
        "enye"
      ],
      [
        "Pla",
        "y"
      ],
      [
        "EF",
        "F"
      ],
      [
        "phethro",
        "li"
      ],
      [
        "C",
        "on"
      ],
      [
        "S",
        "h"
      ],
      [
        "T",
        "h"
      ],
      [
        "f",
        "or"
      ],
      [
        "i",
        "bi"
      ],
      [
        "o",
        "waye"
      ],
      [
        "u",
        "th"
      ],
      [
        "u",
        "yi"
      ],
      [
        "lo",
        "m"
      ],
      [
        "we",
        "ze"
      ],
      [
        "se",
        "ka"
      ],
      [
        "nga",
        "phakathi"
      ],
      [
        "bu",
        "so"
      ],
      [
        "aba",
        "dlali"
      ],
      [
        "the",
        "thweni"
      ],
      [
        "kha",
        "ndlu"
      ],
      [
        "dla",
        "le"
      ],
      [
        "kwe",
        "mi"
      ],
      [
        "izi",
        "moto"
      ],
      [
        "Ma",
        "sipala"
      ],
      [
        "fa",
        "ke"
      ],
      [
        "ngen",
        "zeka"
      ],
      [
        "qe",
        "de"
      ],
      [
        "phe",
        "zu"
      ],
      [
        "imi",
        "nyaka"
      ],
      [
        "do",
        "u"
      ],
      [
        "qhube",
        "ke"
      ],
      [
        "Ngi",
        "ya"
      ],
      [
        "yoM",
        "hlaba"
      ],
      [
        "ngempela",
        "sonto"
      ],
      [
        "Hla",
        "bisa"
      ],
      [
        "I",
        "SI"
      ],
      [
        "P",
        "ar"
      ],
      [
        "s",
        "s"
      ],
      [
        "u",
        "Si"
      ],
      [
        "v",
        "esi"
      ],
      [
        "ku",
        "thiwa"
      ],
      [
        "ku",
        "wona"
      ],
      [
        "le",
        "ma"
      ],
      [
        "ba",
        "khe"
      ],
      [
        "wa",
        "bo"
      ],
      [
        "ka",
        "mpani"
      ],
      [
        "we",
        "zi"
      ],
      [
        "na",
        "wo"
      ],
      [
        "oku",
        "thiwa"
      ],
      [
        "ye",
        "zi"
      ],
      [
        "bu",
        "zo"
      ],
      [
        "so",
        "ma"
      ],
      [
        "pha",
        "zami"
      ],
      [
        "da",
        "la"
      ],
      [
        "phi",
        "sa"
      ],
      [
        "gu",
        "ngu"
      ],
      [
        "bona",
        "kala"
      ],
      [
        "tat",
        "i"
      ],
      [
        "tshu",
        "deni"
      ],
      [
        "Ngco",
        "bo"
      ],
      [
        "I",
        "n"
      ],
      [
        "K",
        "ZN"
      ],
      [
        "a",
        "bo"
      ],
      [
        "g",
        "qo"
      ],
      [
        "n",
        "ci"
      ],
      [
        "n",
        "sela"
      ],
      [
        "y",
        "wa"
      ],
      [
        "ku",
        "m"
      ],
      [
        "ku",
        "bo"
      ],
      [
        "ku",
        "yo"
      ],
      [
        "la",
        "nga"
      ],
      [
        "li",
        "se"
      ],
      [
        "se",
        "ligi"
      ],
      [
        "em",
        "hla"
      ],
      [
        "kho",
        "kh"
      ],
      [
        "nya",
        "nga"
      ],
      [
        "kulu",
        "mo"
      ],
      [
        "ezin",
        "kundleni"
      ],
      [
        "lingi",
        "sa"
      ],
      [
        "boku",
        "fika"
      ],
      [
        "ad",
        "dou"
      ],
      [
        "Ou",
        "addou"
      ],
      [
        "emhla",
        "beni"
      ],
      [
        "N",
        "edbank"
      ],
      [
        "R",
        "a"
      ],
      [
        "a",
        "zi"
      ],
      [
        "a",
        "ke"
      ],
      [
        "e",
        "Phalamende"
      ],
      [
        "o",
        "thi"
      ],
      [
        "o",
        "nga"
      ],
      [
        "u",
        "K"
      ],
      [
        "u",
        "S"
      ],
      [
        "y",
        "we"
      ],
      [
        "le",
        "n"
      ],
      [
        "si",
        "ya"
      ],
      [
        "zi",
        "le"
      ],
      [
        "we",
        "Betway"
      ],
      [
        "ni",
        "si"
      ],
      [
        "yi",
        "se"
      ],
      [
        "za",
        "se"
      ],
      [
        "za",
        "nsi"
      ],
      [
        "ko",
        "le"
      ],
      [
        "kwa",
        "yo"
      ],
      [
        "kha",
        "tha"
      ],
      [
        "mu",
        "hla"
      ],
      [
        "hlu",
        "ka"
      ],
      [
        "qhu",
        "de"
      ],
      [
        "ns",
        "uku"
      ],
      [
        "izin",
        "hlelo"
      ],
      [
        "mpi",
        "lo"
      ],
      [
        "khanka",
        "so"
      ],
      [
        "Wor",
        "ld"
      ],
      [
        ".",
        "”"
      ],
      [
        "A",
        "R"
      ],
      [
        "N",
        "debe"
      ],
      [
        "W",
        "E"
      ],
      [
        "Y",
        "ou"
      ],
      [
        "a",
        "n"
      ],
      [
        "g",
        "we"
      ],
      [
        "j",
        "waye"
      ],
      [
        "q",
        "h"
      ],
      [
        "la",
        "ma"
      ],
      [
        "ba",
        "be"
      ],
      [
        "ka",
        "ba"
      ],
      [
        "nga",
        "lo"
      ],
      [
        "ni",
        "ke"
      ],
      [
        "be",
        "ke"
      ],
      [
        "sa",
        "ma"
      ],
      [
        "ngo",
        "nyaka"
      ],
      [
        "mi",
        "na"
      ],
      [
        "nj",
        "i"
      ],
      [
        "ki",
        "se"
      ],
      [
        "ti",
        "ki"
      ],
      [
        "bhe",
        "kwe"
      ],
      [
        "hlanga",
        "na"
      ],
      [
        "So",
        "uth"
      ],
      [
        "phum",
        "e"
      ],
      [
        "No",
        "kho"
      ],
      [
        "lle",
        "n"
      ],
      [
        "qinise",
        "kisa"
      ],
      [
        "shiya",
        "ga"
      ],
      [
        "phathi",
        "swa"
      ],
      [
        "komi",
        "ti"
      ],
      [
        "Ngesi",
        "khathi"
      ],
      [
        "H",
        "E"
      ],
      [
        "H",
        "O"
      ],
      [
        "P",
        "S"
      ],
      [
        "S",
        "t"
      ],
      [
        "a",
        "li"
      ],
      [
        "d",
        "le"
      ],
      [
        "i",
        "Sundowns"
      ],
      [
        "m",
        "beni"
      ],
      [
        "p",
        "er"
      ],
      [
        "p",
        "oli"
      ],
      [
        "z",
        "uzu"
      ],
      [
        "ng",
        "xenye"
      ],
      [
        "ba",
        "ba"
      ],
      [
        "si",
        "le"
      ],
      [
        "se",
        "ngathi"
      ],
      [
        "be",
        "la"
      ],
      [
        "be",
        "ka"
      ],
      [
        "sa",
        "khe"
      ],
      [
        "ngo",
        "bu"
      ],
      [
        "nt",
        "er"
      ],
      [
        "aba",
        "zo"
      ],
      [
        "so",
        "n"
      ],
      [
        "qo",
        "ngqoshe"
      ],
      [
        "nya",
        "the"
      ],
      [
        "Ng",
        "qongqoshe"
      ],
      [
        "lwe",
        "la"
      ],
      [
        "hlo",
        "so"
      ],
      [
        "to",
        "li"
      ],
      [
        "thola",
        "kala"
      ],
      [
        "ce",
        "lo"
      ],
      [
        "ion",
        "s"
      ],
      [
        "naba",
        "nye"
      ],
      [
        "est",
        "er"
      ],
      [
        "Ri",
        "cha"
      ],
      [
        "C",
        "y"
      ],
      [
        "H",
        "u"
      ],
      [
        "K",
        "A"
      ],
      [
        "T",
        "ha"
      ],
      [
        "T",
        "HI"
      ],
      [
        "U",
        "B"
      ],
      [
        "Z",
        "o"
      ],
      [
        "c",
        "ele"
      ],
      [
        "d",
        "es"
      ],
      [
        "k",
        "lo"
      ],
      [
        "n",
        "yi"
      ],
      [
        "o",
        "d"
      ],
      [
        "q",
        "wa"
      ],
      [
        "ku",
        "yi"
      ],
      [
        "ku",
        "wo"
      ],
      [
        "ku",
        "yona"
      ],
      [
        "ng",
        "co"
      ],
      [
        "wa",
        "yo"
      ],
      [
        "zi",
        "we"
      ],
      [
        "nd",
        "isi"
      ],
      [
        "nga",
        "wo"
      ],
      [
        "sa",
        "nda"
      ],
      [
        "nge",
        "ka"
      ],
      [
        "so",
        "la"
      ],
      [
        "ama",
        "ne"
      ],
      [
        "ama",
        "zwe"
      ],
      [
        "kwe",
        "thu"
      ],
      [
        "mu",
        "fi"
      ],
      [
        "Ng",
        "ema"
      ],
      [
        "khulu",
        "mela"
      ],
      [
        "fi",
        "nye"
      ],
      [
        "gi",
        "ji"
      ],
      [
        "su",
        "ke"
      ],
      [
        "wesi",
        "lisa"
      ],
      [
        "phakathi",
        "ni"
      ],
      [
        "Pi",
        "toli"
      ],
      [
        "fana",
        "yo"
      ],
      [
        "UN",
        "ksz"
      ],
      [
        "yesi",
        "bili"
      ],
      [
        "vo",
        "ta"
      ],
      [
        "besi",
        "fazane"
      ],
      [
        "Ste",
        "llen"
      ],
      [
        "qhude",
        "lwano"
      ],
      [
        "poli",
        "tiki"
      ],
      [
        "Stellen",
        "bo"
      ],
      [
        "B",
        "u"
      ],
      [
        "C",
        "h"
      ],
      [
        "O",
        "f"
      ],
      [
        "P",
        "hi"
      ],
      [
        "S",
        "HI"
      ],
      [
        "d",
        "li"
      ],
      [
        "e",
        "za"
      ],
      [
        "m",
        "hla"
      ],
      [
        "n",
        "wa"
      ],
      [
        "s",
        "ch"
      ],
      [
        "u",
        "phenyo"
      ],
      [
        "ku",
        "bona"
      ],
      [
        "ng",
        "emi"
      ],
      [
        "si",
        "hlalo"
      ],
      [
        "ka",
        "bi"
      ],
      [
        "lo",
        "mo"
      ],
      [
        "na",
        "lo"
      ],
      [
        "nd",
        "weni"
      ],
      [
        "nd",
        "lovu"
      ],
      [
        "aba",
        "solwa"
      ],
      [
        "ze",
        "lwa"
      ],
      [
        "so",
        "lo"
      ],
      [
        "khu",
        "tha"
      ],
      [
        "nj",
        "wa"
      ],
      [
        "mu",
        "ka"
      ],
      [
        "ndo",
        "ndo"
      ],
      [
        "wu",
        "la"
      ],
      [
        "hlo",
        "ngo"
      ],
      [
        "Ku",
        "thiwa"
      ],
      [
        "ndi",
        "sa"
      ],
      [
        "tsh",
        "ele"
      ],
      [
        "ubu",
        "holi"
      ],
      [
        "202",
        "5"
      ],
      [
        "phum",
        "ele"
      ],
      [
        "buye",
        "la"
      ],
      [
        "gqu",
        "gqu"
      ],
      [
        "Richa",
        "rds"
      ],
      [
        "Stellenbo",
        "sch"
      ],
      [
        "A",
        "M"
      ],
      [
        "A",
        "ngi"
      ],
      [
        "I",
        "X"
      ],
      [
        "L",
        "ions"
      ],
      [
        "S",
        "por"
      ],
      [
        "d",
        "y"
      ],
      [
        "i",
        "ligi"
      ],
      [
        "j",
        "u"
      ],
      [
        "o",
        "s"
      ],
      [
        "r",
        "es"
      ],
      [
        "u",
        "zi"
      ],
      [
        "v",
        "isi"
      ],
      [
        "v",
        "uma"
      ],
      [
        "ku",
        "kho"
      ],
      [
        "ba",
        "kuleli"
      ],
      [
        "si",
        "ba"
      ],
      [
        "si",
        "ni"
      ],
      [
        "kh",
        "wama"
      ],
      [
        "li",
        "nga"
      ],
      [
        "li",
        "swa"
      ],
      [
        "na",
        "muhla"
      ],
      [
        "sa",
        "zi"
      ],
      [
        "yi",
        "ze"
      ],
      [
        "bo",
        "nge"
      ],
      [
        "bo",
        "shwa"
      ],
      [
        "no",
        "N"
      ],
      [
        "ezi",
        "mbili"
      ],
      [
        "nje",
        "ngo"
      ],
      [
        "Ng",
        "e"
      ],
      [
        "ngen",
        "yanga"
      ],
      [
        "hle",
        "li"
      ],
      [
        "ho",
        "la"
      ],
      [
        "in",
        "selelo"
      ],
      [
        "uthe",
        "lezi"
      ],
      [
        "bha",
        "la"
      ],
      [
        "nezi",
        "nye"
      ],
      [
        "kuba",
        "lwa"
      ],
      [
        "ent",
        "sha"
      ],
      [
        "kwama",
        "nye"
      ],
      [
        "go",
        "mo"
      ],
      [
        "ngoLwesi",
        "thathu"
      ],
      [
        "ngoLwesi",
        "hlanu"
      ],
      [
        "huma",
        "lo"
      ],
      [
        "bezi",
        "ndaba"
      ],
      [
        "1",
        "1"
      ],
      [
        "A",
        "l"
      ],
      [
        "E",
        "ph"
      ],
      [
        "F",
        "ou"
      ],
      [
        "L",
        "u"
      ],
      [
        "T",
        "hu"
      ],
      [
        "U",
        "veze"
      ],
      [
        "a",
        "yisi"
      ],
      [
        "c",
        "tion"
      ],
      [
        "e",
        "qenjini"
      ],
      [
        "f",
        "ed"
      ],
      [
        "g",
        "esi"
      ],
      [
        "i",
        "be"
      ],
      [
        "r",
        "eli"
      ],
      [
        "v",
        "ume"
      ],
      [
        "ku",
        "M"
      ],
      [
        "ku",
        "ndla"
      ],
      [
        "la",
        "yi"
      ],
      [
        "le",
        "zwe"
      ],
      [
        "ba",
        "funa"
      ],
      [
        "en",
        "kundleni"
      ],
      [
        "se",
        "lwa"
      ],
      [
        "be",
        "ki"
      ],
      [
        "ye",
        "Ma"
      ],
      [
        "ye",
        "Betway"
      ],
      [
        "aba",
        "nye"
      ],
      [
        "aba",
        "landeli"
      ],
      [
        "ko",
        "n"
      ],
      [
        "so",
        "na"
      ],
      [
        "ama",
        "lungu"
      ],
      [
        "fu",
        "ni"
      ],
      [
        "tho",
        "mbo"
      ],
      [
        "shi",
        "we"
      ],
      [
        "qo",
        "kwa"
      ],
      [
        "qo",
        "nda"
      ],
      [
        "fa",
        "ni"
      ],
      [
        "nya",
        "ngweni"
      ],
      [
        "ho",
        "lwa"
      ],
      [
        "Si",
        "we"
      ],
      [
        "uma",
        "lo"
      ],
      [
        "yoku",
        "qala"
      ],
      [
        "she",
        "sha"
      ],
      [
        "vi",
        "lle"
      ],
      [
        "thetho",
        "sise"
      ],
      [
        "Ngi",
        "zwe"
      ],
      [
        "eN",
        "kantolo"
      ],
      [
        "umele",
        "lo"
      ],
      [
        "mbu",
        "lu"
      ],
      [
        "bom",
        "vu"
      ],
      [
        "Kho",
        "mishini"
      ],
      [
        "phakami",
        "so"
      ],
      [
        "Con",
        "fed"
      ],
      [
        "gungu",
        "ndlovu"
      ],
      [
        "ngco",
        "no"
      ],
      [
        "Eph",
        "reli"
      ],
      [
        ")",
        ";"
      ],
      [
        "A",
        "G"
      ],
      [
        "C",
        "KP"
      ],
      [
        "E",
        "muva"
      ],
      [
        "L",
        "eli"
      ],
      [
        "U",
        "LI"
      ],
      [
        "Y",
        "i"
      ],
      [
        "Z",
        "I"
      ],
      [
        "e",
        "khuluma"
      ],
      [
        "i",
        "se"
      ],
      [
        "i",
        "kakhulu"
      ],
      [
        "m",
        "eme"
      ],
      [
        "n",
        "thi"
      ],
      [
        "o",
        "da"
      ],
      [
        "o",
        "ngum"
      ],
      [
        "r",
        "ug"
      ],
      [
        "s",
        "se"
      ],
      [
        "u",
        "veze"
      ],
      [
        "ka",
        "nzima"
      ],
      [
        "ka",
        "zwelonke"
      ],
      [
        "we",
        "qembu"
      ],
      [
        "we",
        "thimba"
      ],
      [
        "nga",
        "wu"
      ],
      [
        "oku",
        "yi"
      ],
      [
        "ngo",
        "kwe"
      ],
      [
        "ngo",
        "Juni"
      ],
      [
        "ye",
        "dwa"
      ],
      [
        "em",
        "phakathini"
      ],
      [
        "um",
        "cimbi"
      ],
      [
        "um",
        "solwa"
      ],
      [
        "ke",
        "lele"
      ],
      [
        "za",
        "bo"
      ],
      [
        "za",
        "nge"
      ],
      [
        "aba",
        "sebenzi"
      ],
      [
        "aba",
        "fundi"
      ],
      [
        "ko",
        "si"
      ],
      [
        "ko",
        "leni"
      ],
      [
        "bo",
        "nke"
      ],
      [
        "the",
        "le"
      ],
      [
        "no",
        "zi"
      ],
      [
        "nda",
        "tion"
      ],
      [
        "Ng",
        "oku"
      ],
      [
        "lwe",
        "ngu"
      ],
      [
        "ri",
        "s"
      ],
      [
        "fi",
        "sa"
      ],
      [
        "phi",
        "ni"
      ],
      [
        "te",
        "shi"
      ],
      [
        "qhu",
        "ba"
      ],
      [
        "do",
        "ko"
      ],
      [
        "do",
        "da"
      ],
      [
        "koku",
        "thi"
      ],
      [
        "woku",
        "qala"
      ],
      [
        "waba",
        "khaya"
      ],
      [
        "ngqo",
        "ngqoshe"
      ],
      [
        "funda",
        "zweni"
      ],
      [
        "nemi",
        "nyaka"
      ],
      [
        "mpa",
        "hla"
      ],
      [
        "BA",
        "CKP"
      ],
      [
        "Dla",
        "mini"
      ],
      [
        "buke",
        "ka"
      ],
      [
        "them",
        "bi"
      ],
      [
        "EP",
        "IX"
      ],
      [
        "Nje",
        "ngoba"
      ],
      [
        "Fou",
        "ndation"
      ],
      [
        "yeMa",
        "ntshi"
      ],
      [
        "Siwe",
        "lele"
      ],
      [
        "thethosise",
        "kelo"
      ],
      [
        "AG",
        "EPIX"
      ],
      [
        "nthi",
        "a"
      ],
      [
        "BACKP",
        "AGEPIX"
      ],
      [
        "2",
        "5"
      ],
      [
        "A",
        "da"
      ],
      [
        "F",
        "A"
      ],
      [
        "F",
        "i"
      ],
      [
        "F",
        "u"
      ],
      [
        "M",
        "or"
      ],
      [
        "S",
        "E"
      ],
      [
        "d",
        "ela"
      ],
      [
        "d",
        "lwengu"
      ],
      [
        "e",
        "pha"
      ],
      [
        "e",
        "Ma"
      ],
      [
        "i",
        "onal"
      ],
      [
        "k",
        "t"
      ],
      [
        "n",
        "za"
      ],
      [
        "o",
        "beku"
      ],
      [
        "o",
        "kokuqala"
      ],
      [
        "u",
        "Z"
      ],
      [
        "en",
        "za"
      ],
      [
        "zi",
        "si"
      ],
      [
        "zi",
        "zo"
      ],
      [
        "li",
        "ma"
      ],
      [
        "na",
        "ni"
      ],
      [
        "na",
        "zo"
      ],
      [
        "uku",
        "yi"
      ],
      [
        "be",
        "ngi"
      ],
      [
        "lu",
        "tho"
      ],
      [
        "sa",
        "ka"
      ],
      [
        "ye",
        "thu"
      ],
      [
        "za",
        "ba"
      ],
      [
        "ze",
        "ke"
      ],
      [
        "mi",
        "nyaka"
      ],
      [
        "so",
        "m"
      ],
      [
        "ngi",
        "ya"
      ],
      [
        "ama",
        "ciko"
      ],
      [
        "kw",
        "eni"
      ],
      [
        "ezi",
        "ningi"
      ],
      [
        "ki",
        "bha"
      ],
      [
        "mu",
        "kela"
      ],
      [
        "ndo",
        "n"
      ],
      [
        "ho",
        "visi"
      ],
      [
        "emi",
        "bili"
      ],
      [
        "uM",
        "i"
      ],
      [
        "seben",
        "ze"
      ],
      [
        "ri",
        "l"
      ],
      [
        "ti",
        "onal"
      ],
      [
        "bhe",
        "dlela"
      ],
      [
        "bha",
        "li"
      ],
      [
        "du",
        "ze"
      ],
      [
        "tsh",
        "enzi"
      ],
      [
        "zoku",
        "thi"
      ],
      [
        "koku",
        "ba"
      ],
      [
        "naba",
        "ntu"
      ],
      [
        "wi",
        "ne"
      ],
      [
        "yesi",
        "thathu"
      ],
      [
        "hambe",
        "la"
      ],
      [
        "pu",
        "la"
      ],
      [
        "chu",
        "nu"
      ],
      [
        "for",
        "d"
      ],
      [
        "Cy",
        "ril"
      ],
      [
        "nozi",
        "nti"
      ],
      [
        "Ada",
        "ms"
      ],
      [
        "2",
        "3"
      ],
      [
        "A",
        "b"
      ],
      [
        "D",
        "a"
      ],
      [
        "D",
        "o"
      ],
      [
        "E",
        "si"
      ],
      [
        "H",
        "lo"
      ],
      [
        "I",
        "nde"
      ],
      [
        "I",
        "nter"
      ],
      [
        "M",
        "fundo"
      ],
      [
        "O",
        "khulumela"
      ],
      [
        "V",
        "i"
      ],
      [
        "a",
        "ngi"
      ],
      [
        "e",
        "ye"
      ],
      [
        "e",
        "zweni"
      ],
      [
        "i",
        "bhola"
      ],
      [
        "j",
        "o"
      ],
      [
        "m",
        "qoka"
      ],
      [
        "p",
        "m"
      ],
      [
        "u",
        "kwenza"
      ],
      [
        "x",
        "umalo"
      ],
      [
        "ku",
        "hulumeni"
      ],
      [
        "ku",
        "ngenzeka"
      ],
      [
        "la",
        "pha"
      ],
      [
        "la",
        "nde"
      ],
      [
        "wa",
        "ne"
      ],
      [
        "we",
        "zoku"
      ],
      [
        "uku",
        "nga"
      ],
      [
        "uku",
        "sebenza"
      ],
      [
        "be",
        "r"
      ],
      [
        "lu",
        "le"
      ],
      [
        "em",
        "p"
      ],
      [
        "um",
        "culo"
      ],
      [
        "nt",
        "weni"
      ],
      [
        "aba",
        "ngu"
      ],
      [
        "ha",
        "mbisana"
      ],
      [
        "mi",
        "sele"
      ],
      [
        "lwa",
        "ma"
      ],
      [
        "kwa",
        "lokho"
      ],
      [
        "ngi",
        "sa"
      ],
      [
        "ama",
        "cala"
      ],
      [
        "esi",
        "de"
      ],
      [
        "ezi",
        "nye"
      ],
      [
        "ezi",
        "nda"
      ],
      [
        "ezi",
        "hlukene"
      ],
      [
        "isi",
        "gameko"
      ],
      [
        "shi",
        "sa"
      ],
      [
        "da",
        "yisa"
      ],
      [
        "qa",
        "leni"
      ],
      [
        "dlu",
        "la"
      ],
      [
        "Nat",
        "ional"
      ],
      [
        "woku",
        "thi"
      ],
      [
        "sen",
        "kantolo"
      ],
      [
        "qeqe",
        "sha"
      ],
      [
        "cwa",
        "ni"
      ],
      [
        "Nga",
        "pha"
      ],
      [
        "Aba",
        "ntu"
      ],
      [
        "nyu",
        "ka"
      ],
      [
        "phele",
        "ni"
      ],
      [
        "thwe",
        "swa"
      ],
      [
        "cha",
        "za"
      ],
      [
        "Na",
        "kuba"
      ],
      [
        "hlaka",
        "lo"
      ],
      [
        "QE",
        "QE"
      ],
      [
        "Awa",
        "rds"
      ],
      [
        "yale",
        "zo"
      ],
      [
        "You",
        "sse"
      ],
      [
        "giji",
        "ma"
      ],
      [
        "Of",
        "fs"
      ],
      [
        "QEQE",
        "SHI"
      ],
      [
        "Yousse",
        "f"
      ],
      [
        "B",
        "eku"
      ],
      [
        "D",
        "e"
      ],
      [
        "e",
        "tha"
      ],
      [
        "e",
        "qo"
      ],
      [
        "e",
        "yoku"
      ],
      [
        "e",
        "besi"
      ],
      [
        "e",
        "Pitoli"
      ],
      [
        "g",
        "ama"
      ],
      [
        "i",
        "M"
      ],
      [
        "i",
        "m"
      ],
      [
        "i",
        "the"
      ],
      [
        "i",
        "Co"
      ],
      [
        "j",
        "ele"
      ],
      [
        "p",
        "end"
      ],
      [
        "r",
        "s"
      ],
      [
        "u",
        "su"
      ],
      [
        "u",
        "te"
      ],
      [
        "u",
        "khetho"
      ],
      [
        "w",
        "n"
      ],
      [
        "z",
        "z"
      ],
      [
        "z",
        "emi"
      ],
      [
        "ku",
        "qala"
      ],
      [
        "ba",
        "bo"
      ],
      [
        "si",
        "we"
      ],
      [
        "zi",
        "ka"
      ],
      [
        "kh",
        "eni"
      ],
      [
        "kh",
        "wana"
      ],
      [
        "li",
        "ni"
      ],
      [
        "li",
        "nye"
      ],
      [
        "thi",
        "le"
      ],
      [
        "ph",
        "eli"
      ],
      [
        "oku",
        "nye"
      ],
      [
        "um",
        "ela"
      ],
      [
        "um",
        "phakathi"
      ],
      [
        "nt",
        "sho"
      ],
      [
        "za",
        "kwabo"
      ],
      [
        "ze",
        "lwe"
      ],
      [
        "ama",
        "nye"
      ],
      [
        "ama",
        "ndla"
      ],
      [
        "izi",
        "nisi"
      ],
      [
        "mu",
        "zi"
      ],
      [
        "mbi",
        "ko"
      ],
      [
        "di",
        "ngeka"
      ],
      [
        "es",
        "u"
      ],
      [
        "in",
        "q"
      ],
      [
        "phi",
        "ko"
      ],
      [
        "phi",
        "nda"
      ],
      [
        "vu",
        "la"
      ],
      [
        "bha",
        "nde"
      ],
      [
        "eku",
        "seni"
      ],
      [
        "she",
        "lwe"
      ],
      [
        "zwa",
        "kala"
      ],
      [
        "Ga",
        "ute"
      ],
      [
        "Uni",
        "ver"
      ],
      [
        "pi",
        "lo"
      ],
      [
        "khum",
        "bula"
      ],
      [
        "Go",
        "ld"
      ],
      [
        "Zi",
        "mnyama"
      ],
      [
        "bhi",
        "ki"
      ],
      [
        "hlangani",
        "sa"
      ],
      [
        "igh",
        "t"
      ],
      [
        "Peter",
        "sen"
      ],
      [
        "tati",
        "mende"
      ],
      [
        "khokh",
        "ela"
      ],
      [
        "Inde",
        "pend"
      ],
      [
        "khwana",
        "zi"
      ],
      [
        "Gaute",
        "ng"
      ],
      [
        "Independ",
        "ent"
      ],
      [
        "1",
        "2"
      ],
      [
        "1",
        "3"
      ],
      [
        "A",
        "si"
      ],
      [
        "C",
        "C"
      ],
      [
        "E",
        "m"
      ],
      [
        "K",
        "rug"
      ],
      [
        "W",
        "A"
      ],
      [
        "c",
        "on"
      ],
      [
        "c",
        "abanga"
      ],
      [
        "e",
        "yisi"
      ],
      [
        "e",
        "Polokwane"
      ],
      [
        "e",
        "Goli"
      ],
      [
        "g",
        "qa"
      ],
      [
        "h",
        "hovisi"
      ],
      [
        "k",
        "m"
      ],
      [
        "k",
        "eme"
      ],
      [
        "p",
        "p"
      ],
      [
        "y",
        "eni"
      ],
      [
        "ku",
        "lindeleke"
      ],
      [
        "ng",
        "cwa"
      ],
      [
        "ng",
        "xo"
      ],
      [
        "wa",
        "r"
      ],
      [
        "en",
        "kulu"
      ],
      [
        "en",
        "ce"
      ],
      [
        "si",
        "ty"
      ],
      [
        "si",
        "khwama"
      ],
      [
        "we",
        "to"
      ],
      [
        "na",
        "tional"
      ],
      [
        "be",
        "nga"
      ],
      [
        "ya",
        "bo"
      ],
      [
        "ya",
        "yo"
      ],
      [
        "ngo",
        "zi"
      ],
      [
        "ngo",
        "mdlalo"
      ],
      [
        "ye",
        "Premiership"
      ],
      [
        "em",
        "u"
      ],
      [
        "yi",
        "seni"
      ],
      [
        "aba",
        "bili"
      ],
      [
        "bi",
        "t"
      ],
      [
        "kwa",
        "ku"
      ],
      [
        "khu",
        "khu"
      ],
      [
        "kha",
        "kha"
      ],
      [
        "ela",
        "li"
      ],
      [
        "izi",
        "li"
      ],
      [
        "ezi",
        "nta"
      ],
      [
        "thu",
        "ze"
      ],
      [
        "thu",
        "thu"
      ],
      [
        "shi",
        "ye"
      ],
      [
        "er",
        "ation"
      ],
      [
        "sha",
        "na"
      ],
      [
        "hle",
        "le"
      ],
      [
        "kwi",
        "Ndebe"
      ],
      [
        "uM",
        "nyango"
      ],
      [
        "in",
        "kulumo"
      ],
      [
        "Ku",
        "le"
      ],
      [
        "bha",
        "kela"
      ],
      [
        "UM",
        "QEQESHI"
      ],
      [
        "vi",
        "vin"
      ],
      [
        "So",
        "weto"
      ],
      [
        "cu",
        "lweni"
      ],
      [
        "qini",
        "so"
      ],
      [
        "wen",
        "za"
      ],
      [
        "No",
        "v"
      ],
      [
        "vo",
        "ti"
      ],
      [
        "bala",
        "la"
      ],
      [
        "kusu",
        "ka"
      ],
      [
        "po",
        "ti"
      ],
      [
        "hloni",
        "pha"
      ],
      [
        "yela",
        "na"
      ],
      [
        "hlango",
        "thi"
      ],
      [
        "yu",
        "vesi"
      ],
      [
        "doko",
        "tela"
      ],
      [
        "tshenzi",
        "swa"
      ],
      [
        "Inter",
        "national"
      ],
      [
        "ezinda",
        "weni"
      ],
      [
        "Univer",
        "sity"
      ],
      [
        "2",
        "4"
      ],
      [
        "D",
        "E"
      ],
      [
        "E",
        "a"
      ],
      [
        "I",
        "Pirates"
      ],
      [
        "K",
        "humalo"
      ],
      [
        "M",
        "hlongo"
      ],
      [
        "N",
        "kantolo"
      ],
      [
        "N",
        "xumalo"
      ],
      [
        "T",
        "ho"
      ],
      [
        "U",
        "S"
      ],
      [
        "V",
        "AR"
      ],
      [
        "Z",
        "a"
      ],
      [
        "Z",
        "we"
      ],
      [
        "d",
        "on"
      ],
      [
        "g",
        "xe"
      ],
      [
        "h",
        "lwe"
      ],
      [
        "i",
        "r"
      ],
      [
        "i",
        "za"
      ],
      [
        "i",
        "ndebe"
      ],
      [
        "k",
        "eni"
      ],
      [
        "n",
        "weni"
      ],
      [
        "o",
        "l"
      ],
      [
        "y",
        "nthia"
      ],
      [
        "z",
        "wi"
      ],
      [
        "ku",
        "na"
      ],
      [
        "la",
        "ni"
      ],
      [
        "la",
        "ck"
      ],
      [
        "le",
        "thu"
      ],
      [
        "ma",
        "n"
      ],
      [
        "lo",
        "mbili"
      ],
      [
        "ni",
        "ka"
      ],
      [
        "em",
        "culweni"
      ],
      [
        "um",
        "thetho"
      ],
      [
        "aba",
        "sa"
      ],
      [
        "aba",
        "sha"
      ],
      [
        "ko",
        "wamanqamu"
      ],
      [
        "bo",
        "phe"
      ],
      [
        "bi",
        "zwa"
      ],
      [
        "pha",
        "tha"
      ],
      [
        "khu",
        "ndla"
      ],
      [
        "hla",
        "thuze"
      ],
      [
        "dla",
        "lela"
      ],
      [
        "esi",
        "fundazweni"
      ],
      [
        "isi",
        "mo"
      ],
      [
        "thu",
        "le"
      ],
      [
        "bh",
        "izinisi"
      ],
      [
        "da",
        "weni"
      ],
      [
        "di",
        "ngo"
      ],
      [
        "ngoku",
        "shesha"
      ],
      [
        "ngen",
        "za"
      ],
      [
        "hle",
        "lweni"
      ],
      [
        "kwi",
        "Caf"
      ],
      [
        "Si",
        "funa"
      ],
      [
        "in",
        "kantolo"
      ],
      [
        "Ku",
        "lo"
      ],
      [
        "sebenzi",
        "se"
      ],
      [
        "UM",
        "E"
      ],
      [
        "du",
        "du"
      ],
      [
        "Su",
        "per"
      ],
      [
        "men",
        "t"
      ],
      [
        "sen",
        "daweni"
      ],
      [
        "umu",
        "fi"
      ],
      [
        "kwesi",
        "zini"
      ],
      [
        "Or",
        "bit"
      ],
      [
        "lli",
        "es"
      ],
      [
        "Ca",
        "pe"
      ],
      [
        "ngwa",
        "ne"
      ],
      [
        "UK",
        "ZN"
      ],
      [
        "uC",
        "ardoso"
      ],
      [
        "Ste",
        "llies"
      ],
      [
        "nyak",
        "eni"
      ],
      [
        "hluku",
        "me"
      ],
      [
        "hlango",
        "thini"
      ],
      [
        "nji",
        "swa"
      ],
      [
        "shiyaga",
        "lombili"
      ],
      [
        "PS",
        "L"
      ],
      [
        "nyathe",
        "lo"
      ],
      [
        "Spor",
        "ts"
      ],
      [
        "Confed",
        "eration"
      ],
      [
        "pula",
        "zini"
      ],
      [
        "Krug",
        "er"
      ],
      [
        "Nov",
        "emba"
      ],
      [
        "1",
        "6"
      ],
      [
        "1",
        "00"
      ],
      [
        "B",
        "lack"
      ],
      [
        "D",
        "LA"
      ],
      [
        "F",
        "M"
      ],
      [
        "K",
        "i"
      ],
      [
        "M",
        "usi"
      ],
      [
        "M",
        "chunu"
      ],
      [
        "e",
        "ar"
      ],
      [
        "e",
        "hlukene"
      ],
      [
        "e",
        "bezi"
      ],
      [
        "l",
        "y"
      ],
      [
        "o",
        "bala"
      ],
      [
        "s",
        "si"
      ],
      [
        "s",
        "weni"
      ],
      [
        "u",
        "kwazi"
      ],
      [
        "u",
        "khale"
      ],
      [
        "ku",
        "thi"
      ],
      [
        "ku",
        "se"
      ],
      [
        "la",
        "m"
      ],
      [
        "ba",
        "yi"
      ],
      [
        "wa",
        "m"
      ],
      [
        "wa",
        "zi"
      ],
      [
        "wa",
        "ri"
      ],
      [
        "en",
        "er"
      ],
      [
        "si",
        "yi"
      ],
      [
        "si",
        "fundazwe"
      ],
      [
        "ka",
        "ngaka"
      ],
      [
        "ka",
        "phethroli"
      ],
      [
        "ma",
        "nga"
      ],
      [
        "ma",
        "qembu"
      ],
      [
        "we",
        "Mamelodi"
      ],
      [
        "se",
        "ma"
      ],
      [
        "lu",
        "lekile"
      ],
      [
        "ne",
        "s"
      ],
      [
        "um",
        "lando"
      ],
      [
        "um",
        "qeqeshi"
      ],
      [
        "zo",
        "ba"
      ],
      [
        "ko",
        "mdlalo"
      ],
      [
        "nge",
        "le"
      ],
      [
        "nge",
        "zin"
      ],
      [
        "so",
        "nke"
      ],
      [
        "so",
        "mbulu"
      ],
      [
        "isi",
        "celo"
      ],
      [
        "thu",
        "beni"
      ],
      [
        "da",
        "yi"
      ],
      [
        "da",
        "bu"
      ],
      [
        "di",
        "a"
      ],
      [
        "pho",
        "yiseni"
      ],
      [
        "hle",
        "la"
      ],
      [
        "on",
        "ke"
      ],
      [
        "ho",
        "use"
      ],
      [
        "Si",
        "lo"
      ],
      [
        "mba",
        "lwa"
      ],
      [
        "me",
        "hlo"
      ],
      [
        "hi",
        "nga"
      ],
      [
        "kwen",
        "ziwa"
      ],
      [
        "vu",
        "le"
      ],
      [
        "ga",
        "da"
      ],
      [
        "hlu",
        "kile"
      ],
      [
        "mbe",
        "la"
      ],
      [
        "bona",
        "kale"
      ],
      [
        "gci",
        "neni"
      ],
      [
        "land",
        "ele"
      ],
      [
        "dlu",
        "nkulu"
      ],
      [
        "do",
        "lo"
      ],
      [
        "khi",
        "shwe"
      ],
      [
        "cu",
        "la"
      ],
      [
        "qini",
        "sa"
      ],
      [
        "phen",
        "ya"
      ],
      [
        "tu",
        "li"
      ],
      [
        "eN",
        "ingizimu"
      ],
      [
        "bheka",
        "ne"
      ],
      [
        "st",
        "er"
      ],
      [
        "eya",
        "yi"
      ],
      [
        "buye",
        "le"
      ],
      [
        "ngoLwesi",
        "bili"
      ],
      [
        "wom",
        "beni"
      ],
      [
        "oma",
        "zisi"
      ],
      [
        "eze",
        "hlukene"
      ],
      [
        "bhiki",
        "sho"
      ],
      [
        "1",
        "4"
      ],
      [
        "1",
        "7"
      ],
      [
        "2",
        "1"
      ],
      [
        "B",
        "e"
      ],
      [
        "C",
        "ULI"
      ],
      [
        "D",
        "uma"
      ],
      [
        "G",
        "u"
      ],
      [
        "K",
        "h"
      ],
      [
        "R",
        "e"
      ],
      [
        "Y",
        "ize"
      ],
      [
        "c",
        "t"
      ],
      [
        "c",
        "aba"
      ],
      [
        "d",
        "lelwa"
      ],
      [
        "e",
        "Lo"
      ],
      [
        "e",
        "bho"
      ],
      [
        "g",
        "co"
      ],
      [
        "h",
        "ha"
      ],
      [
        "i",
        "mpilo"
      ],
      [
        "l",
        "ford"
      ],
      [
        "o",
        "mu"
      ],
      [
        "o",
        "dlule"
      ],
      [
        "r",
        "g"
      ],
      [
        "s",
        "ki"
      ],
      [
        "t",
        "so"
      ],
      [
        "u",
        "suku"
      ],
      [
        "la",
        "wu"
      ],
      [
        "ba",
        "thi"
      ],
      [
        "wa",
        "yi"
      ],
      [
        "ka",
        "yo"
      ],
      [
        "ka",
        "ncane"
      ],
      [
        "lo",
        "li"
      ],
      [
        "thi",
        "kithi"
      ],
      [
        "na",
        "bezindaba"
      ],
      [
        "uku",
        "m"
      ],
      [
        "uku",
        "thola"
      ],
      [
        "nga",
        "bomvu"
      ],
      [
        "ya",
        "m"
      ],
      [
        "ne",
        "cala"
      ],
      [
        "bu",
        "yi"
      ],
      [
        "aba",
        "zi"
      ],
      [
        "aba",
        "holi"
      ],
      [
        "kwa",
        "ti"
      ],
      [
        "so",
        "nga"
      ],
      [
        "khu",
        "le"
      ],
      [
        "ama",
        "nzi"
      ],
      [
        "kha",
        "kheni"
      ],
      [
        "tha",
        "ka"
      ],
      [
        "esi",
        "nga"
      ],
      [
        "esi",
        "bhedlela"
      ],
      [
        "ezi",
        "ngu"
      ],
      [
        "shi",
        "wo"
      ],
      [
        "Ma",
        "r"
      ],
      [
        "eli",
        "zo"
[...]
